{
  "version": "1.0",
  "truncation": null,
  "padding": null,
  "added_tokens": [
    {
      "id": 1,
      "content": "<|pad|>",
      "single_word": false,
      "lstrip": false,
      "rstrip": false,
      "normalized": false,
      "special": true
    }
  ],
  "normalizer": null,
  "pre_tokenizer": {
    "type": "ByteLevel",
    "add_prefix_space": false,
    "trim_offsets": true,
    "use_regex": true
  },
  "post_processor": {
    "type": "ByteLevel",
    "add_prefix_space": true,
    "trim_offsets": true,
    "use_regex": true
  },
  "decoder": {
    "type": "ByteLevel",
    "add_prefix_space": true,
    "trim_offsets": true,
    "use_regex": true
  },
  "model": {
    "type": "BPE",
    "dropout": null,
    "unk_token": null,
    "continuing_subword_prefix": null,
    "end_of_word_suffix": null,
    "fuse_unk": false,
    "byte_fallback": false,
    "ignore_merges": false,
    "vocab": {
      "": 0,
      "<|pad|>": 1,
      "!": 2,
      "\"": 3,
      "#": 4,
      "$": 5,
      "%": 6,
      "&": 7,
      "'": 8,
      "(": 9,
      ")": 10,
      "*": 11,
      "+": 12,
      ",": 13,
      "-": 14,
      ".": 15,
      "/": 16,
      "0": 17,
      "1": 18,
      "2": 19,
      "3": 20,
      "4": 21,
      "5": 22,
      "6": 23,
      "7": 24,
      "8": 25,
      "9": 26,
      ":": 27,
      ";": 28,
      "<": 29,
      "=": 30,
      ">": 31,
      "?": 32,
      "@": 33,
      "A": 34,
      "B": 35,
      "C": 36,
      "D": 37,
      "E": 38,
      "F": 39,
      "G": 40,
      "H": 41,
      "I": 42,
      "J": 43,
      "K": 44,
      "L": 45,
      "M": 46,
      "N": 47,
      "O": 48,
      "P": 49,
      "Q": 50,
      "R": 51,
      "S": 52,
      "T": 53,
      "U": 54,
      "V": 55,
      "W": 56,
      "X": 57,
      "Y": 58,
      "Z": 59,
      "[": 60,
      "\\": 61,
      "]": 62,
      "^": 63,
      "_": 64,
      "`": 65,
      "a": 66,
      "b": 67,
      "c": 68,
      "d": 69,
      "e": 70,
      "f": 71,
      "g": 72,
      "h": 73,
      "i": 74,
      "j": 75,
      "k": 76,
      "l": 77,
      "m": 78,
      "n": 79,
      "o": 80,
      "p": 81,
      "q": 82,
      "r": 83,
      "s": 84,
      "t": 85,
      "u": 86,
      "v": 87,
      "w": 88,
      "x": 89,
      "y": 90,
      "z": 91,
      "{": 92,
      "|": 93,
      "}": 94,
      "~": 95,
      "¡": 96,
      "¢": 97,
      "£": 98,
      "¤": 99,
      "¥": 100,
      "¦": 101,
      "§": 102,
      "¨": 103,
      "©": 104,
      "ª": 105,
      "«": 106,
      "¬": 107,
      "®": 108,
      "¯": 109,
      "°": 110,
      "±": 111,
      "²": 112,
      "³": 113,
      "´": 114,
      "µ": 115,
      "¶": 116,
      "·": 117,
      "¸": 118,
      "¹": 119,
      "º": 120,
      "»": 121,
      "¼": 122,
      "½": 123,
      "¾": 124,
      "¿": 125,
      "Â": 126,
      "Ã": 127,
      "Ä": 128,
      "Å": 129,
      "Æ": 130,
      "Ç": 131,
      "È": 132,
      "É": 133,
      "Ê": 134,
      "Ë": 135,
      "Ì": 136,
      "Í": 137,
      "Î": 138,
      "Ï": 139,
      "Ð": 140,
      "Ñ": 141,
      "Ò": 142,
      "Ó": 143,
      "Ô": 144,
      "Õ": 145,
      "Ö": 146,
      "×": 147,
      "Ø": 148,
      "Ù": 149,
      "Ú": 150,
      "Û": 151,
      "Ü": 152,
      "Ý": 153,
      "Þ": 154,
      "ß": 155,
      "à": 156,
      "á": 157,
      "â": 158,
      "ã": 159,
      "ä": 160,
      "å": 161,
      "æ": 162,
      "ç": 163,
      "è": 164,
      "é": 165,
      "ê": 166,
      "ë": 167,
      "ì": 168,
      "í": 169,
      "î": 170,
      "ï": 171,
      "ð": 172,
      "ó": 173,
      "ô": 174,
      "ĉ": 175,
      "Ċ": 176,
      "Ġ": 177,
      "Ģ": 178,
      "ģ": 179,
      "Ĥ": 180,
      "ĥ": 181,
      "Ħ": 182,
      "ħ": 183,
      "Ĩ": 184,
      "ĩ": 185,
      "Ī": 186,
      "ī": 187,
      "Ĭ": 188,
      "ĭ": 189,
      "Į": 190,
      "į": 191,
      "İ": 192,
      "ı": 193,
      "Ĳ": 194,
      "ĳ": 195,
      "Ĵ": 196,
      "ĵ": 197,
      "Ķ": 198,
      "ķ": 199,
      "ĸ": 200,
      "Ĺ": 201,
      "ĺ": 202,
      "Ļ": 203,
      "ļ": 204,
      "Ľ": 205,
      "ľ": 206,
      "Ŀ": 207,
      "ŀ": 208,
      "Ł": 209,
      "ł": 210,
      "Ń": 211,
      "Ġt": 212,
      "ĠĠ": 213,
      "Ġa": 214,
      "he": 215,
      "in": 216,
      "re": 217,
      "on": 218,
      "Ġthe": 219,
      "er": 220,
      "at": 221,
      "Ġo": 222,
      "ĠĠĠĠ": 223,
      "Ġs": 224,
      "en": 225,
      "Ġc": 226,
      "es": 227,
      "or": 228,
      "nd": 229,
      "it": 230,
      "is": 231,
      "Ġw": 232,
      "al": 233,
      "Ġp": 234,
      "ed": 235,
      "Ġof": 236,
      "an": 237,
      "Ġf": 238,
      "ing": 239,
      "Ġb": 240,
      "ion": 241,
      "Ġin": 242,
      "ar": 243,
      "ic": 244,
      "Ġand": 245,
      "ou": 246,
      "Ġm": 247,
      "Ġto": 248,
      "Ġd": 249,
      "--": 250,
      "ro": 251,
      "le": 252,
      "ent": 253,
      "as": 254,
      "ĠĠĠĠĠĠĠĠ": 255,
      "ct": 256,
      "Ġre": 257,
      "Ġth": 258,
      "Ġh": 259,
      "il": 260,
      "Ġe": 261,
      "Ġ|": 262,
      "om": 263,
      "ve": 264,
      "st": 265,
      "ation": 266,
      "Ġn": 267,
      "Ġl": 268,
      "ĠT": 269,
      "et": 270,
      "ĠS": 271,
      "ĠC": 272,
      "ol": 273,
      "ĠA": 274,
      "ly": 275,
      "Ġis": 276,
      "ce": 277,
      "..": 278,
      "Ġbe": 279,
      "im": 280,
      "id": 281,
      "âĢ": 282,
      "se": 283,
      "ur": 284,
      "ot": 285,
      "----": 286,
      "Ġfor": 287,
      "ra": 288,
      "ut": 289,
      "ch": 290,
      "Ġg": 291,
      "ig": 292,
      "ow": 293,
      "ĠI": 294,
      "Ġ1": 295,
      "Ġu": 296,
      "Ġ(": 297,
      "Ġon": 298,
      "Ġst": 299,
      "ver": 300,
      "Ġthat": 301,
      "ĠP": 302,
      "ment": 303,
      "ul": 304,
      "ĠM": 305,
      "Ġpro": 306,
      "ir": 307,
      "ith": 308,
      "Ġcon": 309,
      "el": 310,
      "am": 311,
      "Ġas": 312,
      "ay": 313,
      "Ġ2": 314,
      "Ġwith": 315,
      "Ġy": 316,
      "if": 317,
      "Ġan": 318,
      "ad": 319,
      "Ġor": 320,
      "her": 321,
      "ter": 322,
      "ate": 323,
      "Ġare": 324,
      "ge": 325,
      "ĠB": 326,
      "__": 327,
      "Ġal": 328,
      "od": 329,
      "ĠĠĠĠĠĠĠĠĠĠĠĠĠĠĠĠ": 330,
      "ĠThe": 331,
      "ab": 332,
      "ĠD": 333,
      "ect": 334,
      "ity": 335,
      "ĠR": 336,
      "ers": 337,
      "ess": 338,
      "Ġwh": 339,
      "ist": 340,
      "ies": 341,
      "res": 342,
      "Ġde": 343,
      "pp": 344,
      "00": 345,
      "Ġex": 346,
      "Ġsu": 347,
      "qu": 348,
      "Ġit": 349,
      "ĠE": 350,
      "ĠF": 351,
      "th": 352,
      "Ġcom": 353,
      "ill": 354,
      "ĠH": 355,
      "....": 356,
      "ive": 357,
      "our": 358,
      "op": 359,
      "est": 360,
      "ere": 361,
      "em": 362,
      "us": 363,
      "ri": 364,
      "os": 365,
      "um": 366,
      "Ġby": 367,
      "ĠW": 368,
      "Ġv": 369,
      "nt": 370,
      "ac": 371,
      "ud": 372,
      "ant": 373,
      "ĠN": 374,
      "and": 375,
      "oc": 376,
      "ĠL": 377,
      "ort": 378,
      "Ġat": 379,
      "rom": 380,
      "ain": 381,
      "ore": 382,
      "Ġhe": 383,
      "iv": 384,
      "--------": 385,
      "ĠG": 386,
      "ld": 387,
      "ure": 388,
      "ial": 389,
      "igh": 390,
      "Ġfrom": 391,
      "ec": 392,
      "ak": 393,
      "art": 394,
      "un": 395,
      "Ġr": 396,
      "Ġnot": 397,
      "Ġch": 398,
      "Ġha": 399,
      "Ġwas": 400,
      "ĠO": 401,
      "âĢĻ": 402,
      "Ġsh": 403,
      "ew": 404,
      "ical": 405,
      "pt": 406,
      "end": 407,
      "ions": 408,
      "Ġle": 409,
      "Ġcan": 410,
      "ĠâĢ": 411,
      "Ġthis": 412,
      "all": 413,
      "og": 414,
      "ated": 415,
      "pl": 416,
      "ff": 417,
      "Ġyou": 418,
      "ard": 419,
      "per": 420,
      "Ġhave": 421,
      "ear": 422,
      "du": 423,
      "ther": 424,
      "rou": 425,
      "age": 426,
      "ĠJ": 427,
      "____": 428,
      "Ġsp": 429,
      "ich": 430,
      "ight": 431,
      "Ġwe": 432,
      "act": 433,
      "ĠIn": 434,
      "Ġim": 435,
      "Ġse": 436,
      "ĠU": 437,
      "ould": 438,
      "ations": 439,
      "Ġres": 440,
      "ine": 441,
      "are": 442,
      "Ġ3": 443,
      "ust": 444,
      "ag": 445,
      "ost": 446,
      "The": 447,
      "01": 448,
      "Ġad": 449,
      "orm": 450,
      "Ġk": 451,
      "iz": 452,
      "Ġab": 453,
      "Ġwor": 454,
      "Ġinc": 455,
      "Ġcont": 456,
      "ip": 457,
      "Ġus": 458,
      "cc": 459,
      "ans": 460,
      "Ġen": 461,
      "ult": 462,
      "able": 463,
      "ire": 464,
      "Ġcomp": 465,
      "Ġpl": 466,
      "gh": 467,
      "Ġ\\": 468,
      "Ġwill": 469,
      "ance": 470,
      "Ġint": 471,
      "ell": 472,
      "ome": 473,
      "ib": 474,
      "ast": 475,
      "ru": 476,
      "........": 477,
      "ary": 478,
      "Ġall": 479,
      "vel": 480,
      "Ġwhich": 481,
      "out": 482,
      "ĠĠĠ": 483,
      "ide": 484,
      "Ġapp": 485,
      "Ġtheir": 486,
      "ap": 487,
      "ous": 488,
      "Ġwhe": 489,
      "Ġdis": 490,
      "Ġper": 491,
      ").": 492,
      "ice": 493,
      "ĠSt": 494,
      "ia": 495,
      "ction": 496,
      "ence": 497,
      "ign": 498,
      "Ġhas": 499,
      "ual": 500,
      "ber": 501,
      "ep": 502,
      "ase": 503,
      "Ġme": 504,
      "Ġne": 505,
      "ition": 506,
      "ong": 507,
      "ach": 508,
      "Ġcl": 509,
      "'s": 510,
      "**": 511,
      "ents": 512,
      "ĠTh": 513,
      "form": 514,
      "ater": 515,
      "Ġ$": 516,
      "ood": 517,
      "Ġother": 518,
      "Ġimp": 519,
      "Ġthey": 520,
      "ks": 521,
      "Ġ4": 522,
      "Ġ19": 523,
      "ount": 524,
      "Ġdo": 525,
      "so": 526,
      "Ġwere": 527,
      "ub": 528,
      "Ġyour": 529,
      "Ġmore": 530,
      "Ġman": 531,
      "ild": 532,
      "ress": 533,
      "Ġpart": 534,
      "te": 535,
      "ry": 536,
      "ue": 537,
      "ĠK": 538,
      "ass": 539,
      "Ġ-": 540,
      "ens": 541,
      "ord": 542,
      "Âł": 543,
      "Ġun": 544,
      "erv": 545,
      "Ġpre": 546,
      "ail": 547,
      "ose": 548,
      "ĠV": 549,
      "ime": 550,
      "Ġte": 551,
      "Ġ5": 552,
      "ors": 553,
      "ind": 554,
      "ments": 555,
      "ke": 556,
      "low": 557,
      "âĢĿ": 558,
      "Ġstud": 559,
      "lic": 560,
      "Ġout": 561,
      "Ġbut": 562,
      "av": 563,
      "Ġone": 564,
      "Ġalso": 565,
      "ces": 566,
      "Ġcomm": 567,
      "ame": 568,
      "ace": 569,
      "Ġ201": 570,
      "Ġj": 571,
      "Ġ0": 572,
      "ree": 573,
      "ric": 574,
      "ory": 575,
      "au": 576,
      "ake": 577,
      "one": 578,
      "Ġev": 579,
      "ang": 580,
      "ĠCh": 581,
      "nder": 582,
      "Ġ\"": 583,
      "Ġqu": 584,
      "Ġrec": 585,
      "ific": 586,
      "----------------": 587,
      "fere": 588,
      "ates": 589,
      "ities": 590,
      "ject": 591,
      "ack": 592,
      "Ġso": 593,
      "lud": 594,
      "ph": 595,
      "Ġsy": 596,
      "Ġar": 597,
      "ond": 598,
      "ite": 599,
      "Ġsc": 600,
      "Ġmay": 601,
      "very": 602,
      "olog": 603,
      "reat": 604,
      "ons": 605,
      "ish": 606,
      "ok": 607,
      "ie": 608,
      "Ġacc": 609,
      "Ġag": 610,
      "Ġcons": 611,
      "ĠĠĠĠĠĠĠĠĠĠĠĠ": 612,
      "),": 613,
      "Ġprov": 614,
      "ĠâĢľ": 615,
      "ll": 616,
      "Ġwho": 617,
      "Ġrep": 618,
      "ings": 619,
      "Ġyear": 620,
      "ĠĠĠĠĠĠĠĠĠĠĠĠĠĠĠĠĠĠĠĠĠĠĠĠĠĠĠĠĠĠĠĠ": 621,
      "ram": 622,
      "Ġup": 623,
      "Ġany": 624,
      "vers": 625,
      "ile": 626,
      "int": 627,
      "Ġthan": 628,
      "Ġbeen": 629,
      "Ġwork": 630,
      "lect": 631,
      "ys": 632,
      "erm": 633,
      "tern": 634,
      "ound": 635,
      "Ġabout": 636,
      "Ġem": 637,
      "Ġass": 638,
      "________": 639,
      "xt": 640,
      "Ġ6": 641,
      "Ġunder": 642,
      "own": 643,
      "ĠY": 644,
      "Ġthere": 645,
      "Ġtra": 646,
      "ational": 647,
      "Ġtime": 648,
      "Ġact": 649,
      "Ġits": 650,
      "velop": 651,
      "Ġtr": 652,
      "ative": 653,
      "ility": 654,
      "Ġpe": 655,
      "Ġour": 656,
      "Ġrel": 657,
      "Ġinclud": 658,
      "ĠCom": 659,
      "ays": 660,
      "stem": 661,
      "ĠThis": 662,
      "ian": 663,
      "Ġdes": 664,
      "ĠIt": 665,
      "Ġhis": 666,
      "Ġdif": 667,
      "Ġthem": 668,
      "red": 669,
      "Ġreg": 670,
      "we": 671,
      "over": 672,
      "Ġover": 673,
      "rough": 674,
      "Ġli": 675,
      "rit": 676,
      "ning": 677,
      "ove": 678,
      "ffect": 679,
      "ren": 680,
      "Ġbet": 681,
      "ple": 682,
      "Ġ200": 683,
      "Ġthese": 684,
      "Ġind": 685,
      "Ġbec": 686,
      "Ġuse": 687,
      ".,": 688,
      "rib": 689,
      "Ġwhen": 690,
      "Ġsub": 691,
      "Ġro": 692,
      "Ġsuch": 693,
      "ark": 694,
      "ced": 695,
      "Ġinto": 696,
      "Ġam": 697,
      "Ġexp": 698,
      "ating": 699,
      "Ġcol": 700,
      "iss": 701,
      "irst": 702,
      "ool": 703,
      "ied": 704,
      "ĠPro": 705,
      "ob": 706,
      "ally": 707,
      "ov": 708,
      "ract": 709,
      "alth": 710,
      "Ġkn": 711,
      "................": 712,
      "Ġwould": 713,
      "Ġif": 714,
      "Ġsome": 715,
      "row": 716,
      "Ġ7": 717,
      "ath": 718,
      "les": 719,
      "Ġob": 720,
      "ener": 721,
      "ople": 722,
      "ased": 723,
      "Ġtw": 724,
      "ious": 725,
      "ough": 726,
      "ĠRe": 727,
      "ĠâĢĵ": 728,
      "ĠUn": 729,
      "Ġnew": 730,
      "ient": 731,
      "Ġneed": 732,
      "Ġrequ": 733,
      "Ġhow": 734,
      "Ġno": 735,
      "Ġra": 736,
      "Ġspec": 737,
      "Ġadd": 738,
      "Ġac": 739,
      "yp": 740,
      "Ġhad": 741,
      "hed": 742,
      "Ġdevelop": 743,
      "ause": 744,
      "aw": 745,
      "old": 746,
      "ss": 747,
      "ise": 748,
      "ook": 749,
      "ures": 750,
      "Ġsupp": 751,
      "mer": 752,
      "ics": 753,
      "ular": 754,
      "ange": 755,
      "Ġprodu": 756,
      "Ġoff": 757,
      "Ġ8": 758,
      "02": 759,
      "ert": 760,
      "cy": 761,
      "ont": 762,
      "Ġinv": 763,
      "uring": 764,
      "Ġsystem": 765,
      "ution": 766,
      "Ġthrough": 767,
      "Ġused": 768,
      "Ġonly": 769,
      "ible": 770,
      "ata": 771,
      "formation": 772,
      "Ġpeople": 773,
      "oss": 774,
      "Ġph": 775,
      "Ġmod": 776,
      "Ġfe": 777,
      "eth": 778,
      "rop": 779,
      "ident": 780,
      "Ġresp": 781,
      "Ġtrans": 782,
      "Ġdec": 783,
      "oy": 784,
      "ne": 785,
      "Ġmost": 786,
      "cess": 787,
      "als": 788,
      "Ġ9": 789,
      "Ġsa": 790,
      "Ġdiffere": 791,
      "fter": 792,
      "Ġlike": 793,
      "iew": 794,
      "uc": 795,
      "Ġtwo": 796,
      "Ġpol": 797,
      "Ġatt": 798,
      "Ġfirst": 799,
      "ween": 800,
      "resent": 801,
      "Ġinter": 802,
      "Ġpr": 803,
      "oth": 804,
      "19": 805,
      "Ġshould": 806,
      "ef": 807,
      "its": 808,
      "Ġform": 809,
      "Ġchild": 810,
      "ection": 811,
      "In": 812,
      "ollow": 813,
      "hen": 814,
      "ĠHe": 815,
      "ices": 816,
      "ft": 817,
      "Ġbl": 818,
      "ps": 819,
      "ĠĠĠĠĠ": 820,
      "10": 821,
      "Ġbetween": 822,
      "chool": 823,
      "Ġ10": 824,
      "Ġdet": 825,
      "gram": 826,
      "oint": 827,
      "Ġwhat": 828,
      "Ġdisc": 829,
      "ower": 830,
      "gan": 831,
      "Ġinst": 832,
      "round": 833,
      "und": 834,
      "Ġ&": 835,
      "Ġpers": 836,
      "Ġrem": 837,
      "ER": 838,
      "ful": 839,
      "Ġhel": 840,
      "cept": 841,
      "Ġnum": 842,
      "ited": 843,
      "oci": 844,
      "ng": 845,
      "Ġsur": 846,
      "000": 847,
      "ade": 848,
      "chn": 849,
      "-|": 850,
      "Ġfollow": 851,
      "Ġwell": 852,
      "ants": 853,
      "ink": 854,
      "ON": 855,
      "fore": 856,
      "ublic": 857,
      "arch": 858,
      "Ġsign": 859,
      "erg": 860,
      "Ġserv": 861,
      "ble": 862,
      "Ġeffect": 863,
      "Ġresult": 864,
      "ivers": 865,
      "Ġwhere": 866,
      "ted": 867,
      "ology": 868,
      "ten": 869,
      "ax": 870,
      "Ġhigh": 871,
      "Ġinformation": 872,
      "Ġinf": 873,
      "ork": 874,
      "ruct": 875,
      "ered": 876,
      "Ġmany": 877,
      "su": 878,
      "hes": 879,
      "Ġeach": 880,
      "wn": 881,
      "ural": 882,
      "Ġval": 883,
      "hip": 884,
      "ts": 885,
      "Ġyears": 886,
      "Ġincre": 887,
      "ever": 888,
      "Ġloc": 889,
      "Ġpartic": 890,
      "anc": 891,
      "get": 892,
      "ĠWe": 893,
      "Ġset": 894,
      "Ġ[": 895,
      "Ġdata": 896,
      "ily": 897,
      "Ġsec": 898,
      "ature": 899,
      "Ġco": 900,
      "Ġgo": 901,
      "ari": 902,
      "ĠĠĠĠĠĠ": 903,
      "âĢĵ": 904,
      "ife": 905,
      "ism": 906,
      "Ġ=": 907,
      "irect": 908,
      "ience": 909,
      "ick": 910,
      "ample": 911,
      "sel": 912,
      "Ġfl": 913,
      "Ġprocess": 914,
      "Ġgener": 915,
      "Ġexper": 916,
      "Ġhealth": 917,
      "any": 918,
      "ĠAn": 919,
      "Ġprovid": 920,
      "ines": 921,
      "Ġrequire": 922,
      "ved": 923,
      "Ġent": 924,
      "Ġcould": 925,
      "Ġed": 926,
      "Ġdist": 927,
      "com": 928,
      "Ġbu": 929,
      "Ġwater": 930,
      "ex": 931,
      "Ġsm": 932,
      "Ġhelp": 933,
      "ting": 934,
      "Ġ18": 935,
      "Ġdef": 936,
      "land": 937,
      "Ġcommun": 938,
      "Ġdifferent": 939,
      "TI": 940,
      "ness": 941,
      "urn": 942,
      "Ġsim": 943,
      "led": 944,
      "pos": 945,
      "Ġrese": 946,
      "Ġafter": 947,
      "Ġknow": 948,
      "the": 949,
      "eg": 950,
      "Ġimport": 951,
      "ized": 952,
      "Ġaut": 953,
      "ĠĠĠĠĠĠĠ": 954,
      "ety": 955,
      "vent": 956,
      "Ġmon": 957,
      "Ġext": 958,
      "ives": 959,
      "12": 960,
      "Ġmake": 961,
      "Ġdi": 962,
      "ward": 963,
      "air": 964,
      "Ġcur": 965,
      "Ġ*": 966,
      "ins": 967,
      "Ġher": 968,
      "ES": 969,
      "Ġreport": 970,
      "con": 971,
      "Ġav": 972,
      "Ġappro": 973,
      "Ġconc": 974,
      "arm": 975,
      "ically": 976,
      "ases": 977,
      "Ġthen": 978,
      "overn": 979,
      "ee": 980,
      "Ġmem": 981,
      "ĠAl": 982,
      "Ġcar": 983,
      "ined": 984,
      "Ġmed": 985,
      "Ġpat": 986,
      "Ġlevel": 987,
      "Ġthose": 988,
      "Ġprogram": 989,
      "Ġcor": 990,
      "ict": 991,
      "Ġcount": 992,
      "Th": 993,
      "Ġ12": 994,
      "Ġstate": 995,
      "Ġfin": 996,
      "Ġtyp": 997,
      "Ġcomple": 998,
      "iron": 999,
      "tt": 1000,
      "nce": 1001,
      "ck": 1002,
      "Ġfact": 1003,
      "der": 1004,
      "Ġduring": 1005,
      "ency": 1006,
      "Ġear": 1007,
      "ĠComm": 1008,
      "Ġsupport": 1009,
      "Ġlar": 1010,
      "Ġmin": 1011,
      "Ġlear": 1012,
      "aking": 1013,
      "Ġlong": 1014,
      "sp": 1015,
      "ision": 1016,
      "rol": 1017,
      "Ġperson": 1018,
      "ĠFor": 1019,
      "ages": 1020,
      "Ġsee": 1021,
      "Ġbecause": 1022,
      "ale": 1023,
      "ix": 1024,
      "Ġend": 1025,
      "ĠSp": 1026,
      "Ġke": 1027,
      "11": 1028,
      "uch": 1029,
      "ĠWh": 1030,
      "ĠDe": 1031,
      "ality": 1032,
      "ets": 1033,
      "rent": 1034,
      "ock": 1035,
      "ize": 1036,
      "Ġest": 1037,
      "ivid": 1038,
      "iel": 1039,
      "Ġet": 1040,
      "Ġbeing": 1041,
      "Ġref": 1042,
      "Ġmust": 1043,
      "ven": 1044,
      "Ġcent": 1045,
      "Ġgra": 1046,
      "Ġtechn": 1047,
      "Ġnumber": 1048,
      "Ġgrou": 1049,
      "view": 1050,
      "ĠSc": 1051,
      "EN": 1052,
      "Ġfound": 1053,
      "Ġstudy": 1054,
      "iversity": 1055,
      "ty": 1056,
      "ĠĠĠĠĠĠĠĠĠ": 1057,
      "Ġusing": 1058,
      "ists": 1059,
      "Ġright": 1060,
      "Ġschool": 1061,
      "IN": 1062,
      "Ġstr": 1063,
      "Ġmade": 1064,
      "Ġvery": 1065,
      "ĠAs": 1066,
      "Ġequ": 1067,
      "oun": 1068,
      "Ġstudents": 1069,
      "other": 1070,
      "ĠRes": 1071,
      "50": 1072,
      "Ġmain": 1073,
      "meric": 1074,
      "ability": 1075,
      "Ġdep": 1076,
      "Ġjust": 1077,
      "Ġconsid": 1078,
      "ĠAd": 1079,
      "viron": 1080,
      "Ġboth": 1081,
      "ĠAr": 1082,
      "ually": 1083,
      "Ġown": 1084,
      "imes": 1085,
      "Ġactiv": 1086,
      "Ġtest": 1087,
      "Ġmy": 1088,
      "ĠIf": 1089,
      "ute": 1090,
      "ĠEx": 1091,
      "ffic": 1092,
      "ploy": 1093,
      "Ġshow": 1094,
      "Ġway": 1095,
      "Ġsame": 1096,
      "ital": 1097,
      "ption": 1098,
      "ulation": 1099,
      "io": 1100,
      "Ġeven": 1101,
      "hem": 1102,
      "up": 1103,
      "ential": 1104,
      "Ġcre": 1105,
      "bers": 1106,
      "Ġget": 1107,
      "Ġpur": 1108,
      "blem": 1109,
      "Ġcall": 1110,
      "Ġevery": 1111,
      "Ġshe": 1112,
      "ues": 1113,
      "Ġchar": 1114,
      "ĠInd": 1115,
      "AR": 1116,
      "201": 1117,
      "Ġdoes": 1118,
      "Ġlead": 1119,
      "uss": 1120,
      "Ġhum": 1121,
      "ern": 1122,
      "ank": 1123,
      "ĠCon": 1124,
      "Ġdesign": 1125,
      "ified": 1126,
      "ving": 1127,
      "iness": 1128,
      "ww": 1129,
      "OR": 1130,
      "ional": 1131,
      "________________": 1132,
      "Ġconst": 1133,
      "ization": 1134,
      "itions": 1135,
      "Ġworld": 1136,
      "Ġpublic": 1137,
      "Ġfun": 1138,
      "ield": 1139,
      "Ġ199": 1140,
      "ral": 1141,
      "ration": 1142,
      "stand": 1143,
      "Ġorgan": 1144,
      "Ġwithin": 1145,
      "Ġchildren": 1146,
      "Ġcond": 1147,
      "tain": 1148,
      "gg": 1149,
      "ocial": 1150,
      "ather": 1151,
      "Ġsaid": 1152,
      "Ġimportant": 1153,
      "Ġread": 1154,
      "inc": 1155,
      "ission": 1156,
      "AN": 1157,
      "Ġsol": 1158,
      "Ġfam": 1159,
      "ĠAmeric": 1160,
      "iod": 1161,
      "Ġoper": 1162,
      "Ġexpl": 1163,
      "Ġanal": 1164,
      "30": 1165,
      "à¤": 1166,
      "tle": 1167,
      "vironment": 1168,
      "Ġbo": 1169,
      "---|": 1170,
      "Ġplan": 1171,
      "imate": 1172,
      "Ġproject": 1173,
      "ĠHow": 1174,
      "ĠPl": 1175,
      "tic": 1176,
      "Ġclass": 1177,
      "Ġposs": 1178,
      "Ġpresent": 1179,
      "Ġincluding": 1180,
      "Ġca": 1181,
      "Ġgrow": 1182,
      "Ġbefore": 1183,
      "Ġris": 1184,
      "ier": 1185,
      "erest": 1186,
      "Ġlife": 1187,
      "Ġgood": 1188,
      "ince": 1189,
      "Ġproblem": 1190,
      "hor": 1191,
      "ĠCl": 1192,
      "âĢĶ": 1193,
      "ĠNew": 1194,
      "Ġterm": 1195,
      "Ġprot": 1196,
      "agement": 1197,
      "_{": 1198,
      "ron": 1199,
      "ross": 1200,
      "ody": 1201,
      "Ġcour": 1202,
      "Ġ**": 1203,
      "Ġfind": 1204,
      "ethod": 1205,
      "ared": 1206,
      "20": 1207,
      "Ġagain": 1208,
      "15": 1209,
      "ished": 1210,
      "Ġredu": 1211,
      "Ġ.": 1212,
      "oh": 1213,
      "Ġback": 1214,
      "Ġ15": 1215,
      "ining": 1216,
      "Ġsk": 1217,
      "Ġresearch": 1218,
      "AL": 1219,
      "Ġ20": 1220,
      "ash": 1221,
      "ters": 1222,
      "Ġ202": 1223,
      "Ġshall": 1224,
      "ĠĠĠĠĠĠĠĠĠĠ": 1225,
      "Ġcontin": 1226,
      "cent": 1227,
      "aterial": 1228,
      "Ġocc": 1229,
      "ner": 1230,
      "Ġconf": 1231,
      "Ġapplic": 1232,
      "Ġthree": 1233,
      "ull": 1234,
      "Ġpoint": 1235,
      "Ġident": 1236,
      "de": 1237,
      "ination": 1238,
      "inal": 1239,
      "Ġperform": 1240,
      "man": 1241,
      "ĠQ": 1242,
      "conom": 1243,
      "Ġgu": 1244,
      "ividual": 1245,
      "Ġmodel": 1246,
      "text": 1247,
      "Ġless": 1248,
      "ah": 1249,
      "Ġstand": 1250,
      "Ġpos": 1251,
      "eng": 1252,
      "overnment": 1253,
      "Ġmuch": 1254,
      "18": 1255,
      "Ġop": 1256,
      "ars": 1257,
      "ify": 1258,
      "Ġdevelopment": 1259,
      "Ġmeas": 1260,
      "iven": 1261,
      "Ġgl": 1262,
      "Ġcap": 1263,
      "Ġcare": 1264,
      "cl": 1265,
      "Ġadv": 1266,
      "aj": 1267,
      "read": 1268,
      "ateg": 1269,
      "Ġfollowing": 1270,
      "Ġsmall": 1271,
      "Ġmat": 1272,
      "ergy": 1273,
      "ves": 1274,
      "Ġpract": 1275,
      "ering": 1276,
      "Ġmark": 1277,
      "Ġelect": 1278,
      "Ġcost": 1279,
      "ailable": 1280,
      "Ġwhile": 1281,
      "ave": 1282,
      "14": 1283,
      "Ġdirect": 1284,
      "Ġpar": 1285,
      "Ġallow": 1286,
      "Ġtreat": 1287,
      "Ġday": 1288,
      "cri": 1289,
      "ected": 1290,
      "ouse": 1291,
      "ĠĠĠĠĠĠĠĠĠĠĠ": 1292,
      "Ġtake": 1293,
      "Ġpri": 1294,
      "ĠThey": 1295,
      "usiness": 1296,
      "13": 1297,
      "Ġret": 1298,
      "lement": 1299,
      "omen": 1300,
      "Ġcle": 1301,
      "16": 1302,
      "ring": 1303,
      "itive": 1304,
      "Ġlit": 1305,
      "Ġhand": 1306,
      "ĠSh": 1307,
      "Ġquest": 1308,
      "Ġser": 1309,
      "Ġrece": 1310,
      "Ġpop": 1311,
      "day": 1312,
      "ources": 1313,
      "Ġpower": 1314,
      "Ġproduct": 1315,
      "raph": 1316,
      "Ġproper": 1317,
      "ator": 1318,
      "................................": 1319,
      ".âĢĿ": 1320,
      "ior": 1321,
      "ium": 1322,
      "Ġeduc": 1323,
      "ason": 1324,
      "Ġins": 1325,
      "min": 1326,
      "Ġprovide": 1327,
      "line": 1328,
      "Ġhist": 1329,
      "Ġinterest": 1330,
      "Ġindividual": 1331,
      "ote": 1332,
      "200": 1333,
      "Ġaddition": 1334,
      "acter": 1335,
      "to": 1336,
      "Ġnow": 1337,
      "Ġ16": 1338,
      "Ġmet": 1339,
      "ĠComp": 1340,
      "Ġimpro": 1341,
      "ĠPh": 1342,
      "Ġprof": 1343,
      "mit": 1344,
      "ĠUniversity": 1345,
      "ĠThere": 1346,
      "Ġfood": 1347,
      "way": 1348,
      "Ġdem": 1349,
      ".\"": 1350,
      "Ġvari": 1351,
      "of": 1352,
      "Ġchang": 1353,
      "Ġland": 1354,
      "Ġnon": 1355,
      "port": 1356,
      "Ġben": 1357,
      "Ġbuild": 1358,
      "Ġmaterial": 1359,
      "Ġmethod": 1360,
      "ense": 1361,
      "duct": 1362,
      "Ġbel": 1363,
      "Ġcurrent": 1364,
      "Ġperiod": 1365,
      "Ġdid": 1366,
      "Ġbeh": 1367,
      "This": 1368,
      "Ġwrit": 1369,
      "Ġ14": 1370,
      "ĠZ": 1371,
      "AT": 1372,
      "--------------------------------": 1373,
      "17": 1374,
      "Ġlaw": 1375,
      "ton": 1376,
      "Ġcontrol": 1377,
      "Ġcell": 1378,
      "Ġpres": 1379,
      "Ġorder": 1380,
      "akes": 1381,
      "outh": 1382,
      "Ġarea": 1383,
      "Ġbas": 1384,
      "Ġinvest": 1385,
      "ards": 1386,
      "iqu": 1387,
      "por": 1388,
      "irc": 1389,
      "Ġ17": 1390,
      "Ġdown": 1391,
      "omm": 1392,
      "Ġchange": 1393,
      "ised": 1394,
      "Wh": 1395,
      "lish": 1396,
      "Ġexample": 1397,
      "Ġstart": 1398,
      "Ġhim": 1399,
      "pr": 1400,
      "Ġavailable": 1401,
      "Ġplace": 1402,
      "Ġfac": 1403,
      "Ġlim": 1404,
      "ug": 1405,
      "ries": 1406,
      "ury": 1407,
      "Ġlarge": 1408,
      "Ġvis": 1409,
      "ds": 1410,
      "ĠSe": 1411,
      "Ġemploy": 1412,
      "ĠEng": 1413,
      "Ġ13": 1414,
      "Ġcase": 1415,
      "Ġ\\(": 1416,
      "ertain": 1417,
      "crib": 1418,
      "Ġwithout": 1419,
      "Ġbased": 1420,
      "ien": 1421,
      "Ġunderstand": 1422,
      "less": 1423,
      "ccess": 1424,
      "ended": 1425,
      "Ġhuman": 1426,
      "ains": 1427,
      "ived": 1428,
      "ĠTe": 1429,
      "hers": 1430,
      "ĠÂ": 1431,
      "Ġsignific": 1432,
      "Ġinclude": 1433,
      "AS": 1434,
      "reen": 1435,
      "Ġsocial": 1436,
      "Ġoften": 1437,
      "ĠNo": 1438,
      "ĠEn": 1439,
      "Ġenvironment": 1440,
      "IS": 1441,
      "me": 1442,
      "Ġmeet": 1443,
      "Ġpot": 1444,
      "orn": 1445,
      "ysis": 1446,
      "ource": 1447,
      "Ġsecond": 1448,
      "ĠCol": 1449,
      "ĠAnd": 1450,
      "par": 1451,
      "arent": 1452,
      "//": 1453,
      "IC": 1454,
      "Ġtem": 1455,
      "ED": 1456,
      "Ġve": 1457,
      "urther": 1458,
      "ients": 1459,
      "Ġeng": 1460,
      "ĠMan": 1461,
      "ially": 1462,
      "Ġcommon": 1463,
      "ĠThese": 1464,
      "ification": 1465,
      "Ġleg": 1466,
      "bs": 1467,
      "Ġaround": 1468,
      "illion": 1469,
      "ording": 1470,
      "Ġopp": 1471,
      "Ġ30": 1472,
      "Ġlook": 1473,
      "ret": 1474,
      "Ġgroup": 1475,
      "ger": 1476,
      "Ġdel": 1477,
      "Ġdeterm": 1478,
      "ilities": 1479,
      "self": 1480,
      "Ġaccess": 1481,
      "Ġfund": 1482,
      "TION": 1483,
      "ological": 1484,
      "Ġsit": 1485,
      "ma": 1486,
      "ĠBo": 1487,
      "atic": 1488,
      "iving": 1489,
      "Ġeconom": 1490,
      "ĠYou": 1491,
      "oad": 1492,
      "Ġ+": 1493,
      "Ġsom": 1494,
      "Ġrisk": 1495,
      "://": 1496,
      "25": 1497,
      "ode": 1498,
      "ware": 1499,
      "Ġdise": 1500,
      "val": 1501,
      "ples": 1502,
      "Ġgreat": 1503,
      "idence": 1504,
      "amp": 1505,
      "icy": 1506,
      "Ġhere": 1507,
      "ĠĠĠĠĠĠĠĠĠĠĠĠĠĠ": 1508,
      "Ġrest": 1509,
      "Ġbody": 1510,
      "Ġ'": 1511,
      "erc": 1512,
      "rid": 1513,
      "orth": 1514,
      "here": 1515,
      "med": 1516,
      "ĠAss": 1517,
      "ĠIs": 1518,
      "Ġresults": 1519,
      "Ġbenef": 1520,
      "ĠĠĠĠĠĠĠĠĠĠĠĠĠ": 1521,
      "EC": 1522,
      "ajor": 1523,
      "ĠâĢĺ": 1524,
      "Ġhig": 1525,
      "Ġlow": 1526,
      "ancial": 1527,
      "Ġvol": 1528,
      "ogn": 1529,
      "earch": 1530,
      "angu": 1531,
      "Ġlocal": 1532,
      "Ġsignificant": 1533,
      "ĠBut": 1534,
      "Ġphys": 1535,
      "agn": 1536,
      "IT": 1537,
      "Ġcal": 1538,
      "Ġbusiness": 1539,
      "Ġpass": 1540,
      "ances": 1541,
      "Ġenergy": 1542,
      "ention": 1543,
      "ĠTo": 1544,
      "Ġmonth": 1545,
      "Ġ11": 1546,
      "Ġparticular": 1547,
      "Ġstill": 1548,
      "ĠHowever": 1549,
      "lished": 1550,
      "alk": 1551,
      "sc": 1552,
      "Ġauthor": 1553,
      "Ġindu": 1554,
      "Ġinvol": 1555,
      "isc": 1556,
      "Ġgen": 1557,
      "ĠAll": 1558,
      "ently": 1559,
      "esp": 1560,
      "Ġstruct": 1561,
      "ternational": 1562,
      "lu": 1563,
      "Ġvalue": 1564,
      "org": 1565,
      "Ġplay": 1566,
      "Ġamount": 1567,
      "Ġthough": 1568,
      "Ġel": 1569,
      "Ġimpact": 1570,
      "ĠOr": 1571,
      "Ġissu": 1572,
      "ĠCent": 1573,
      "ĠTr": 1574,
      "Ġparticip": 1575,
      "Ġthink": 1576,
      "Ġpay": 1577,
      "Ġsaf": 1578,
      "Ġservices": 1579,
      "rict": 1580,
      "St": 1581,
      "Ġrequired": 1582,
      "ane": 1583,
      "rodu": 1584,
      "rain": 1585,
      "Ġmight": 1586,
      "Ġide": 1587,
      "'t": 1588,
      "Ġpossible": 1589,
      "Ġfore": 1590,
      "Ġpa": 1591,
      "ills": 1592,
      "Ġdue": 1593,
      "ĠAct": 1594,
      "Ġagainst": 1595,
      "ĠLe": 1596,
      "Ġreal": 1597,
      "Ġlist": 1598,
      "ĠAg": 1599,
      "^{": 1600,
      "Ġnec": 1601,
      "ĠCont": 1602,
      "AC": 1603,
      "Ġsl": 1604,
      "ĠApp": 1605,
      "for": 1606,
      "ference": 1607,
      "Ġwant": 1608,
      "Ġgiven": 1609,
      "Ġeas": 1610,
      "Ġareas": 1611,
      "40": 1612,
      "Ġrespons": 1613,
      "eed": 1614,
      "ribut": 1615,
      "osed": 1616,
      "Ġcult": 1617,
      "Ġbest": 1618,
      "oid": 1619,
      "Ġopen": 1620,
      "rist": 1621,
      "Ġmult": 1622,
      "put": 1623,
      "ilar": 1624,
      "els": 1625,
      "ember": 1626,
      "Ġgovernment": 1627,
      "ĠState": 1628,
      "Ġ$\\": 1629,
      "Ġaccount": 1630,
      "Ġconn": 1631,
      "atory": 1632,
      "We": 1633,
      "ocu": 1634,
      "igure": 1635,
      "artment": 1636,
      "fer": 1637,
      "Ġdev": 1638,
      "oms": 1639,
      "Ġpercent": 1640,
      "une": 1641,
      "Ġknown": 1642,
      "22": 1643,
      "Ġindic": 1644,
      "ograph": 1645,
      "sy": 1646,
      "Ġanother": 1647,
      "lease": 1648,
      "az": 1649,
      "Ġlight": 1650,
      "abor": 1651,
      "Ġoccur": 1652,
      "--|": 1653,
      "ina": 1654,
      "Ġbelie": 1655,
      "Ġmeans": 1656,
      "Ġlast": 1657,
      "Ġdiscuss": 1658,
      "ruction": 1659,
      "Ġcommunity": 1660,
      "Ġfew": 1661,
      "ĠĠĠĠĠĠĠĠĠĠĠĠĠĠĠ": 1662,
      ",âĢĿ": 1663,
      "dition": 1664,
      "ocus": 1665,
      "Ġobject": 1666,
      "Ġassoci": 1667,
      "eral": 1668,
      "ole": 1669,
      "Ġbre": 1670,
      "ledge": 1671,
      "Ġfunction": 1672,
      "elf": 1673,
      "ĠRep": 1674,
      "Ġmajor": 1675,
      "gin": 1676,
      "uture": 1677,
      "Ġcalled": 1678,
      "Ġtop": 1679,
      "Ġtre": 1680,
      "Ġche": 1681,
      "Ġnet": 1682,
      "Ġcaus": 1683,
      "Ġdon": 1684,
      "ik": 1685,
      "Ġexam": 1686,
      "work": 1687,
      "ĠUS": 1688,
      "Ġmean": 1689,
      "atural": 1690,
      "Ġsever": 1691,
      "mb": 1692,
      "ĠSy": 1693,
      "Ġmembers": 1694,
      "Ġrecord": 1695,
      "lection": 1696,
      "ortun": 1697,
      "ann": 1698,
      "stit": 1699,
      "itor": 1700,
      "Ġvar": 1701,
      "Ġabove": 1702,
      "osp": 1703,
      "urop": 1704,
      "ways": 1705,
      "ĠCO": 1706,
      "Ġcr": 1707,
      "ots": 1708,
      "vious": 1709,
      "ek": 1710,
      "iver": 1711,
      "aff": 1712,
      "Ġlearning": 1713,
      "ĠDep": 1714,
      "Ġwomen": 1715,
      "Ġrepresent": 1716,
      "oor": 1717,
      "Ġlearn": 1718,
      "mber": 1719,
      "âĢ¦": 1720,
      "ively": 1721,
      "Ġâ": 1722,
      "ling": 1723,
      "Ġobs": 1724,
      "olution": 1725,
      "app": 1726,
      "Ġpost": 1727,
      "Ġsubject": 1728,
      "Ġaffect": 1729,
      "Ġhome": 1730,
      "ured": 1731,
      "ĠX": 1732,
      "Ġ25": 1733,
      "uation": 1734,
      "Ġfil": 1735,
      "Ġsince": 1736,
      "Ġfamily": 1737,
      "Ġexist": 1738,
      "ental": 1739,
      "ĠMed": 1740,
      "ĠAmerican": 1741,
      "It": 1742,
      "Ġgr": 1743,
      "lev": 1744,
      "ends": 1745,
      "Ġunt": 1746,
      "Ġpotential": 1747,
      "Ġbetter": 1748,
      "rap": 1749,
      "Ġfour": 1750,
      "cing": 1751,
      "Ġincrease": 1752,
      "Ġamong": 1753,
      "ours": 1754,
      "Ġstat": 1755,
      "...": 1756,
      "ibility": 1757,
      "Ġprovided": 1758,
      "ĠUnited": 1759,
      "cil": 1760,
      "||": 1761,
      "Ġreview": 1762,
      "Ġconditions": 1763,
      "ĠOn": 1764,
      "ĠGod": 1765,
      "Ġprom": 1766,
      "):": 1767,
      "Ġnecess": 1768,
      "Ġfre": 1769,
      "Ġmove": 1770,
      "Ġmar": 1771,
      "Ġview": 1772,
      "Ġdays": 1773,
      "not": 1774,
      "hold": 1775,
      "Ġspecific": 1776,
      "ication": 1777,
      "tal": 1778,
      "60": 1779,
      "Ġfield": 1780,
      "Ġdescrib": 1781,
      "Ġsuccess": 1782,
      "Ġmanagement": 1783,
      "nal": 1784,
      "##": 1785,
      "ĠSu": 1786,
      "Ġorig": 1787,
      "âĢľ": 1788,
      "Ġable": 1789,
      "80": 1790,
      "Ġconsider": 1791,
      "ĠâĢĶ": 1792,
      "Ġservice": 1793,
      "ories": 1794,
      "Ġname": 1795,
      "Ġtreatment": 1796,
      "Ġcrit": 1797,
      "aken": 1798,
      "ending": 1799,
      "ither": 1800,
      "li": 1801,
      "ression": 1802,
      "cer": 1803,
      "Ġbecome": 1804,
      "ID": 1805,
      "Ġsystems": 1806,
      "Ġbi": 1807,
      "ats": 1808,
      "23": 1809,
      "Ġfocus": 1810,
      "Ġseveral": 1811,
      "pro": 1812,
      "be": 1813,
      "Ġanalysis": 1814,
      "RO": 1815,
      "Ġtri": 1816,
      "anguage": 1817,
      "RE": 1818,
      "Ġindust": 1819,
      "ggest": 1820,
      "use": 1821,
      "urope": 1822,
      "------------": 1823,
      "24": 1824,
      "Ġestab": 1825,
      "Ġold": 1826,
      "Ġeducation": 1827,
      "face": 1828,
      "Ġtype": 1829,
      "Ġz": 1830,
      "ids": 1831,
      "right": 1832,
      "ĠAt": 1833,
      "Ġair": 1834,
      "aim": 1835,
      "Ã©": 1836,
      "ately": 1837,
      "Ġearly": 1838,
      "ĠOF": 1839,
      "ians": 1840,
      "Ġassess": 1841,
      "ators": 1842,
      "ĠPol": 1843,
      "Ġant": 1844,
      "Ġwar": 1845,
      "Ġactivities": 1846,
      "acy": 1847,
      "Ġfurther": 1848,
      "Ġcertain": 1849,
      "by": 1850,
      "Ġmot": 1851,
      "ird": 1852,
      "Ġchanges": 1853,
      "Ġbro": 1854,
      "Ġfuture": 1855,
      "Ġrate": 1856,
      "ead": 1857,
      "ĠNational": 1858,
      "ĠStates": 1859,
      "Ġaddress": 1860,
      "Ġdiff": 1861,
      "ĠCo": 1862,
      "Ġdr": 1863,
      "ĠServ": 1864,
      "Ġcirc": 1865,
      "HE": 1866,
      "ĠWhen": 1867,
      "ames": 1868,
      "Ġmus": 1869,
      "Ġgeneral": 1870,
      ",\"": 1871,
      "Ġimprove": 1872,
      "Ġens": 1873,
      "Ġrun": 1874,
      "af": 1875,
      "Ġsuggest": 1876,
      "Ġdisease": 1877,
      "ĠIm": 1878,
      "Ġneeds": 1879,
      "ained": 1880,
      "Ġkeep": 1881,
      "Ġtimes": 1882,
      "Ġmarket": 1883,
      "Ġhigher": 1884,
      "Ġlevels": 1885,
      "ably": 1886,
      "though": 1887,
      "Ġpropos": 1888,
      "Ġ/": 1889,
      "Ġbehav": 1890,
      "ems": 1891,
      "Ġmil": 1892,
      "orts": 1893,
      "Ġpress": 1894,
      "eter": 1895,
      "Ġage": 1896,
      "Ġcharacter": 1897,
      "ĠStud": 1898,
      "Ġfree": 1899,
      "Ġflow": 1900,
      "ler": 1901,
      "Ġclear": 1902,
      "Ġlet": 1903,
      "Ġcho": 1904,
      "ope": 1905,
      "Ġrespect": 1906,
      "Ġopt": 1907,
      "Ġ100": 1908,
      "ohn": 1909,
      "Ġothers": 1910,
      "Ġmillion": 1911,
      "ox": 1912,
      "Ġ24": 1913,
      "minist": 1914,
      "ĠReg": 1915,
      "rac": 1916,
      "Ġsay": 1917,
      "ales": 1918,
      "Ġart": 1919,
      "As": 1920,
      "Ġcomb": 1921,
      "Ġdocu": 1922,
      "Ġnear": 1923,
      "Ġcourse": 1924,
      "ables": 1925,
      "itte": 1926,
      "Ġinit": 1927,
      "Ġess": 1928,
      "Ġfinancial": 1929,
      "Ġsing": 1930,
      "ĠHealth": 1931,
      "arc": 1932,
      "cript": 1933,
      "Ġrelations": 1934,
      "yn": 1935,
      "pect": 1936,
      "Ġcomput": 1937,
      "ĠEurope": 1938,
      "Ġsimilar": 1939,
      "Ġhtt": 1940,
      "ĠBl": 1941,
      "ND": 1942,
      "Ġx": 1943,
      "urity": 1944,
      "Ġspecial": 1945,
      "Ġspecies": 1946,
      "Ġexperience": 1947,
      "Ġmen": 1948,
      "Ġwhether": 1949,
      "Ġtoo": 1950,
      "ules": 1951,
      "ropri": 1952,
      "Ġcause": 1953,
      "ired": 1954,
      "Ġhistory": 1955,
      "ison": 1956,
      "asing": 1957,
      "iol": 1958,
      "Ġann": 1959,
      "Ġpain": 1960,
      "Ġanim": 1961,
      "ĠMe": 1962,
      "Ġer": 1963,
      "Ġfull": 1964,
      "ĠSec": 1965,
      "chie": 1966,
      "Ġleast": 1967,
      "Ġprevent": 1968,
      "ouncil": 1969,
      "Ġtax": 1970,
      "Ġenc": 1971,
      "ta": 1972,
      "ged": 1973,
      "Ġreason": 1974,
      "Ġhead": 1975,
      "sw": 1976,
      "ising": 1977,
      "Ġprofess": 1978,
      "Ġcountry": 1979,
      "Ġdra": 1980,
      "ley": 1981,
      "70": 1982,
      "icro": 1983,
      "Ġsum": 1984,
      "imum": 1985,
      "Ġcomplete": 1986,
      "roll": 1987,
      "Ġrelated": 1988,
      "Ch": 1989,
      "aster": 1990,
      "obal": 1991,
      "Ġplant": 1992,
      "Ġuntil": 1993,
      "Ġline": 1994,
      "fact": 1995,
      "Ġshort": 1996,
      "Ġ50": 1997,
      "ĠCount": 1998,
      "icult": 1999,
      "ulations": 2000,
      "Ġworking": 2001,
      "ĠChrist": 2002,
      "Ġquality": 2003,
      "Ġhy": 2004,
      "Ġconsum": 2005,
      "Ġtotal": 2006,
      "rel": 2007,
      "Ġdetail": 2008,
      "Ġbook": 2009,
      "reg": 2010,
      "ray": 2011,
      "ones": 2012,
      "ĠBe": 2013,
      "utions": 2014,
      "Ġteac": 2015,
      "Ġcome": 2016,
      "Ġkey": 2017,
      "ges": 2018,
      "Ġhapp": 2019,
      "Ġask": 2020,
      "Ġnext": 2021,
      "Ġalong": 2022,
      "yl": 2023,
      "ĠCan": 2024,
      "If": 2025,
      "iation": 2026,
      "Ġparent": 2027,
      "eb": 2028,
      "Ġthings": 2029,
      "ENT": 2030,
      "Ġblood": 2031,
      "oks": 2032,
      "Ġrecomm": 2033,
      "Ġvarious": 2034,
      "Ġproblems": 2035,
      "Ġfeel": 2036,
      "ides": 2037,
      "}$": 2038,
      "26": 2039,
      "ST": 2040,
      "Ġmaking": 2041,
      "Ġprim": 2042,
      "Ġbelow": 2043,
      "ule": 2044,
      "oph": 2045,
      "ires": 2046,
      "Ġput": 2047,
      "aps": 2048,
      "Ġsw": 2049,
      "Ġobserv": 2050,
      "Ġpatients": 2051,
      "Ġteam": 2052,
      "ored": 2053,
      "Ġimplement": 2054,
      "ĠWor": 2055,
      "ĠMay": 2056,
      "Ġacross": 2057,
      "33": 2058,
      "ternal": 2059,
      "ĠPart": 2060,
      "ĠĠĠĠĠĠĠĠĠĠĠĠĠĠĠĠĠ": 2061,
      "Ġknowledge": 2062,
      "Ġspace": 2063,
      "Ġoffic": 2064,
      "Ġcases": 2065,
      "Ġnatural": 2066,
      "fficient": 2067,
      "Ġpolit": 2068,
      "Ġstrateg": 2069,
      "Ġappear": 2070,
      "Ġ198": 2071,
      "Ġrad": 2072,
      "Ġregard": 2073,
      "ĠFr": 2074,
      "Ġturn": 2075,
      "Ġconduct": 2076,
      "ceed": 2077,
      "verage": 2078,
      "Ġstudies": 2079,
      "ape": 2080,
      "ociety": 2081,
      "27": 2082,
      "Ġupon": 2083,
      "Ġtemper": 2084,
      "ms": 2085,
      "ĠSo": 2086,
      "Ġgre": 2087,
      "Ġhard": 2088,
      "Ġlikely": 2089,
      "Ġstrong": 2090,
      "ittee": 2091,
      "Ġpast": 2092,
      "alf": 2093,
      "Ġgrowth": 2094,
      "cle": 2095,
      "ĠPr": 2096,
      "Ġgive": 2097,
      "ĠWhat": 2098,
      "Ġrecogn": 2099,
      "Ġeffects": 2100,
      "Ġapproach": 2101,
      "45": 2102,
      "Ġquestion": 2103,
      "Ġachie": 2104,
      "ique": 2105,
      "Ġworks": 2106,
      "let": 2107,
      "iting": 2108,
      "Ġpolicy": 2109,
      "29": 2110,
      "Ġrange": 2111,
      "Ġlater": 2112,
      "28": 2113,
      "ĠAf": 2114,
      "etic": 2115,
      "Ġopportun": 2116,
      "Ġloss": 2117,
      "35": 2118,
      "Ġtext": 2119,
      "ĠBoard": 2120,
      "An": 2121,
      "urch": 2122,
      "ober": 2123,
      "Ġissues": 2124,
      "aces": 2125,
      "Ġconsidered": 2126,
      "Ġperformance": 2127,
      "For": 2128,
      "ĠCar": 2129,
      "onst": 2130,
      "Ġrole": 2131,
      "ĠSchool": 2132,
      "amb": 2133,
      "iple": 2134,
      "ivity": 2135,
      "ask": 2136,
      "Ġpred": 2137,
      "Ġlanguage": 2138,
      "ournal": 2139,
      "Ġartic": 2140,
      "oot": 2141,
      "Ġyoung": 2142,
      "ribution": 2143,
      "Ġsite": 2144,
      "epend": 2145,
      "lected": 2146,
      "rated": 2147,
      "21": 2148,
      "aring": 2149,
      "Ġlower": 2150,
      "LE": 2151,
      "75": 2152,
      "ï¬": 2153,
      "Ġneg": 2154,
      "www": 2155,
      "Ġhowever": 2156,
      "side": 2157,
      "Ġstudent": 2158,
      "idd": 2159,
      "Ġgroups": 2160,
      "Ġstep": 2161,
      "Ġill": 2162,
      "Ġsens": 2163,
      "Ġprior": 2164,
      "Ġcells": 2165,
      "ĠCity": 2166,
      "Ġpopulation": 2167,
      "Ġcountries": 2168,
      "Ġevent": 2169,
      "ĠGu": 2170,
      "Ġresources": 2171,
      "onse": 2172,
      "Ġtool": 2173,
      "unt": 2174,
      "ees": 2175,
      "Ġnorm": 2176,
      "Ġterms": 2177,
      "Ġlittle": 2178,
      "istic": 2179,
      "Ġver": 2180,
      "hib": 2181,
      "Ġdeg": 2182,
      "ustom": 2183,
      "atures": 2184,
      "rug": 2185,
      "isions": 2186,
      "Ġdam": 2187,
      "Ġhold": 2188,
      "Ġdifficult": 2189,
      "Ġtechnology": 2190,
      "atch": 2191,
      "AM": 2192,
      "Ġnecessary": 2193,
      "Ġscient": 2194,
      "ĠJohn": 2195,
      "pers": 2196,
      "ĠMar": 2197,
      "Ġsection": 2198,
      "enn": 2199,
      "Ġcontinu": 2200,
      "Ġtoget": 2201,
      "Ġtogether": 2202,
      "What": 2203,
      "Ġchall": 2204,
      "Ġactivity": 2205,
      "ĠInc": 2206,
      "gen": 2207,
      "ĠAm": 2208,
      "Ġappropri": 2209,
      "ĠMin": 2210,
      "rate": 2211,
      "Ġalways": 2212,
      "apt": 2213,
      "ĠInt": 2214,
      "aching": 2215,
      "Ġnational": 2216,
      "Ġvir": 2217,
      "Ġreturn": 2218,
      "nces": 2219,
      "\\)": 2220,
      "rect": 2221,
      "ĠCal": 2222,
      "Ġcompl": 2223,
      "Ġtraining": 2224,
      "Ġlo": 2225,
      "Ġproduction": 2226,
      "sych": 2227,
      "wards": 2228,
      "Ġproducts": 2229,
      "ĠDepartment": 2230,
      "ĠĠĠĠĠĠĠĠĠĠĠĠĠĠĠĠĠĠĠĠĠĠĠĠĠĠĠĠĠĠĠĠĠĠĠĠĠĠĠĠĠĠĠĠĠĠĠĠĠĠĠĠĠĠĠĠĠĠĠĠĠĠĠĠ": 2231,
      "99": 2232,
      "ream": 2233,
      "Ġi": 2234,
      "Ġhaving": 2235,
      "Ġpaper": 2236,
      "rad": 2237,
      "Ġevidence": 2238,
      "Ġbegin": 2239,
      "Ġeither": 2240,
      "now": 2241,
      "Ġdom": 2242,
      "Ġself": 2243,
      "Ġassociated": 2244,
      "ried": 2245,
      "II": 2246,
      "urs": 2247,
      "UR": 2248,
      "Ġeff": 2249,
      "Ġcreate": 2250,
      "ott": 2251,
      "Ġfail": 2252,
      "Ġaction": 2253,
      "Ġport": 2254,
      "Ġmov": 2255,
      "Ġmeasure": 2256,
      "sequ": 2257,
      "math": 2258,
      "ING": 2259,
      "usion": 2260,
      "arget": 2261,
      "Ġprevious": 2262,
      "Ġtaken": 2263,
      "Ġcy": 2264,
      "duc": 2265,
      "Ġtru": 2266,
      "Ġbuilding": 2267,
      "Ġconcern": 2268,
      "Ġcontact": 2269,
      "Ġrelationship": 2270,
      "Ġinflu": 2271,
      "Ġimm": 2272,
      "oney": 2273,
      "Ġeval": 2274,
      "pose": 2275,
      "Ġpub": 2276,
      "ume": 2277,
      "Ġprovides": 2278,
      "Ġsays": 2279,
      "Ġsingle": 2280,
      "Ġquestions": 2281,
      "ext": 2282,
      "Ġsym": 2283,
      "ĠIN": 2284,
      "Ġhouse": 2285,
      "Ġapplication": 2286,
      "ecially": 2287,
      "Ġmaintain": 2288,
      "ething": 2289,
      "EM": 2290,
      "Ġpriv": 2291,
      "ĠShe": 2292,
      "chan": 2293,
      "Ġside": 2294,
      "Ġsize": 2295,
      "ĠWith": 2296,
      ".)": 2297,
      "Ġincreased": 2298,
      "Ġleft": 2299,
      "Ġcalc": 2300,
      "Ġground": 2301,
      "Ġclaim": 2302,
      "36": 2303,
      "ĠPer": 2304,
      "Ġobtain": 2305,
      "oura": 2306,
      "ĠDr": 2307,
      "Ġwords": 2308,
      "ership": 2309,
      "---|---|": 2310,
      "vey": 2311,
      "urb": 2312,
      "itation": 2313,
      "ĠCouncil": 2314,
      "omes": 2315,
      "based": 2316,
      "Ġeffective": 2317,
      "Ġtypes": 2318,
      "ĠPlan": 2319,
      "Ġabs": 2320,
      "sh": 2321,
      "gress": 2322,
      "ĠOne": 2323,
      "ush": 2324,
      "aining": 2325,
      "Ġposition": 2326,
      "Ġshown": 2327,
      "emic": 2328,
      "ises": 2329,
      "ym": 2330,
      "Ġeconomic": 2331,
      "Ġprob": 2332,
      "Ġphysical": 2333,
      "especially": 2334,
      "utes": 2335,
      "Ġadditional": 2336,
      "Ġdeath": 2337,
      "Ġprinc": 2338,
      "ipp": 2339,
      "Ġfar": 2340,
      "ĠDirect": 2341,
      "There": 2342,
      "ene": 2343,
      "Ġaccept": 2344,
      "ĠRec": 2345,
      "ulated": 2346,
      "Ġ40": 2347,
      "ĠTra": 2348,
      "Ġinteg": 2349,
      "ung": 2350,
      "Ġdeveloped": 2351,
      "AP": 2352,
      "istics": 2353,
      "Ġcompany": 2354,
      "ights": 2355,
      "Ġdate": 2356,
      "Ġpractice": 2357,
      "ready": 2358,
      "ĠAfric": 2359,
      "ET": 2360,
      "opy": 2361,
      "ery": 2362,
      "acc": 2363,
      "ederal": 2364,
      "Ġkind": 2365,
      "ĠEm": 2366,
      "90": 2367,
      "Ġfrequ": 2368,
      "Ġagree": 2369,
      "ications": 2370,
      "Ġ21": 2371,
      "ĠPre": 2372,
      "ii": 2373,
      "Ġcover": 2374,
      "âĢ¢": 2375,
      "ĠAb": 2376,
      "ĠSouth": 2377,
      "ĠGe": 2378,
      "Ġstaff": 2379,
      "Ġaccording": 2380,
      "Ġrepl": 2381,
      "].": 2382,
      "Ġconcept": 2383,
      "ilt": 2384,
      "Ġgoing": 2385,
      "lege": 2386,
      "ĠCounty": 2387,
      "Ġ23": 2388,
      "Ġsomething": 2389,
      "most": 2390,
      "Ġrights": 2391,
      "EL": 2392,
      "Ġcontract": 2393,
      "Ġrequest": 2394,
      "Ġfive": 2395,
      "ATION": 2396,
      "Ġshare": 2397,
      "inary": 2398,
      "Ġincluded": 2399,
      "ae": 2400,
      "Ġcondition": 2401,
      "gu": 2402,
      "Ġensure": 2403,
      "itud": 2404,
      "ĠAcc": 2405,
      "Ġstandard": 2406,
      "Ġcreat": 2407,
      "selves": 2408,
      "Ġheart": 2409,
      "ibr": 2410,
      "sue": 2411,
      "ĠCor": 2412,
      "Ġproced": 2413,
      "Ġut": 2414,
      "Ġreported": 2415,
      "aging": 2416,
      "Ġwhy": 2417,
      "ĊĠĠ": 2418,
      "ĠResearch": 2419,
      "Ġsect": 2420,
      "istance": 2421,
      "Ġcosts": 2422,
      "medi": 2423,
      "ĠCompany": 2424,
      "ils": 2425,
      "Ġcannot": 2426,
      "Ġdone": 2427,
      "Ġ\\)": 2428,
      "ĠGener": 2429,
      "Ġprotect": 2430,
      "Ġmonths": 2431,
      "ney": 2432,
      "Ġsource": 2433,
      "Ġcompet": 2434,
      "Ġnever": 2435,
      "Ġsubst": 2436,
      "ĠFin": 2437,
      "ension": 2438,
      "Ġfactors": 2439,
      "oll": 2440,
      "ĠCons": 2441,
      "Ġclose": 2442,
      "Ġestim": 2443,
      "IL": 2444,
      "ĠNorth": 2445,
      "ĠPar": 2446,
      "igation": 2447,
      "Ġbr": 2448,
      "Pro": 2449,
      "Ġalready": 2450,
      "Ġ26": 2451,
      "Ġskills": 2452,
      "Ġsat": 2453,
      "Ġespecially": 2454,
      "Ġ28": 2455,
      "Ġsuper": 2456,
      "Ġtoday": 2457,
      "ister": 2458,
      "ĠTrans": 2459,
      "Ġsepar": 2460,
      "cription": 2461,
      "Ġdig": 2462,
      "Ġsent": 2463,
      "Ġways": 2464,
      "44": 2465,
      "Ġcoll": 2466,
      "Ġmaterials": 2467,
      "Ġintrodu": 2468,
      "go": 2469,
      "38": 2470,
      "ĠDes": 2471,
      "action": 2472,
      "aged": 2473,
      "Ġweek": 2474,
      "Ġmeeting": 2475,
      "78": 2476,
      "Ġansw": 2477,
      "OT": 2478,
      "To": 2479,
      "roup": 2480,
      "ands": 2481,
      "Ġneeded": 2482,
      "Ġsurface": 2483,
      "ctions": 2484,
      "overed": 2485,
      "Ġaverage": 2486,
      "Ġstructure": 2487,
      "ĠQu": 2488,
      "Ġusually": 2489,
      "lying": 2490,
      "Ġhours": 2491,
      "hemical": 2492,
      "Ġmedical": 2493,
      "Ġtry": 2494,
      "ival": 2495,
      "Ġrather": 2496,
      "How": 2497,
      "Ġpersonal": 2498,
      "ĠBy": 2499,
      "name": 2500,
      "atives": 2501,
      "aced": 2502,
      "Ġcomplex": 2503,
      "Ġvalues": 2504,
      "Ġwind": 2505,
      "Ġproperty": 2506,
      "na": 2507,
      "ĠJan": 2508,
      "ites": 2509,
      "Ġaway": 2510,
      "thing": 2511,
      "Ġseen": 2512,
      "Ġappropriate": 2513,
      "ences": 2514,
      "part": 2515,
      "Ġrequirements": 2516,
      "95": 2517,
      "ĠEduc": 2518,
      "ĠDevelop": 2519,
      "ĠEar": 2520,
      "Ġ31": 2521,
      "Ġla": 2522,
      "ĠĠĠĠĠĠĠĠĠĠĠĠĠĠĠĠĠĠ": 2523,
      "Ġresponse": 2524,
      "Ġvers": 2525,
      "ores": 2526,
      "ĠFl": 2527,
      "ĠTHE": 2528,
      "*,": 2529,
      "ĊĠ": 2530,
      "Ġ:": 2531,
      "}{": 2532,
      "34": 2533,
      "Ġtarget": 2534,
      "ĠThat": 2535,
      "Ġey": 2536,
      "ĠEnglish": 2537,
      "Ġconsist": 2538,
      "Ġprograms": 2539,
      "Ġpositive": 2540,
      "ĠMr": 2541,
      "rast": 2542,
      "65": 2543,
      "Ġincludes": 2544,
      "ĠAust": 2545,
      "Ġdeb": 2546,
      "Ġcity": 2547,
      "empt": 2548,
      "Ġaud": 2549,
      "izing": 2550,
      "Ġcompon": 2551,
      "ĠNot": 2552,
      "Ġnature": 2553,
      "ĠProgram": 2554,
      "bon": 2555,
      "Ġwr": 2556,
      "Ġdocument": 2557,
      "uly": 2558,
      "anced": 2559,
      "Ġunderstanding": 2560,
      "Ġstates": 2561,
      "Ġjob": 2562,
      "irm": 2563,
      "Ġreduce": 2564,
      "ender": 2565,
      "Ġcancer": 2566,
      "cies": 2567,
      "iences": 2568,
      "Ġfall": 2569,
      "Ġpath": 2570,
      "verse": 2571,
      "Ġ22": 2572,
      "Ġmakes": 2573,
      "Ġenough": 2574,
      "ĠWorld": 2575,
      "Ġshows": 2576,
      "mon": 2577,
      "ivil": 2578,
      ");": 2579,
      "mitted": 2580,
      "atter": 2581,
      "ĠGerm": 2582,
      "aves": 2583,
      "Ġinstit": 2584,
      "ront": 2585,
      "AD": 2586,
      "ĠYork": 2587,
      "US": 2588,
      "aut": 2589,
      "erve": 2590,
      "Ġappl": 2591,
      "augh": 2592,
      "Ġreceived": 2593,
      "Ġphot": 2594,
      "oman": 2595,
      "Ġsoft": 2596,
      "Ġviol": 2597,
      "ĠCommun": 2598,
      "ĠDo": 2599,
      "Ġmethods": 2600,
      "ties": 2601,
      "Ġadj": 2602,
      "osis": 2603,
      "Ġsal": 2604,
      "Ġlab": 2605,
      "Ġdri": 2606,
      "ĠWar": 2607,
      "aries": 2608,
      "ipment": 2609,
      "Ġwhole": 2610,
      "frac": 2611,
      "Ġability": 2612,
      "Ġcustom": 2613,
      "202": 2614,
      "Ġflu": 2615,
      "ults": 2616,
      "Al": 2617,
      "ĠAc": 2618,
      "Ġexperim": 2619,
      "Ġissue": 2620,
      "Ġ2015": 2621,
      "Ġindividuals": 2622,
      "Ġpolitical": 2623,
      "uary": 2624,
      "Ġ27": 2625,
      "ditional": 2626,
      "ĠJune": 2627,
      "Ġmind": 2628,
      "ĠSome": 2629,
      "OL": 2630,
      "Ġlive": 2631,
      "ĠCour": 2632,
      "Ġbar": 2633,
      "ĠBrit": 2634,
      "Ġlay": 2635,
      "Ġmass": 2636,
      "iction": 2637,
      "Ġresearc": 2638,
      "mission": 2639,
      "ronic": 2640,
      "Ġ<": 2641,
      "Ġ2016": 2642,
      "Ġetc": 2643,
      "Ġ2013": 2644,
      "wh": 2645,
      "Ġ2017": 2646,
      "Ġglobal": 2647,
      "Ġ2012": 2648,
      "37": 2649,
      "ĠMarch": 2650,
      "Ġplants": 2651,
      "Ġdrug": 2652,
      "Ġheld": 2653,
      "Ġlot": 2654,
      "ĠST": 2655,
      "Ġengine": 2656,
      "Ġsure": 2657,
      "Ġ2014": 2658,
      "ĠPres": 2659,
      "amm": 2660,
      "48": 2661,
      "Ġwide": 2662,
      "Ġcred": 2663,
      "Ġcontent": 2664,
      "Ġred": 2665,
      "hic": 2666,
      "equ": 2667,
      "Ġfamil": 2668,
      "illed": 2669,
      "otal": 2670,
      "Ġpressure": 2671,
      "ength": 2672,
      "Ġrev": 2673,
      "Ġfeed": 2674,
      "cember": 2675,
      "ai": 2676,
      "ĠCommittee": 2677,
      "ĠInstit": 2678,
      "vest": 2679,
      "Ġ2010": 2680,
      "Ġevents": 2681,
      "Ġbenefits": 2682,
      "Ġnetwork": 2683,
      "ĠDist": 2684,
      "05": 2685,
      "Ġindustry": 2686,
      "NA": 2687,
      "Ġwritten": 2688,
      "imately": 2689,
      "Ġbasis": 2690,
      "Ġrefer": 2691,
      "Ġmechan": 2692,
      "reng": 2693,
      "Ġcut": 2694,
      "elling": 2695,
      "ufact": 2696,
      "Ġscience": 2697,
      "att": 2698,
      "Ġcentury": 2699,
      "Ġcheck": 2700,
      "ptoms": 2701,
      "omet": 2702,
      "Ġonce": 2703,
      "Ġsafety": 2704,
      "reme": 2705,
      "Ġspe": 2706,
      "Ġbir": 2707,
      "rand": 2708,
      "Ġliter": 2709,
      "uel": 2710,
      "ĠSystem": 2711,
      "Ġregion": 2712,
      "Ġmicro": 2713,
      "Ġword": 2714,
      "pril": 2715,
      "ump": 2716,
      "rim": 2717,
      "Ġdecision": 2718,
      "________________________________": 2719,
      "Ġrelative": 2720,
      "Ġidentify": 2721,
      "Ġ2018": 2722,
      "39": 2723,
      "Ġfri": 2724,
      "ief": 2725,
      "Ġentire": 2726,
      "lex": 2727,
      "Ġ2011": 2728,
      "Ġbig": 2729,
      "anies": 2730,
      "ĠAND": 2731,
      "ĠOther": 2732,
      "ening": 2733,
      "apter": 2734,
      "Ġonline": 2735,
      "Ġtemperature": 2736,
      "example": 2737,
      "Ġbrain": 2738,
      "Ġemerg": 2739,
      "(\\": 2740,
      "lements": 2741,
      "ecut": 2742,
      "son": 2743,
      "Ġexc": 2744,
      "Ġaff": 2745,
      "osure": 2746,
      "Ġreally": 2747,
      "Ġadminist": 2748,
      "ĠCommission": 2749,
      "Ġfarm": 2750,
      "hood": 2751,
      "ï¬ģ": 2752,
      "ĠInternational": 2753,
      "Ġcreated": 2754,
      "31": 2755,
      "Ġlink": 2756,
      "Ġincreasing": 2757,
      "Ġproposed": 2758,
      "Ġweight": 2759,
      "Ġge": 2760,
      "Ġ2020": 2761,
      "amin": 2762,
      "Ġguid": 2763,
      "CO": 2764,
      "Ġmor": 2765,
      "Ġwriting": 2766,
      "Ġpattern": 2767,
      "pper": 2768,
      "Ġexerc": 2769,
      "ches": 2770,
      "ĠĠĠĠĠĠĠĠĠĠĠĠĠĠĠĠĠĠĠ": 2771,
      "Ġexpress": 2772,
      "Ġinternational": 2773,
      "ĠOff": 2774,
      "ada": 2775,
      "Ġlog": 2776,
      "Ġavoid": 2777,
      "Ġgas": 2778,
      "ror": 2779,
      "ows": 2780,
      "Ġfram": 2781,
      "ev": 2782,
      "Ġlimited": 2783,
      "Ġpublished": 2784,
      "Ġdispl": 2785,
      "ctor": 2786,
      "Ġclimate": 2787,
      "ĠTechn": 2788,
      "acks": 2789,
      "ĠĠĠĠĠĠĠĠĠĠĠĠĠĠĠĠĠĠĠĠ": 2790,
      "Ġbecame": 2791,
      "Ġsex": 2792,
      "reet": 2793,
      "rown": 2794,
      "ĠAug": 2795,
      "Ġhistor": 2796,
      "rial": 2797,
      "Ġenvironmental": 2798,
      "Ġprep": 2799,
      "inter": 2800,
      "55": 2801,
      "Ġindepend": 2802,
      "Ġstress": 2803,
      "Ġpo": 2804,
      "ĠAut": 2805,
      "Ġdemonst": 2806,
      "Ġnut": 2807,
      "à¥": 2808,
      "ift": 2809,
      "ĠSept": 2810,
      "Ġ,": 2811,
      "Ġsix": 2812,
      "Ġmember": 2813,
      "ĠCenter": 2814,
      "CE": 2815,
      "|----------------": 2816,
      "CH": 2817,
      "bo": 2818,
      "ips": 2819,
      "Ġbal": 2820,
      "Ġgreater": 2821,
      "Ġcompared": 2822,
      ")$": 2823,
      "ĠOct": 2824,
      "IV": 2825,
      "Ġadop": 2826,
      "Ġcorrect": 2827,
      "Ġliving": 2828,
      "ĠAssoci": 2829,
      "Ġful": 2830,
      "ensive": 2831,
      "Ġparents": 2832,
      "Ġmoney": 2833,
      "46": 2834,
      "Ġthemselves": 2835,
      "Ġmatter": 2836,
      "Ġmax": 2837,
      "iff": 2838,
      "Ġregular": 2839,
      "Ġpurpose": 2840,
      "Ġrecent": 2841,
      "eal": 2842,
      "Ġcapital": 2843,
      "Ġsimple": 2844,
      "arily": 2845,
      "When": 2846,
      "Ġinvolved": 2847,
      "ricult": 2848,
      "Ġtherefore": 2849,
      "Ġ2019": 2850,
      "leg": 2851,
      "issions": 2852,
      "ĠĠĠĠĠĠĠĠĠĠĠĠĠĠĠĠĠĠĠĠĠ": 2853,
      "Ġincome": 2854,
      "Ġremov": 2855,
      "Ġcontinue": 2856,
      "Ġstory": 2857,
      "Ex": 2858,
      "iam": 2859,
      "Ġthroughout": 2860,
      "ached": 2861,
      "ĠAmerica": 2862,
      "Ġparts": 2863,
      "Ġdescribed": 2864,
      "Ġ29": 2865,
      "ype": 2866,
      "Ġfire": 2867,
      "Ġ--": 2868,
      "32": 2869,
      "ĠDecember": 2870,
      "ze": 2871,
      "vention": 2872,
      "Ġ60": 2873,
      "itary": 2874,
      "Ġdest": 2875,
      "Ġarticle": 2876,
      "Ġrelig": 2877,
      "Ġprote": 2878,
      "Ġschools": 2879,
      "ĠGeneral": 2880,
      "\".": 2881,
      "oper": 2882,
      "Ġessential": 2883,
      "Ġhalf": 2884,
      "oles": 2885,
      "Ġpage": 2886,
      "see": 2887,
      "77": 2888,
      "ounds": 2889,
      "Ġbehavior": 2890,
      "like": 2891,
      "Ġarch": 2892,
      "ened": 2893,
      "cell": 2894,
      "Ġprec": 2895,
      "urance": 2896,
      "Ġrelev": 2897,
      "Ġdesigned": 2898,
      "Ġter": 2899,
      "Ġ#": 2900,
      "Ġpoints": 2901,
      "ĠEd": 2902,
      "resp": 2903,
      "ĠScience": 2904,
      "Ġcapac": 2905,
      "lt": 2906,
      "Ġrates": 2907,
      "ĠĠĠĠĠĠĠĠĠĠĠĠĠĠĠĠĠĠĠĠĠĠĠ": 2908,
      "Ġtaking": 2909,
      "ran": 2910,
      "ging": 2911,
      "Ġoil": 2912,
      "rant": 2913,
      "ĠPe": 2914,
      "ĠGl": 2915,
      "raft": 2916,
      "uck": 2917,
      "Ġitself": 2918,
      "ĠPublic": 2919,
      "Ġ2009": 2920,
      "Ġcame": 2921,
      "ĠEducation": 2922,
      "oon": 2923,
      "hest": 2924,
      "Ġsecurity": 2925,
      "ĠMod": 2926,
      "Ġconnect": 2927,
      "Ġjud": 2928,
      "ares": 2929,
      "âĢ¦âĢ¦": 2930,
      "Ġsust": 2931,
      "ĠSm": 2932,
      "ground": 2933,
      "Ġsymptoms": 2934,
      "nov": 2935,
      "Ġwebs": 2936,
      "Ġchalleng": 2937,
      "ĠSection": 2938,
      "ĠHis": 2939,
      "Ġinj": 2940,
      "Ġrespond": 2941,
      "Ġhttp": 2942,
      "ched": 2943,
      "Ġstreng": 2944,
      "49": 2945,
      "ĠAfter": 2946,
      "Ġencoura": 2947,
      "iency": 2948,
      "vere": 2949,
      "ĠDis": 2950,
      "ĠSch": 2951,
      "Ġexisting": 2952,
      "lation": 2953,
      "iddle": 2954,
      "Ġanaly": 2955,
      "Ġthird": 2956,
      "erson": 2957,
      "aches": 2958,
      "Ġdecre": 2959,
      "astic": 2960,
      "Ġconcent": 2961,
      "Ġprojects": 2962,
      "Ġexcept": 2963,
      "CC": 2964,
      "ĠSub": 2965,
      "ĠApril": 2966,
      "Ġcollect": 2967,
      "gest": 2968,
      "100": 2969,
      "68": 2970,
      "Ġcat": 2971,
      "ĠGroup": 2972,
      "Ġdetermine": 2973,
      "Ġfinal": 2974,
      "ĠJuly": 2975,
      "iet": 2976,
      "ĠDevelopment": 2977,
      "Ġthought": 2978,
      "ixed": 2979,
      "pid": 2980,
      "IP": 2981,
      "ĠManagement": 2982,
      "Ġexpected": 2983,
      "ĠPa": 2984,
      "Ġ2008": 2985,
      "cal": 2986,
      "Ġwhite": 2987,
      "47": 2988,
      "Ġoutside": 2989,
      "Ġyet": 2990,
      "ervation": 2991,
      "bor": 2992,
      "arr": 2993,
      "Ġtravel": 2994,
      "Ġequipment": 2995,
      "ĠSpec": 2996,
      "Ġdefin": 2997,
      "Ġlonger": 2998,
      "set": 2999,
      "Ġri": 3000,
      "ĠChar": 3001,
      "Ġsuccessful": 3002,
      "Ġtransport": 3003,
      "Ġclean": 3004,
      "udget": 3005,
      "aily": 3006,
      "ulate": 3007,
      "Ġoriginal": 3008,
      "EP": 3009,
      "OS": 3010,
      "uk": 3011,
      "ĠMc": 3012,
      "iance": 3013,
      "ops": 3014,
      "Ġmach": 3015,
      "Ġsources": 3016,
      "Ġbring": 3017,
      ".;": 3018,
      "Ġemail": 3019,
      "Ġalmost": 3020,
      "Ġcross": 3021,
      "Ġnormal": 3022,
      "Ġinstall": 3023,
      "encies": 3024,
      "Ġcomputer": 3025,
      "Ġestablished": 3026,
      "ĠHist": 3027,
      "ĠFund": 3028,
      "term": 3029,
      "hel": 3030,
      "hing": 3031,
      "ĠVal": 3032,
      "Ġcontain": 3033,
      "98": 3034,
      "Ġdeal": 3035,
      "ĠWill": 3036,
      "istry": 3037,
      "Ġdirectly": 3038,
      "Ġuses": 3039,
      "Ġmanufact": 3040,
      "ãģ": 3041,
      "66": 3042,
      "Ġcamp": 3043,
      "ĠAustral": 3044,
      "Ġprimary": 3045,
      "\\(": 3046,
      "Ġpurch": 3047,
      "Ġactually": 3048,
      "actions": 3049,
      "Ġtrue": 3050,
      "Ġquick": 3051,
      "Ġlegal": 3052,
      "Ġaltern": 3053,
      "lin": 3054,
      "Ġsoil": 3055,
      "Ġconstruction": 3056,
      "Ġbur": 3057,
      "UN": 3058,
      "ĠUs": 3059,
      "ĠEuropean": 3060,
      "ĠII": 3061,
      "come": 3062,
      "ĠInter": 3063,
      "Ġvehic": 3064,
      "Ġsociety": 3065,
      "umb": 3066,
      "Ġcontribut": 3067,
      "Ġsense": 3068,
      "ĠProject": 3069,
      "Ġclin": 3070,
      "ider": 3071,
      "ĠWhile": 3072,
      "Ġfish": 3073,
      "Ġquant": 3074,
      "You": 3075,
      "Ġsam": 3076,
      "Ġinform": 3077,
      "ĠHigh": 3078,
      "asc": 3079,
      "ĠSeptember": 3080,
      "Ġblack": 3081,
      "Ġmeaning": 3082,
      "Ġcontext": 3083,
      "estern": 3084,
      "Ad": 3085,
      "Ġmodels": 3086,
      "Ġord": 3087,
      "Ġmultiple": 3088,
      "Ġreading": 3089,
      "abit": 3090,
      "ĠMon": 3091,
      "Ġapprox": 3092,
      "ply": 3093,
      "Ġpatient": 3094,
      "abilities": 3095,
      "Ġcompanies": 3096,
      "rapy": 3097,
      "Ġce": 3098,
      "Ġachieve": 3099,
      "Ġtook": 3100,
      "Ġidea": 3101,
      "Ġcoun": 3102,
      "yle": 3103,
      "Ġmodern": 3104,
      "ipl": 3105,
      "Ġidentified": 3106,
      "On": 3107,
      "Ġder": 3108,
      "ĠJanuary": 3109,
      "Ġproduce": 3110,
      "ĠJournal": 3111,
      "IR": 3112,
      "MP": 3113,
      "Ġgenerally": 3114,
      "Ġmonitor": 3115,
      "order": 3116,
      "Ġaware": 3117,
      "Ġroad": 3118,
      "Ġcomes": 3119,
      "ington": 3120,
      "Ġimmedi": 3121,
      "apan": 3122,
      "Ġsafe": 3123,
      "Ġrecommend": 3124,
      "Ġresearchers": 3125,
      "Ġlack": 3126,
      "Ġoffer": 3127,
      "Ġfa": 3128,
      "ana": 3129,
      "Ġprivate": 3130,
      "Ġever": 3131,
      "aving": 3132,
      "ĠLaw": 3133,
      "ese": 3134,
      "Ġpresented": 3135,
      "Ġanimals": 3136,
      "Ġdifference": 3137,
      "Ġmeasures": 3138,
      "Ġprogress": 3139,
      "ager": 3140,
      "Ġthus": 3141,
      "ancy": 3142,
      "Ġbelieve": 3143,
      "ned": 3144,
      "Ġcourt": 3145,
      "Ġstandards": 3146,
      "rew": 3147,
      "spect": 3148,
      "Ġteachers": 3149,
      "lands": 3150,
      "Ġdefined": 3151,
      "Ġbreak": 3152,
      "ha": 3153,
      "Ġtalk": 3154,
      "ĠReport": 3155,
      "ĠMore": 3156,
      "$$": 3157,
      "Ġmess": 3158,
      "Ġsuff": 3159,
      "Ġaccur": 3160,
      "leep": 3161,
      "Ġparticularly": 3162,
      "icies": 3163,
      "my": 3164,
      "Ġrelevant": 3165,
      "Ġpp": 3166,
      "Ġdiagn": 3167,
      "erous": 3168,
      "Ġforms": 3169,
      "hens": 3170,
      "imal": 3171,
      "Ġimpl": 3172,
      "Ġreceive": 3173,
      "Ġ35": 3174,
      "omp": 3175,
      "ĠEl": 3176,
      "ĠService": 3177,
      "Ġgreen": 3178,
      "anks": 3179,
      "Ġbroad": 3180,
      "light": 3181,
      "Ġfem": 3182,
      "Ġface": 3183,
      "Ġ2007": 3184,
      "Ġestablish": 3185,
      "ĠAugust": 3186,
      "Ġemb": 3187,
      "67": 3188,
      "ĠSupp": 3189,
      "ey": 3190,
      "overy": 3191,
      "icip": 3192,
      "Ġmedia": 3193,
      "Ġseries": 3194,
      "Ġexpect": 3195,
      "ĠIndia": 3196,
      "Ġsupply": 3197,
      "Ġ................................": 3198,
      "Ġpack": 3199,
      "Ġapplications": 3200,
      "Ġpsych": 3201,
      "IG": 3202,
      "Ġtable": 3203,
      "room": 3204,
      "urg": 3205,
      "Ġcommit": 3206,
      "Ġvisit": 3207,
      "ament": 3208,
      "rs": 3209,
      "SS": 3210,
      "perscript": 3211,
      "ĠCourt": 3212,
      "eds": 3213,
      "Figure": 3214,
      "itch": 3215,
      "vis": 3216,
      "Ġsun": 3217,
      "Ġbasic": 3218,
      "ession": 3219,
      "Ġtheory": 3220,
      "uman": 3221,
      "Ġheav": 3222,
      "ĠBar": 3223,
      "lear": 3224,
      "ovember": 3225,
      "dom": 3226,
      "Â°": 3227,
      "sec": 3228,
      "Ġvide": 3229,
      "Ġadded": 3230,
      "itude": 3231,
      "ĠChild": 3232,
      "Ġunit": 3233,
      "izations": 3234,
      "superscript": 3235,
      "Ġcateg": 3236,
      "Ġprocesses": 3237,
      "textsuperscript": 3238,
      "Ġimage": 3239,
      "Ġchemical": 3240,
      "ming": 3241,
      "co": 3242,
      "Ġaim": 3243,
      "ĠWest": 3244,
      "Ġste": 3245,
      "ridge": 3246,
      "aly": 3247,
      "Ġnegative": 3248,
      "Ġassessment": 3249,
      "ĠWork": 3250,
      "Ġculture": 3251,
      "Ġfat": 3252,
      "Ġforce": 3253,
      "Ġproviding": 3254,
      "Ġcritical": 3255,
      "ĠAre": 3256,
      "force": 3257,
      "ĠServices": 3258,
      "ĠPark": 3259,
      "Ġtransfer": 3260,
      "Ġqual": 3261,
      "Ġlove": 3262,
      "wise": 3263,
      "bb": 3264,
      "iforn": 3265,
      "ĠBu": 3266,
      "back": 3267,
      "ĠFeb": 3268,
      "off": 3269,
      ":**": 3270,
      "ners": 3271,
      "Ġskin": 3272,
      "Ġcaused": 3273,
      "Ġhyd": 3274,
      "Ġattempt": 3275,
      "Ġeth": 3276,
      "mar": 3277,
      "ĠInstitute": 3278,
      "Ġevalu": 3279,
      "Ġcommunities": 3280,
      "Ġdeveloping": 3281,
      "Ġdamage": 3282,
      "Ġnumbers": 3283,
      "85": 3284,
      "Ġcolor": 3285,
      "Ġfeatures": 3286,
      "Ġdistribution": 3287,
      "ĠNe": 3288,
      "Ġprotection": 3289,
      "rought": 3290,
      "ĠPress": 3291,
      "ĠOctober": 3292,
      "Ġrat": 3293,
      "Ġassum": 3294,
      "year": 3295,
      "AG": 3296,
      "Ġrequires": 3297,
      "Ġlocated": 3298,
      "olic": 3299,
      "Ġcompar": 3300,
      "ony": 3301,
      "EE": 3302,
      "Ġvariety": 3303,
      "idents": 3304,
      "asons": 3305,
      "Ġresponsible": 3306,
      "Ġprice": 3307,
      "Ġhealthy": 3308,
      "ĠFirst": 3309,
      "Ġargu": 3310,
      "Ġaspect": 3311,
      "Ġbegan": 3312,
      "irit": 3313,
      "ĠProf": 3314,
      "ino": 3315,
      "Ġhous": 3316,
      "Ġrout": 3317,
      "Ġgovern": 3318,
      "time": 3319,
      "Ġacqu": 3320,
      "Ġlength": 3321,
      "Ġdoing": 3322,
      "Ġorigin": 3323,
      "respond": 3324,
      "Ġattention": 3325,
      "Ġbuilt": 3326,
      "Ġparam": 3327,
      "Ġtell": 3328,
      "isation": 3329,
      "Ġir": 3330,
      "airs": 3331,
      "Ġdou": 3332,
      "Ġactive": 3333,
      "Ġsolution": 3334,
      "TS": 3335,
      "Ġcommunication": 3336,
      "Ġfeet": 3337,
      "cont": 3338,
      "ĠSee": 3339,
      "ifornia": 3340,
      "Ġinterp": 3341,
      "Ġheat": 3342,
      "Ġcapacity": 3343,
      "Ġeasy": 3344,
      "Ġharm": 3345,
      "itiz": 3346,
      "Ġapply": 3347,
      "osing": 3348,
      "Ġsurv": 3349,
      "ternet": 3350,
      "ĠNet": 3351,
      "ĠWater": 3352,
      "Ġthreat": 3353,
      "ography": 3354,
      "AB": 3355,
      "iques": 3356,
      "Ġregarding": 3357,
      "ĠTO": 3358,
      "change": 3359,
      "Ġassign": 3360,
      "Ġrules": 3361,
      "where": 3362,
      "ĠRet": 3363,
      "Ġdeep": 3364,
      "ĠSw": 3365,
      "Ġdraw": 3366,
      "umber": 3367,
      "rec": 3368,
      "64": 3369,
      "ĠĠĠĠĠĠĠĠĠĠĠĠĠĠĠĠĠĠĠĠĠĠ": 3370,
      "ris": 3371,
      "Ġstatus": 3372,
      "Ġreflect": 3373,
      "lier": 3374,
      "Ġlives": 3375,
      "icine": 3376,
      "Ġelectric": 3377,
      "88": 3378,
      "Ġà¤": 3379,
      "$,": 3380,
      "Ġdecl": 3381,
      "ivision": 3382,
      "Ġprofessional": 3383,
      "ologies": 3384,
      "Ġdemand": 3385,
      "den": 3386,
      "Ġtowards": 3387,
      "Ġfront": 3388,
      "wor": 3389,
      "Ġapplied": 3390,
      "ensity": 3391,
      "Ġallows": 3392,
      "Ġden": 3393,
      "Ġofficial": 3394,
      "Ph": 3395,
      "Ġlimit": 3396,
      "ework": 3397,
      "ls": 3398,
      "Ġvia": 3399,
      "ĠKing": 3400,
      "Ġbenefit": 3401,
      "Ġmagn": 3402,
      "Ġ2006": 3403,
      "ĠJapan": 3404,
      "Ġwa": 3405,
      "Ġcert": 3406,
      "Ġled": 3407,
      "Ġwebsite": 3408,
      "Ġprint": 3409,
      "Ġbase": 3410,
      "Ġenh": 3411,
      "Ġsoftware": 3412,
      "97": 3413,
      "Ġproduced": 3414,
      "ades": 3415,
      "Ġdog": 3416,
      "ĠChina": 3417,
      "Ġplanning": 3418,
      "itable": 3419,
      "fect": 3420,
      "Ġlabor": 3421,
      "ĠPresident": 3422,
      "Ġoffice": 3423,
      "Ġpractices": 3424,
      "Ġgrant": 3425,
      "Ġmovement": 3426,
      "Ġminutes": 3427,
      "Ġseem": 3428,
      "ĠSur": 3429,
      "ĠGovernment": 3430,
      "aint": 3431,
      "load": 3432,
      "Ġspeed": 3433,
      "Ġfav": 3434,
      "ibrary": 3435,
      "Ġsqu": 3436,
      "Ġparticipants": 3437,
      "icated": 3438,
      "MS": 3439,
      "Ġtools": 3440,
      "------|": 3441,
      "Ġsequ": 3442,
      "ĠInst": 3443,
      "DA": 3444,
      "Ġinvestig": 3445,
      "Ġdepend": 3446,
      "pha": 3447,
      "Ġsustain": 3448,
      "uth": 3449,
      "Ġspread": 3450,
      "osition": 3451,
      "41": 3452,
      "ford": 3453,
      "96": 3454,
      "ruary": 3455,
      "Ġlic": 3456,
      "Ġmusic": 3457,
      "Ġpoor": 3458,
      "Ġdiet": 3459,
      "Ġpopular": 3460,
      "Ġnote": 3461,
      "42": 3462,
      "Ġthing": 3463,
      "ospital": 3464,
      "Ġcarbon": 3465,
      "last": 3466,
      "venue": 3467,
      "TH": 3468,
      "Ġelements": 3469,
      "ĠâĢ¢": 3470,
      "Ġlin": 3471,
      "ike": 3472,
      "Ġpolicies": 3473,
      "ĠInformation": 3474,
      "Ġconstit": 3475,
      "Ġoperations": 3476,
      "Ġsimply": 3477,
      "ĠEarth": 3478,
      "iples": 3479,
      "Ġannual": 3480,
      "ructure": 3481,
      "Ġopportunity": 3482,
      "Ġlocation": 3483,
      "rie": 3484,
      "ĠCalifornia": 3485,
      "Ġuser": 3486,
      "ĠBritish": 3487,
      "Ġautom": 3488,
      "wo": 3489,
      "Ġspeak": 3490,
      "Ġworkers": 3491,
      "Ġforest": 3492,
      "Ġasked": 3493,
      "Ġremain": 3494,
      "Ġcurrently": 3495,
      "Ġteaching": 3496,
      "Ġhost": 3497,
      "amed": 3498,
      "ĠAssociation": 3499,
      "Ġoverall": 3500,
      "ademic": 3501,
      "ĠDav": 3502,
      "pe": 3503,
      "raw": 3504,
      "eria": 3505,
      "ided": 3506,
      "Ġsituation": 3507,
      "PA": 3508,
      "Ġsample": 3509,
      "Ġorganization": 3510,
      "do": 3511,
      "oring": 3512,
      "Ġlarger": 3513,
      "olid": 3514,
      "ocal": 3515,
      "ĠNovember": 3516,
      "Ġlate": 3517,
      "Ġtakes": 3518,
      "eta": 3519,
      "Ġemployees": 3520,
      "Ġserious": 3521,
      "Ġund": 3522,
      "ĠPat": 3523,
      "Ġhttps": 3524,
      "Ġreve": 3525,
      "Ġslow": 3526,
      "Ġbound": 3527,
      "Ġmental": 3528,
      "Ġwild": 3529,
      "ĠHar": 3530,
      "Ġobserved": 3531,
      "vert": 3532,
      "Ġitems": 3533,
      "Ġ2005": 3534,
      "Ġdat": 3535,
      "ĠJew": 3536,
      "Ġ2000": 3537,
      "{\\": 3538,
      "Ġinput": 3539,
      "yd": 3540,
      "ĠDistrict": 3541,
      "76": 3542,
      "Ġcauses": 3543,
      "ruit": 3544,
      "Ġcode": 3545,
      "43": 3546,
      "Ġinstru": 3547,
      "Ġfamilies": 3548,
      "izes": 3549,
      "Ġox": 3550,
      "ĠMark": 3551,
      "rench": 3552,
      "Ġdaily": 3553,
      "iles": 3554,
      "Ġunique": 3555,
      "cient": 3556,
      "Ġfit": 3557,
      "Ġ2021": 3558,
      "ĠSim": 3559,
      "Ġemot": 3560,
      "Ġcentral": 3561,
      "lim": 3562,
      "Ġboard": 3563,
      "ĠOur": 3564,
      "Ġupd": 3565,
      "ordin": 3566,
      "08": 3567,
      "isms": 3568,
      "Ġsomet": 3569,
      "Ġcard": 3570,
      "Re": 3571,
      "Ġarr": 3572,
      "yond": 3573,
      "book": 3574,
      "Ġhighly": 3575,
      "ecause": 3576,
      "ecutive": 3577,
      "itle": 3578,
      "Ġenter": 3579,
      "ĠDec": 3580,
      "Ġec": 3581,
      "Ġfair": 3582,
      "ham": 3583,
      "Table": 3584,
      "bit": 3585,
      "Ġcarry": 3586,
      "Ġproperties": 3587,
      "Ġfra": 3588,
      "Ġearth": 3589,
      "Ġdegree": 3590,
      "uge": 3591,
      "Ġbehavi": 3592,
      "Ġdetails": 3593,
      "Ġwall": 3594,
      "Ġsearch": 3595,
      "OC": 3596,
      "enses": 3597,
      "ĠOffice": 3598,
      "Ġfederal": 3599,
      "Ġanswer": 3600,
      "ica": 3601,
      "Ġcapt": 3602,
      "ĠĠĠĠĠĠĠĠĠĠĠĠĠĠĠĠĠĠĠĠĠĠĠĠĠ": 3603,
      "Ġdetermined": 3604,
      "Ġload": 3605,
      "Un": 3606,
      "cial": 3607,
      "head": 3608,
      "Ġpict": 3609,
      "uration": 3610,
      "urrent": 3611,
      "Ġsites": 3612,
      "Ġbeginning": 3613,
      "Ġcontroll": 3614,
      "Ġcivil": 3615,
      "ĠIS": 3616,
      "Ġinfluence": 3617,
      "Ġwhose": 3618,
      "Ġfile": 3619,
      "Ġsurvey": 3620,
      "ĠDirector": 3621,
      "Ġten": 3622,
      "Ġefforts": 3623,
      "ynam": 3624,
      "Ġprop": 3625,
      "Ġextra": 3626,
      "ĠJes": 3627,
      "Ġfunctions": 3628,
      "reed": 3629,
      "Ġinvestment": 3630,
      "eters": 3631,
      "ĠBi": 3632,
      "Ġideas": 3633,
      "ding": 3634,
      "ĠCollege": 3635,
      "Ġextreme": 3636,
      "gment": 3637,
      "Ġgrowing": 3638,
      "Ġopportunities": 3639,
      "Ġmention": 3640,
      "Ġiniti": 3641,
      "Ġreports": 3642,
      "ĠRed": 3643,
      "ĠData": 3644,
      "Ġseek": 3645,
      "79": 3646,
      "Ġdifferences": 3647,
      "Ġcommerc": 3648,
      "estic": 3649,
      "new": 3650,
      "Ġfollows": 3651,
      "ĠEnvironment": 3652,
      "Ġlines": 3653,
      "Ġactions": 3654,
      "olec": 3655,
      "Ġ45": 3656,
      "Ġplans": 3657,
      "Ġuseful": 3658,
      "orage": 3659,
      "ĠUse": 3660,
      "gar": 3661,
      "ĠVol": 3662,
      "itect": 3663,
      "Ġadjust": 3664,
      "Ġtesting": 3665,
      "Ġlooking": 3666,
      "Ġimportance": 3667,
      "htt": 3668,
      "Ġsound": 3669,
      "Ġtrade": 3670,
      "ously": 3671,
      "Ġcorrespond": 3672,
      "ĠÃ": 3673,
      "poses": 3674,
      "rehens": 3675,
      "uses": 3676,
      "Ġmis": 3677,
      "Ġinitial": 3678,
      "Ġalthough": 3679,
      "ĠDay": 3680,
      "\",": 3681,
      "Ġjo": 3682,
      "Ġsil": 3683,
      "tical": 3684,
      "Ġsometimes": 3685,
      "eks": 3686,
      "Ġrule": 3687,
      "RI": 3688,
      "Ġtraditional": 3689,
      "ĠRel": 3690,
      "ĠIndian": 3691,
      "ferences": 3692,
      "pped": 3693,
      "Ġleading": 3694,
      "Ġwaste": 3695,
      "Ġconducted": 3696,
      "Ġsatis": 3697,
      "ĠAC": 3698,
      "Ġparty": 3699,
      "Ġlif": 3700,
      "Ġnotice": 3701,
      "orpor": 3702,
      "arter": 3703,
      "Ġtown": 3704,
      "idential": 3705,
      "odes": 3706,
      "\\[": 3707,
      "ĠProt": 3708,
      "Ġforward": 3709,
      "Ġnight": 3710,
      "He": 3711,
      "Ġcopy": 3712,
      "ĠYour": 3713,
      "Ġwood": 3714,
      "Ġinstead": 3715,
      "Ġscale": 3716,
      "Ġdisplay": 3717,
      "06": 3718,
      "Ġcontains": 3719,
      "abet": 3720,
      "Ġbooks": 3721,
      "PS": 3722,
      "Ġfoot": 3723,
      "Ġstarted": 3724,
      "Ġsleep": 3725,
      "irection": 3726,
      "ĠFrom": 3727,
      "ribute": 3728,
      "Ġexercise": 3729,
      "ĠYear": 3730,
      "Ġcollection": 3731,
      "}_": 3732,
      "All": 3733,
      "uro": 3734,
      "Ġsold": 3735,
      "eting": 3736,
      "ogen": 3737,
      "ĠStand": 3738,
      "char": 3739,
      "tion": 3740,
      "Ġdevice": 3741,
      "Ġroom": 3742,
      "Ġang": 3743,
      "ster": 3744,
      "Ġplease": 3745,
      "ĠMy": 3746,
      "Ġgradu": 3747,
      "Ġpan": 3748,
      "03": 3749,
      "ĠLet": 3750,
      "Ġperformed": 3751,
      "Ġpoll": 3752,
      "Ġadapt": 3753,
      "Ġreference": 3754,
      "Ġcompleted": 3755,
      "ero": 3756,
      "ĠRiver": 3757,
      "Ġeffic": 3758,
      "iring": 3759,
      "But": 3760,
      "Ġhar": 3761,
      "br": 3762,
      "Ġcredit": 3763,
      "related": 3764,
      "Ġmom": 3765,
      "Ġfactor": 3766,
      "water": 3767,
      "ille": 3768,
      "ĠGo": 3769,
      "illing": 3770,
      "ĠFebruary": 3771,
      "ĠWash": 3772,
      "ĠAnn": 3773,
      "Ġhelps": 3774,
      "Ġreduced": 3775,
      "umn": 3776,
      "ellow": 3777,
      "Ġselect": 3778,
      "Ġobtained": 3779,
      "RA": 3780,
      "Ġaccord": 3781,
      "ondon": 3782,
      "Ġalg": 3783,
      "ĠCode": 3784,
      "ĠAnt": 3785,
      "Ġhom": 3786,
      "Ġgoal": 3787,
      "Ġeasily": 3788,
      "Ġscreen": 3789,
      "Ġregist": 3790,
      "Ġusers": 3791,
      "lor": 3792,
      "Ġtechniques": 3793,
      "ĠDef": 3794,
      "Ġinsp": 3795,
      "Ġstri": 3796,
      "Ġcomponents": 3797,
      "Ġacid": 3798,
      "Ġfully": 3799,
      "ĠRE": 3800,
      "Ġstatement": 3801,
      "elines": 3802,
      "Ġassist": 3803,
      "Ġassets": 3804,
      "used": 3805,
      "imens": 3806,
      "'re": 3807,
      "Ġstage": 3808,
      "Ġbacter": 3809,
      "onom": 3810,
      "semb": 3811,
      "Ġblock": 3812,
      "Ġanimal": 3813,
      "wide": 3814,
      "Ġwalk": 3815,
      "Ġtree": 3816,
      "%)": 3817,
      "69": 3818,
      "Ġveget": 3819,
      "joy": 3820,
      "Ġtend": 3821,
      "iber": 3822,
      "oud": 3823,
      "Ġoperation": 3824,
      "Ġquite": 3825,
      "Ġmother": 3826,
      "SI": 3827,
      "58": 3828,
      "Ġinstruct": 3829,
      "Ġbank": 3830,
      "ula": 3831,
      "iter": 3832,
      "ĠSocial": 3833,
      "lies": 3834,
      "tenance": 3835,
      "``": 3836,
      "Ġtests": 3837,
      "Ġfunds": 3838,
      "Ġfollowed": 3839,
      "more": 3840,
      "Ġpurposes": 3841,
      "Ġconflic": 3842,
      "Ġpen": 3843,
      "Ġapproved": 3844,
      "Ġprocedures": 3845,
      "ĠLear": 3846,
      "ĠAlthough": 3847,
      "500": 3848,
      "atur": 3849,
      "Ġdigital": 3850,
      "Ġdevices": 3851,
      "Ġconsequ": 3852,
      "ĠUK": 3853,
      "Ġunc": 3854,
      "Ġcultural": 3855,
      "Ġconsult": 3856,
      "$.": 3857,
      "ĠClass": 3858,
      "ĠBank": 3859,
      "Ġpromot": 3860,
      "imin": 3861,
      "Ġhor": 3862,
      "Ġallowed": 3863,
      "with": 3864,
      "Ġmob": 3865,
      "gn": 3866,
      "Ġseason": 3867,
      "Ġinside": 3868,
      "ĠCanada": 3869,
      "Ġreasons": 3870,
      "ying": 3871,
      "Cl": 3872,
      "Ġprobably": 3873,
      "thern": 3874,
      "hat": 3875,
      "da": 3876,
      "Ġthous": 3877,
      "ĠJesus": 3878,
      "Ġhot": 3879,
      "ĠĠĠĠĠĠĠĠĠĠĠĠĠĠĠĠĠĠĠĠĠĠĠĠ": 3880,
      "Ġaffected": 3881,
      "ĠProv": 3882,
      "ĠOut": 3883,
      "arrow": 3884,
      "Ġsector": 3885,
      "Ġgetting": 3886,
      "Ġattack": 3887,
      "Ġoutput": 3888,
      "Ġdry": 3889,
      "_{\\": 3890,
      "haps": 3891,
      "Ġscientific": 3892,
      "ĠMany": 3893,
      "MENT": 3894,
      "Ġagreement": 3895,
      "unction": 3896,
      "ĠMem": 3897,
      "Ġsoon": 3898,
      "Ġutil": 3899,
      "07": 3900,
      "ocol": 3901,
      "ĠÎ": 3902,
      "UL": 3903,
      "ĠAD": 3904,
      "Ġsomeone": 3905,
      "ĠTable": 3906,
      "Ġsou": 3907,
      "Ġinternal": 3908,
      "Ġbeyond": 3909,
      "Ġconstruct": 3910,
      "Ġvacc": 3911,
      "PP": 3912,
      "And": 3913,
      "ĠUN": 3914,
      "Ġcarried": 3915,
      "ĠAfrica": 3916,
      "orith": 3917,
      "elt": 3918,
      "}}": 3919,
      "ara": 3920,
      "Ġ...": 3921,
      "Ġapproximately": 3922,
      "Ġ2004": 3923,
      "Ġteacher": 3924,
      "Ġstay": 3925,
      "Ġlaws": 3926,
      "Ġoperating": 3927,
      "ĠMus": 3928,
      "Ġfunding": 3929,
      "Ġwrite": 3930,
      "ĠEast": 3931,
      "ĠPhys": 3932,
      "ĠMost": 3933,
      "Ġminimum": 3934,
      "Ġhyp": 3935,
      "Ġcommercial": 3936,
      "ĠHouse": 3937,
      "Ġweeks": 3938,
      "Sp": 3939,
      "At": 3940,
      "Ġequal": 3941,
      "Ġcou": 3942,
      "ĠRev": 3943,
      "Ġmilitary": 3944,
      "Ġappoint": 3945,
      "ĠSan": 3946,
      "ancing": 3947,
      "ius": 3948,
      "che": 3949,
      "hern": 3950,
      "ĠChurch": 3951,
      "ĠReview": 3952,
      "Ġfacilities": 3953,
      "inct": 3954,
      "Ġoptions": 3955,
      "Ġsignificantly": 3956,
      "Ġpaid": 3957,
      "ĠEngine": 3958,
      "Ġleave": 3959,
      "lig": 3960,
      "ĠHer": 3961,
      "Ġmaximum": 3962,
      "Ġsem": 3963,
      "ocks": 3964,
      "Ġcitiz": 3965,
      "Ġtrees": 3966,
      "ĠEconom": 3967,
      "Ġunits": 3968,
      "Ġindependent": 3969,
      "oming": 3970,
      "Ġrecords": 3971,
      "04": 3972,
      "rief": 3973,
      "Ġadvant": 3974,
      "Ġmemory": 3975,
      "Ġoccup": 3976,
      "Ġvideo": 3977,
      "Ġdiscussion": 3978,
      "Ġplaced": 3979,
      "ĠGra": 3980,
      "Ġjoint": 3981,
      "ĠOver": 3982,
      "One": 3983,
      "ĠOf": 3984,
      "Ġremains": 3985,
      "nes": 3986,
      "Ġagricult": 3987,
      "ĠPhil": 3988,
      "rogen": 3989,
      "nown": 3990,
      "ĠStreet": 3991,
      "oke": 3992,
      "iveness": 3993,
      "Ġbit": 3994,
      "Ġ2003": 3995,
      "09": 3996,
      "Ġpresence": 3997,
      "cast": 3998,
      "Ġstrategies": 3999,
      "Ġep": 4000,
      "Ġinnov": 4001,
      "Ġneigh": 4002,
      "ĠSer": 4003,
      "Ġoption": 4004,
      "Ġsubs": 4005,
      "Ġnoted": 4006,
      "Ġseems": 4007,
      "Ġwent": 4008,
      "Ġeconomy": 4009,
      "Ġprotein": 4010,
      "resh": 4011,
      "Ar": 4012,
      "Ġreach": 4013,
      "ĠMat": 4014,
      "Ġconstant": 4015,
      "rees": 4016,
      "Ġpric": 4017,
      "Ġvict": 4018,
      "73": 4019,
      "Ġtiss": 4020,
      "xi": 4021,
      "Ġsteps": 4022,
      "Ġeat": 4023,
      "ĠHol": 4024,
      "unch": 4025,
      "undred": 4026,
      "ault": 4027,
      "Ġbehind": 4028,
      "Ġhabit": 4029,
      "rical": 4030,
      "pd": 4031,
      "Ġbrought": 4032,
      "ĠWilliam": 4033,
      "Ġbudget": 4034,
      "icate": 4035,
      "olar": 4036,
      "Ġgame": 4037,
      "Ġult": 4038,
      "ĠDel": 4039,
      "Ġspect": 4040,
      "ĠTest": 4041,
      "Ġcollabor": 4042,
      "Ġlegis": 4043,
      "ilit": 4044,
      "Ġclinical": 4045,
      "Ġmount": 4046,
      "Ġstrength": 4047,
      "Ġmotion": 4048,
      "hemat": 4049,
      "TER": 4050,
      "ĠElect": 4051,
      "ĠCH": 4052,
      "Ġnuc": 4053,
      "Ġcenter": 4054,
      "Ġimplementation": 4055,
      "Ġbirth": 4056,
      "Ġelse": 4057,
      "fully": 4058,
      "Ġexact": 4059,
      "reek": 4060,
      "phas": 4061,
      "mary": 4062,
      "rest": 4063,
      "Ġsea": 4064,
      "Ġbalance": 4065,
      "alpha": 4066,
      "ĠSociety": 4067,
      "Ġcand": 4068,
      "72": 4069,
      "Ġsevere": 4070,
      "Ġvalid": 4071,
      "urban": 4072,
      "63": 4073,
      "ĠRuss": 4074,
      "Ġ>": 4075,
      "Ġdang": 4076,
      "ĠĠĠĠĠĠĠĠĠĠĠĠĠĠĠĠĠĠĠĠĠĠĠĠĠĠ": 4077,
      "Ġbecomes": 4078,
      "Ġaccordance": 4079,
      "Ġauthority": 4080,
      "Ġtrack": 4081,
      "Ġimages": 4082,
      "Ġexposure": 4083,
      "Ġago": 4084,
      "ĠUnder": 4085,
      "ĠEach": 4086,
      "Ġgot": 4087,
      "ĠThen": 4088,
      "Ġ80": 4089,
      "Ġenjoy": 4090,
      "Ġfindings": 4091,
      "Ġgives": 4092,
      "Con": 4093,
      "Ġdoesn": 4094,
      "gy": 4095,
      "Ġshowed": 4096,
      "ĠAv": 4097,
      "oses": 4098,
      "CS": 4099,
      "odies": 4100,
      "Ġconnection": 4101,
      "nel": 4102,
      "Ġquickly": 4103,
      "oice": 4104,
      "Ġforeign": 4105,
      "Ġfast": 4106,
      "61": 4107,
      "standing": 4108,
      "oes": 4109,
      "Ġcontinued": 4110,
      "care": 4111,
      "Ġchallenges": 4112,
      "71": 4113,
      "},": 4114,
      "ĠWashington": 4115,
      "orthern": 4116,
      "ĠChe": 4117,
      "enge": 4118,
      "ords": 4119,
      "rig": 4120,
      "No": 4121,
      "ĠLondon": 4122,
      "Ġdecisions": 4123,
      "Ġstated": 4124,
      "Ġincreases": 4125,
      "Ġnews": 4126,
      "works": 4127,
      "ĠAfrican": 4128,
      "iat": 4129,
      "Ġsett": 4130,
      "onal": 4131,
      "ĠStat": 4132,
      "Ġmajority": 4133,
      "comes": 4134,
      "coh": 4135,
      "fort": 4136,
      "Ġopin": 4137,
      "oe": 4138,
      "Ġphase": 4139,
      "ingu": 4140,
      "Ġorganizations": 4141,
      "Ġestimated": 4142,
      "IM": 4143,
      "Ġstrategy": 4144,
      "Ġtask": 4145,
      "Ġlost": 4146,
      "useum": 4147,
      "ĠFrench": 4148,
      "ĠThus": 4149,
      "Ġtrust": 4150,
      "Ġdistance": 4151,
      "Ġversion": 4152,
      "|--------": 4153,
      "Ġsignal": 4154,
      "Ġ90": 4155,
      "Ġscientists": 4156,
      "74": 4157,
      "Ġexamples": 4158,
      "ĠCong": 4159,
      "ĠTotal": 4160,
      "Sh": 4161,
      "ĠOrgan": 4162,
      "Ġwarm": 4163,
      "ĠAdminist": 4164,
      "----------------------------------------------------------------": 4165,
      "Ġcircum": 4166,
      "NG": 4167,
      "aur": 4168,
      "active": 4169,
      "Ġhands": 4170,
      "ocation": 4171,
      "Ġones": 4172,
      "Ġdirection": 4173,
      "UT": 4174,
      "Ġillust": 4175,
      "Ġexperien": 4176,
      "Res": 4177,
      "iot": 4178,
      "Ġdiseases": 4179,
      "Ġvit": 4180,
      "Ġstatements": 4181,
      "ifically": 4182,
      "62": 4183,
      "cean": 4184,
      "rition": 4185,
      "pping": 4186,
      "###": 4187,
      "ĠTherefore": 4188,
      "ellig": 4189,
      "Ġ2022": 4190,
      "ĠForm": 4191,
      "Ġlargest": 4192,
      "Ġfuel": 4193,
      "By": 4194,
      "esc": 4195,
      "mathcal": 4196,
      "bl": 4197,
      "Ġfoods": 4198,
      "Ġeducational": 4199,
      "Ġotherwise": 4200,
      "ĠFigure": 4201,
      "Ġnation": 4202,
      "ij": 4203,
      "Ġadults": 4204,
      "Ġfriends": 4205,
      "Ġchoice": 4206,
      "Ġactual": 4207,
      "Ġvisual": 4208,
      "-----|": 4209,
      "Ġsetting": 4210,
      "59": 4211,
      "Ġcommand": 4212,
      "arian": 4213,
      "que": 4214,
      "Ġeffort": 4215,
      "Ġseparate": 4216,
      "Ġselected": 4217,
      "Ġbox": 4218,
      "ĠJust": 4219,
      "ĠSince": 4220,
      "Ġrecently": 4221,
      "ĠCON": 4222,
      "Ġprepar": 4223,
      "Ġwww": 4224,
      "Ġpet": 4225,
      "Ġbad": 4226,
      "Ġweb": 4227,
      "OM": 4228,
      "Ġrapid": 4229,
      "Ġplaces": 4230,
      "Ġrisks": 4231,
      "iers": 4232,
      "roduction": 4233,
      "Ġthinking": 4234,
      "Ġelement": 4235,
      "iment": 4236,
      "hors": 4237,
      "-------|": 4238,
      "Ġnorth": 4239,
      "ste": 4240,
      "OW": 4241,
      "rupt": 4242,
      "aled": 4243,
      "ĠStr": 4244,
      "ĠRead": 4245,
      "igma": 4246,
      "ĠHuman": 4247,
      "So": 4248,
      "ĠFOR": 4249,
      "oration": 4250,
      "Ġparties": 4251,
      "Ġdead": 4252,
      "Ġcharacteristics": 4253,
      "Ġ32": 4254,
      "52": 4255,
      "Ġbott": 4256,
      "eline": 4257,
      "Ġgraph": 4258,
      "ĠAtt": 4259,
      "Ġrob": 4260,
      "Ġapplicable": 4261,
      "Ġmid": 4262,
      "ky": 4263,
      "Ġvolunt": 4264,
      "Ġinfection": 4265,
      "Ġgoals": 4266,
      "Ġvolume": 4267,
      "ĠPri": 4268,
      "89": 4269,
      "gra": 4270,
      "Ġhousehold": 4271,
      "ĠAccording": 4272,
      "luding": 4273,
      "Ġvirt": 4274,
      "Ġ2001": 4275,
      "Ġ2002": 4276,
      "life": 4277,
      "With": 4278,
      "rastructure": 4279,
      "Ġsitu": 4280,
      "Ġstructures": 4281,
      "amer": 4282,
      "ĠPolicy": 4283,
      "Ġearlier": 4284,
      ")(": 4285,
      "Ġcreating": 4286,
      "attle": 4287,
      "ĠGreen": 4288,
      "Ġdivid": 4289,
      "ĠĠĠĠĠĠĠĠĠĠĠĠĠĠĠĠĠĠĠĠĠĠĠĠĠĠĠĠ": 4290,
      "Ġefficient": 4291,
      "ĠCommunity": 4292,
      "Ġbul": 4293,
      "Ġstop": 4294,
      "ĠHistory": 4295,
      "ĠOper": 4296,
      "ĠArch": 4297,
      "Ġchoose": 4298,
      "cks": 4299,
      "Ġsolutions": 4300,
      "omb": 4301,
      "Ġmut": 4302,
      "Ġanti": 4303,
      "rep": 4304,
      "ĠÐ": 4305,
      "Ġemp": 4306,
      "met": 4307,
      "Ġreduction": 4308,
      "ĠMor": 4309,
      "ĠRoad": 4310,
      "Ġded": 4311,
      "ĠSen": 4312,
      "Ġformer": 4313,
      "icit": 4314,
      "iar": 4315,
      "Ġmig": 4316,
      "Ġeye": 4317,
      "ses": 4318,
      "Ġserve": 4319,
      "ĠBlack": 4320,
      "Ġliterature": 4321,
      "ographic": 4322,
      "Ġtypically": 4323,
      "Ġspirit": 4324,
      "mat": 4325,
      "Ġsymb": 4326,
      "Ġ70": 4327,
      "ama": 4328,
      "Ġplat": 4329,
      "Ġmonitoring": 4330,
      "App": 4331,
      "ĠOp": 4332,
      "Ġsurround": 4333,
      "rans": 4334,
      "porary": 4335,
      "ĠBro": 4336,
      "Ġhundred": 4337,
      "Ġletter": 4338,
      "reement": 4339,
      "Ġalternative": 4340,
      "Ġkids": 4341,
      "ocr": 4342,
      "ĠFore": 4343,
      "abetes": 4344,
      "Ġsummer": 4345,
      "iable": 4346,
      "ĠAir": 4347,
      "ico": 4348,
      "left": 4349,
      "Ġsufficient": 4350,
      "apers": 4351,
      "Ġimmediately": 4352,
      "Ġvot": 4353,
      "rab": 4354,
      "ĠId": 4355,
      "],": 4356,
      "ĠExp": 4357,
      "Ġprepared": 4358,
      "Ġextent": 4359,
      "Ġsmaller": 4360,
      "Ġinterview": 4361,
      "Ġsouth": 4362,
      "CA": 4363,
      "Ġdrink": 4364,
      "ĠEv": 4365,
      "ĠGerman": 4366,
      "Ġrele": 4367,
      "âĢĿ.": 4368,
      "Ġtoward": 4369,
      "Ġpersons": 4370,
      "Ġast": 4371,
      "uries": 4372,
      "ĠChristian": 4373,
      "ĠCap": 4374,
      "OD": 4375,
      "ĠEqu": 4376,
      "Ġpark": 4377,
      "Ġalgorith": 4378,
      "Ġliqu": 4379,
      "Ġdocuments": 4380,
      "Ġstorage": 4381,
      "SP": 4382,
      "Ġtold": 4383,
      "ĠUnion": 4384,
      "ought": 4385,
      "Ġresponsibility": 4386,
      "CR": 4387,
      "Ġexpand": 4388,
      "ĠMich": 4389,
      "ĠPRO": 4390,
      "dule": 4391,
      "orders": 4392,
      "Ġdynam": 4393,
      "Ġbab": 4394,
      "Ġsamples": 4395,
      "men": 4396,
      "Ġtechnical": 4397,
      "Ġstra": 4398,
      "ĠRem": 4399,
      "rael": 4400,
      "Ġresulting": 4401,
      "omin": 4402,
      "ĠLand": 4403,
      "Ġsch": 4404,
      "Ġguide": 4405,
      "Ġdark": 4406,
      "Ġmolec": 4407,
      "ĠHere": 4408,
      "Ġreligious": 4409,
      "lam": 4410,
      "Ġrecommended": 4411,
      "SA": 4412,
      "Ġconvers": 4413,
      "Ġmiss": 4414,
      "TR": 4415,
      "Ġhighest": 4416,
      "Ġresource": 4417,
      "ĠSal": 4418,
      "ĠDuring": 4419,
      "Ġlat": 4420,
      "Ã¡": 4421,
      "ĠEngland": 4422,
      "Ġcorpor": 4423,
      "arden": 4424,
      "Ġevaluation": 4425,
      "Ġacademic": 4426,
      "ĠPort": 4427,
      "Ġhon": 4428,
      "Ġperspect": 4429,
      "Ġconsumption": 4430,
      "Ġsaw": 4431,
      "Ġnearly": 4432,
      "ros": 4433,
      "Ġdistribut": 4434,
      "ĠAustralia": 4435,
      "Ġsolar": 4436,
      "Ġmanner": 4437,
      "ĠBusiness": 4438,
      "inese": 4439,
      "Ġfeature": 4440,
      "Ġcomprehens": 4441,
      "uty": 4442,
      "ĠControl": 4443,
      "Ġchurch": 4444,
      "}(": 4445,
      "ĠCare": 4446,
      "ĠVir": 4447,
      "Ġsubstant": 4448,
      "Ġproceed": 4449,
      "Ġoccurs": 4450,
      "Ġolder": 4451,
      "ĠÂ£": 4452,
      "ATE": 4453,
      "Ġ38": 4454,
      "holders": 4455,
      "ĠFurther": 4456,
      "Ġstock": 4457,
      "ĠEst": 4458,
      "asure": 4459,
      "56": 4460,
      "ĠFound": 4461,
      "ĠOffic": 4462,
      "Ġcru": 4463,
      "asks": 4464,
      "rative": 4465,
      "ĠOb": 4466,
      "Ġobjects": 4467,
      "ĠAuthor": 4468,
      "Ġincorpor": 4469,
      "Ġmm": 4470,
      "Ġcharge": 4471,
      "alysis": 4472,
      "Ġprocedure": 4473,
      "Ġstru": 4474,
      "Ġdepos": 4475,
      "53": 4476,
      "Ġprocessing": 4477,
      "ĠApplic": 4478,
      "Ġ48": 4479,
      "Ġdiscussed": 4480,
      "Ġbillion": 4481,
      "emy": 4482,
      "Ġcoming": 4483,
      "Ġeight": 4484,
      "itis": 4485,
      "Ġrelatively": 4486,
      "ERS": 4487,
      "Ġdoctor": 4488,
      "iece": 4489,
      "cohol": 4490,
      "place": 4491,
      "ifying": 4492,
      "Ġfailure": 4493,
      "aught": 4494,
      "Ġhumans": 4495,
      "Ġpreviously": 4496,
      "mark": 4497,
      "Ġschem": 4498,
      "54": 4499,
      "Cont": 4500,
      "Ġappears": 4501,
      "Ġwid": 4502,
      "Ġanything": 4503,
      "ĠBen": 4504,
      "oma": 4505,
      "Ġaspects": 4506,
      "going": 4507,
      "Ġcrop": 4508,
      "ivery": 4509,
      "Ġtim": 4510,
      "Ġnothing": 4511,
      "aker": 4512,
      "aters": 4513,
      "Ġinstance": 4514,
      "house": 4515,
      "Ġfrequency": 4516,
      "Ġcovered": 4517,
      "Ġdetect": 4518,
      "Ġpow": 4519,
      "Ġexperiences": 4520,
      "Ġtherapy": 4521,
      "omas": 4522,
      "Ġattend": 4523,
      "Ġregulations": 4524,
      "iding": 4525,
      "Ġpatterns": 4526,
      "ilding": 4527,
      "Ġcool": 4528,
      "Ġemissions": 4529,
      "Ġchanged": 4530,
      "Ġball": 4531,
      "amma": 4532,
      "These": 4533,
      "Ġemphas": 4534,
      "Ġinstitutions": 4535,
      "Ġexhib": 4536,
      "rote": 4537,
      "ida": 4538,
      "Ġregul": 4539,
      "Ġhimself": 4540,
      "Ġemployment": 4541,
      "Ġoffers": 4542,
      "known": 4543,
      "ĠAlso": 4544,
      "ĠDesign": 4545,
      "Ġexpression": 4546,
      "Ġmiddle": 4547,
      "Ġmeasured": 4548,
      "uit": 4549,
      "Ġissued": 4550,
      "Ġtrend": 4551,
      "UC": 4552,
      "Ġmachine": 4553,
      "ĠMal": 4554,
      "Ġ33": 4555,
      "Ġalone": 4556,
      "ett": 4557,
      "ĠSaf": 4558,
      "Ġborn": 4559,
      "ĠTechnology": 4560,
      "ception": 4561,
      "Ġmoment": 4562,
      "51": 4563,
      "och": 4564,
      "Ġpursu": 4565,
      "*.": 4566,
      "ĠDisc": 4567,
      "Ġmap": 4568,
      "Ġreplace": 4569,
      "Ġsupported": 4570,
      "ĠProfess": 4571,
      "ĠPM": 4572,
      "Ġconcerns": 4573,
      "57": 4574,
      "Ġchann": 4575,
      "Ġrelease": 4576,
      "Ġsexual": 4577,
      "Ġsn": 4578,
      "94": 4579,
      "Ġ36": 4580,
      "icial": 4581,
      "Ø§": 4582,
      "Ġmill": 4583,
      "inf": 4584,
      "hedule": 4585,
      "Ġforces": 4586,
      "amily": 4587,
      "ĠAdd": 4588,
      "ĠEnergy": 4589,
      "Ġrise": 4590,
      "-------------|": 4591,
      "greg": 4592,
      "Ġrespectively": 4593,
      "Ġrecorded": 4594,
      "Ġurban": 4595,
      "hesis": 4596,
      "Ġstream": 4597,
      "Ġgeneration": 4598,
      "Ġgain": 4599,
      "Ġreserv": 4600,
      "Ġrepe": 4601,
      "lusion": 4602,
      "Ġrelationships": 4603,
      "ulum": 4604,
      "ĠLord": 4605,
      "Ġhistorical": 4606,
      "Ġbeaut": 4607,
      "iate": 4608,
      "Ġeveryone": 4609,
      "elta": 4610,
      "enty": 4611,
      "Ġarchitect": 4612,
      "Ġclearly": 4613,
      "Ġlisted": 4614,
      "ipal": 4615,
      "Ġprinciples": 4616,
      "UM": 4617,
      "Ġefficiency": 4618,
      "Ġinterpret": 4619,
      "93": 4620,
      "Ġworked": 4621,
      "lastname": 4622,
      "Ġshape": 4623,
      "rations": 4624,
      "arant": 4625,
      "aign": 4626,
      "ĠName": 4627,
      "Ġeverything": 4628,
      "Ġexternal": 4629,
      "osy": 4630,
      "Ġleaves": 4631,
      "CL": 4632,
      "rence": 4633,
      "rates": 4634,
      "ĠOR": 4635,
      "sect": 4636,
      "Ġfather": 4637,
      "rick": 4638,
      "igen": 4639,
      "Ġclasses": 4640,
      "Ġson": 4641,
      "Ġregions": 4642,
      "Ġinvolve": 4643,
      "Ġcash": 4644,
      "ĠArt": 4645,
      "ĠSum": 4646,
      "Ġfight": 4647,
      "Ġsoci": 4648,
      "Ġconnected": 4649,
      "ĠDi": 4650,
      "itors": 4651,
      "OP": 4652,
      "Ġfigure": 4653,
      "eech": 4654,
      "Ġrare": 4655,
      "Ġreferred": 4656,
      "Ġcele": 4657,
      "Ġyield": 4658,
      "ĠInf": 4659,
      "rete": 4660,
      "ĠAng": 4661,
      "Ġcompletely": 4662,
      "ĠSecond": 4663,
      "Ġphil": 4664,
      "ifications": 4665,
      "Ġmaintenance": 4666,
      "inu": 4667,
      "Ġpredict": 4668,
      "Ġtreated": 4669,
      "Ġpayment": 4670,
      "Ġcoast": 4671,
      "la": 4672,
      "Ġbeg": 4673,
      "aste": 4674,
      "Ġhousing": 4675,
      "Ġap": 4676,
      "ĠResp": 4677,
      "Com": 4678,
      "ĠMary": 4679,
      "Ġnotes": 4680,
      "Ġur": 4681,
      "ibly": 4682,
      "ĠLa": 4683,
      "Ġeyes": 4684,
      "ĠBra": 4685,
      "Ġfaith": 4686,
      "ĠMain": 4687,
      "VID": 4688,
      "Ġgave": 4689,
      "IF": 4690,
      "ĠIsrael": 4691,
      "ĠBas": 4692,
      "Ġdiv": 4693,
      "mosp": 4694,
      "ĠStudents": 4695,
      "zz": 4696,
      "ĠAgreement": 4697,
      "Ġpassed": 4698,
      "Ġtechnologies": 4699,
      "Ġcry": 4700,
      "Ġcore": 4701,
      "uff": 4702,
      "Ġfemale": 4703,
      "Ġphen": 4704,
      "Ġcycle": 4705,
      "osoph": 4706,
      "Ġminor": 4707,
      "Ġgiving": 4708,
      "Ġstim": 4709,
      "Ġbelief": 4710,
      "ĠEven": 4711,
      "Ġbackground": 4712,
      "field": 4713,
      "Ġinsurance": 4714,
      "}\\)": 4715,
      "Ġcircumst": 4716,
      "Ġmentioned": 4717,
      "ĠAny": 4718,
      "Ġdetailed": 4719,
      "utional": 4720,
      "orge": 4721,
      "Ġhope": 4722,
      "ticle": 4723,
      "Ġhearing": 4724,
      "Ġexceed": 4725,
      "ulty": 4726,
      "ĠPal": 4727,
      "Ġdrive": 4728,
      "\\]": 4729,
      "Ġweather": 4730,
      "ĠDet": 4731,
      "Ġindustrial": 4732,
      "Ġintended": 4733,
      "ĠChinese": 4734,
      "ira": 4735,
      "ĠTH": 4736,
      "Ġrot": 4737,
      "Ġcombination": 4738,
      "Ġimag": 4739,
      "Ġvehicle": 4740,
      "Ġoutcomes": 4741,
      "ĠAM": 4742,
      "Ġinteresting": 4743,
      "Ġprem": 4744,
      "pm": 4745,
      "anish": 4746,
      "Ġexcess": 4747,
      "ĠNumber": 4748,
      "ĠĠĠĠĠĠĠĠĠĠĠĠĠĠĠĠĠĠĠĠĠĠĠĠĠĠĠ": 4749,
      "rix": 4750,
      "ĠDavid": 4751,
      "ĠCD": 4752,
      "Ġvary": 4753,
      "Ġmiles": 4754,
      "Ġintroduced": 4755,
      "Ġcolon": 4756,
      "Ġdefinition": 4757,
      "ITY": 4758,
      "ĠChildren": 4759,
      "Ġbond": 4760,
      "Ġrunning": 4761,
      "ĠInvest": 4762,
      "gery": 4763,
      "Ġcomponent": 4764,
      "ĠMet": 4765,
      "ĠDem": 4766,
      "Ġcontrast": 4767,
      "Ġgender": 4768,
      "Ġmoving": 4769,
      "ĠFederal": 4770,
      "Ġcollege": 4771,
      "key": 4772,
      "Ġ%": 4773,
      "cles": 4774,
      "mm": 4775,
      "New": 4776,
      "well": 4777,
      "Ġcitizens": 4778,
      "Ġamounts": 4779,
      "Pl": 4780,
      "Ġframework": 4781,
      "aling": 4782,
      "IA": 4783,
      "Ġdistrict": 4784,
      "can": 4785,
      "Ġresistance": 4786,
      "Ġexplain": 4787,
      "PR": 4788,
      "Ġunless": 4789,
      "Ġimpacts": 4790,
      "Ġpregn": 4791,
      "ios": 4792,
      "abase": 4793,
      "alle": 4794,
      "Ġnor": 4795,
      "Ġwoman": 4796,
      "urt": 4797,
      "Ġcold": 4798,
      "Ġcandid": 4799,
      "Ġfear": 4800,
      "Ġgir": 4801,
      "Ġemergency": 4802,
      "91": 4803,
      "ĠBecause": 4804,
      "ĠCentral": 4805,
      "Ġscen": 4806,
      "Ġsubsequ": 4807,
      "retary": 4808,
      "Ġperfect": 4809,
      "illage": 4810,
      "92": 4811,
      "Ġcollected": 4812,
      "Ġtour": 4813,
      "Ġindicate": 4814,
      "Ġinfect": 4815,
      "Ġconsistent": 4816,
      "ĠKe": 4817,
      "ube": 4818,
      "Ġclaims": 4819,
      "ĠGreat": 4820,
      "Ġerror": 4821,
      "Ġtrying": 4822,
      "Ġassistance": 4823,
      "isher": 4824,
      "Ġreporting": 4825,
      "Ġsusp": 4826,
      "ĠPaul": 4827,
      "Ġnames": 4828,
      "Ġauthors": 4829,
      "ĠBal": 4830,
      "Ġbra": 4831,
      "Ġformed": 4832,
      "ĠGermany": 4833,
      "fered": 4834,
      "Ġbuildings": 4835,
      "ĠLeg": 4836,
      "Ġpeace": 4837,
      "ching": 4838,
      "orial": 4839,
      "des": 4840,
      "AY": 4841,
      "Ġrand": 4842,
      "ken": 4843,
      "Ġple": 4844,
      "ĠGen": 4845,
      "berg": 4846,
      "Ġrock": 4847,
      "ĠĠĠĠĠĠĠĠĠĠĠĠĠĠĠĠĠĠĠĠĠĠĠĠĠĠĠĠĠĠ": 4848,
      "ship": 4849,
      "Ġagency": 4850,
      "Ġgoes": 4851,
      "eration": 4852,
      "Ġmission": 4853,
      "Ġinterests": 4854,
      "Ġexpert": 4855,
      "Ġslight": 4856,
      "Ġattract": 4857,
      "Ġrelation": 4858,
      "Ġdrugs": 4859,
      "ĠNon": 4860,
      "Ġdied": 4861,
      "Ġchallenge": 4862,
      "Ġseven": 4863,
      "Ġcriteria": 4864,
      "Ġsuggests": 4865,
      "Ġviolence": 4866,
      "nership": 4867,
      "angle": 4868,
      "down": 4869,
      "iated": 4870,
      "ĠMedical": 4871,
      "ĠLim": 4872,
      "Ġplatform": 4873,
      "86": 4874,
      "Ġsav": 4875,
      "olved": 4876,
      "Our": 4877,
      "Ġtou": 4878,
      "ded": 4879,
      "Ġrandom": 4880,
      "Ġworth": 4881,
      "Ġ34": 4882,
      "ĠSte": 4883,
      "Ġemployee": 4884,
      "wood": 4885,
      "ests": 4886,
      "Ġequival": 4887,
      "ĠMex": 4888,
      "luded": 4889,
      "Ġapproval": 4890,
      "xic": 4891,
      "Ġprefer": 4892,
      "ĠYes": 4893,
      "Ġleaders": 4894,
      "Ġsigns": 4895,
      "Ġking": 4896,
      "Ġice": 4897,
      "ESS": 4898,
      "Ġcounter": 4899,
      "Ġfavor": 4900,
      "rum": 4901,
      "Ġimproved": 4902,
      "ario": 4903,
      "bre": 4904,
      "roph": 4905,
      "mal": 4906,
      "Ġnamed": 4907,
      "ĠDate": 4908,
      "abil": 4909,
      "Ġremoved": 4910,
      "Ġessay": 4911,
      "Ġagencies": 4912,
      "ĠNow": 4913,
      "DF": 4914,
      "ĠPower": 4915,
      "Ġfirm": 4916,
      "^{-": 4917,
      "Ġwon": 4918,
      "Ġexperiment": 4919,
      "ĠDNA": 4920,
      "Ġpromote": 4921,
      "Ġarri": 4922,
      "Ġgrade": 4923,
      "While": 4924,
      "Ġevolution": 4925,
      "Ġyourself": 4926,
      "Ġparameters": 4927,
      "ĠSpecial": 4928,
      "mathbb": 4929,
      "Ġprofession": 4930,
      "ĠRober": 4931,
      "Ġmoved": 4932,
      "Ġmessage": 4933,
      "Ġoffered": 4934,
      "Ġprovision": 4935,
      "Ġexchange": 4936,
      "ĠInternet": 4937,
      "Ġegg": 4938,
      "Ġancient": 4939,
      "Ġisol": 4940,
      "Ġprices": 4941,
      "ki": 4942,
      "SC": 4943,
      "==": 4944,
      "Ġvision": 4945,
      "Ġinfrastructure": 4946,
      "Is": 4947,
      "Ġprovisions": 4948,
      "lo": 4949,
      "roy": 4950,
      "VE": 4951,
      "itz": 4952,
      "ĠJames": 4953,
      "ĠPost": 4954,
      "Ġpages": 4955,
      "sub": 4956,
      "Ġadequ": 4957,
      "Ġvirus": 4958,
      "Ġswe": 4959,
      "ambda": 4960,
      "Ġproport": 4961,
      "ĠCongress": 4962,
      "Te": 4963,
      "osen": 4964,
      "point": 4965,
      "Ġpul": 4966,
      "ĠNO": 4967,
      "Ġsales": 4968,
      "Sc": 4969,
      "riculum": 4970,
      "Ġvalu": 4971,
      "Ġdidn": 4972,
      "ĠAmericans": 4973,
      "Ġadopted": 4974,
      "Ġfresh": 4975,
      "anges": 4976,
      "ht": 4977,
      "cious": 4978,
      "orb": 4979,
      "atically": 4980,
      "know": 4981,
      "Ġtransform": 4982,
      "Ġfacilit": 4983,
      "ibilities": 4984,
      "Ġpip": 4985,
      "ĠPeople": 4986,
      "ĠAL": 4987,
      "AND": 4988,
      "ĠJud": 4989,
      "Ġbreat": 4990,
      "Ġweak": 4991,
      "Ġfields": 4992,
      "ville": 4993,
      "Ġselection": 4994,
      "ĠTown": 4995,
      "Ġpick": 4996,
      "Ġwinter": 4997,
      "usive": 4998,
      "Ġfacility": 4999,
      "Ġmale": 5000,
      "Ġcommonly": 5001,
      "Ġshared": 5002,
      "Ġcities": 5003,
      "Ġinjury": 5004,
      "Ġwear": 5005,
      "BC": 5006,
      "Ġregional": 5007,
      "Ġconv": 5008,
      "âĢĿ,": 5009,
      "Ġmal": 5010,
      "Ġvictim": 5011,
      "Ġdiss": 5012,
      ".**": 5013,
      "Ġunivers": 5014,
      "atin": 5015,
      "agraph": 5016,
      "De": 5017,
      "Ġdeliver": 5018,
      "lamm": 5019,
      "ployment": 5020,
      "Acc": 5021,
      "Ġrestrict": 5022,
      "Ġyouth": 5023,
      "ĠFood": 5024,
      "Ġ1999": 5025,
      "SE": 5026,
      "Ġdomin": 5027,
      "Ġroot": 5028,
      "ams": 5029,
      "Ġbacteria": 5030,
      "Ġratio": 5031,
      "ĠTrust": 5032,
      "ĠTex": 5033,
      "Ġstarting": 5034,
      "leph": 5035,
      "Ġsymbol": 5036,
      "Ġhospital": 5037,
      "ya": 5038,
      "Ġperhaps": 5039,
      "gov": 5040,
      "Ġvariables": 5041,
      "Ġsynt": 5042,
      "Ġfundament": 5043,
      "Ġgenetic": 5044,
      "Ġ................................................................": 5045,
      "istant": 5046,
      "Ġcircumstances": 5047,
      "En": 5048,
      "Ġrich": 5049,
      "ĠWestern": 5050,
      "Ġadult": 5051,
      "Ġencourage": 5052,
      "Ġcustomers": 5053,
      "unicip": 5054,
      "Ġserved": 5055,
      "Ġremove": 5056,
      "Ġmort": 5057,
      "ĠConf": 5058,
      "ĠFinancial": 5059,
      "bal": 5060,
      "Ġ($": 5061,
      "Ġtrial": 5062,
      "Ġfixed": 5063,
      "omy": 5064,
      "col": 5065,
      "ĠBr": 5066,
      "Ġdelivery": 5067,
      "inding": 5068,
      "Ġfreed": 5069,
      "87": 5070,
      "Ġconflict": 5071,
      "ĠPsych": 5072,
      "Ġnovel": 5073,
      "asion": 5074,
      "Ġ37": 5075,
      "rieved": 5076,
      "Ġwin": 5077,
      "Ġwond": 5078,
      "Ġmi": 5079,
      "Ġfruit": 5080,
      "___": 5081,
      "Ġmit": 5082,
      "ĠFrance": 5083,
      "Ġbuy": 5084,
      "ĠRich": 5085,
      "Ġstyle": 5086,
      "Ġmanufacture": 5087,
      "Ġ75": 5088,
      "Ġlayer": 5089,
      "Ġfriend": 5090,
      "----------|": 5091,
      "anging": 5092,
      "ĠChair": 5093,
      "ĠSP": 5094,
      "ago": 5095,
      "rome": 5096,
      "ĠBel": 5097,
      "Ġpractical": 5098,
      "itative": 5099,
      "Ġconver": 5100,
      "level": 5101,
      "Ġaward": 5102,
      "mu": 5103,
      "ĠRequ": 5104,
      "Ġflood": 5105,
      "Ġtraffic": 5106,
      "ael": 5107,
      "ĠCorpor": 5108,
      "Ġdescribe": 5109,
      "ĠĠĠĠĠĠĠĠĠĠĠĠĠĠĠĠĠĠĠĠĠĠĠĠĠĠĠĠĠĠĠĠĠĠĠĠĠ": 5110,
      "Ġinterested": 5111,
      "Ġchapter": 5112,
      "ĠContract": 5113,
      "ĠRo": 5114,
      "ĠWhite": 5115,
      "Ġhour": 5116,
      "Ġmotor": 5117,
      "ĠEnvironmental": 5118,
      "ĠON": 5119,
      "Ġwrote": 5120,
      "isk": 5121,
      "Ġbatter": 5122,
      "Ġportion": 5123,
      "Ġexplore": 5124,
      "Ġtransition": 5125,
      "Ġeating": 5126,
      "Ind": 5127,
      "Ġantib": 5128,
      "Ġpurchase": 5129,
      "Ġflex": 5130,
      "Ġgold": 5131,
      "Ġwhom": 5132,
      "pat": 5133,
      "ĠTime": 5134,
      "Ġupper": 5135,
      "oday": 5136,
      "resents": 5137,
      "ga": 5138,
      "Ġfig": 5139,
      "Ġsubmitted": 5140,
      "Ġadvance": 5141,
      "Ġdrop": 5142,
      "Ġillness": 5143,
      "Ġresidents": 5144,
      "Ġstation": 5145,
      "het": 5146,
      "Ġtissue": 5147,
      "Ġindex": 5148,
      "Ġclassroom": 5149,
      "Ġremember": 5150,
      "Ġindicated": 5151,
      "Ġapproaches": 5152,
      "Ġcomment": 5153,
      "Ð°": 5154,
      "Ġchanging": 5155,
      "ditionally": 5156,
      "ĠFoundation": 5157,
      "iling": 5158,
      "|--------------------------------": 5159,
      "Im": 5160,
      "Ġparticipation": 5161,
      "iny": 5162,
      "ulner": 5163,
      "Ġhaz": 5164,
      "Ġliquid": 5165,
      "Fig": 5166,
      "Ġtruth": 5167,
      "Ġlandsc": 5168,
      "Ġwrong": 5169,
      "gl": 5170,
      "ĠUSA": 5171,
      "---------------|": 5172,
      "ĠTwo": 5173,
      "umin": 5174,
      "ĠPract": 5175,
      "Ġdiabetes": 5176,
      "Ġcook": 5177,
      "ĠAN": 5178,
      "Ġrenew": 5179,
      "Ġeffectively": 5180,
      "Ġgoods": 5181,
      "edia": 5182,
      "acing": 5183,
      "MA": 5184,
      "ĠDon": 5185,
      "ognitive": 5186,
      "Ġbed": 5187,
      "Ġalcohol": 5188,
      "Ġpicture": 5189,
      "antic": 5190,
      "rants": 5191,
      "Ġspecifically": 5192,
      "ishes": 5193,
      "Ġatmosp": 5194,
      "Ġpowerful": 5195,
      "spec": 5196,
      "Ab": 5197,
      "Ġï¬ģ": 5198,
      "Ġstrugg": 5199,
      "After": 5200,
      "sembly": 5201,
      "nic": 5202,
      "Ġreducing": 5203,
      "Ġresolution": 5204,
      "Ġcombined": 5205,
      "iant": 5206,
      "Ġcomprehensive": 5207,
      "84": 5208,
      "Ġbrief": 5209,
      "Ġdepartment": 5210,
      "ĠSk": 5211,
      "ĠSuper": 5212,
      "itness": 5213,
      "Ġdiscl": 5214,
      "ĠBay": 5215,
      "Not": 5216,
      "Ġenhance": 5217,
      "ĠLearning": 5218,
      "ĠÂ§": 5219,
      "Ġtopic": 5220,
      "olars": 5221,
      "ĠComput": 5222,
      "Ġing": 5223,
      "ĠĠĠĠĠĠĠĠĠĠĠĠĠĠĠĠĠĠĠĠĠĠĠĠĠĠĠĠĠ": 5224,
      "orrow": 5225,
      "essel": 5226,
      "ml": 5227,
      "urning": 5228,
      "Ġsets": 5229,
      "ĠWeb": 5230,
      "Ġriver": 5231,
      "ĠID": 5232,
      "Ġfinding": 5233,
      "Ġpopulations": 5234,
      "Ġarrange": 5235,
      "ĠIns": 5236,
      "Ġstore": 5237,
      "Ġengineering": 5238,
      "Ġspring": 5239,
      "ulf": 5240,
      "Ġstories": 5241,
      "Ġteach": 5242,
      "board": 5243,
      "Ġbottom": 5244,
      "Ġsustainable": 5245,
      "Ġtasks": 5246,
      "Ġadvanced": 5247,
      "http": 5248,
      "Ġmanage": 5249,
      "Ġglass": 5250,
      "efore": 5251,
      "Ġpiece": 5252,
      "ĠStudy": 5253,
      "Ġexperienced": 5254,
      "Ġcommittee": 5255,
      "Ġ500": 5256,
      "ĠMart": 5257,
      "Ġsugar": 5258,
      "})": 5259,
      "Ġdebt": 5260,
      "Ġsolid": 5261,
      "Ã³": 5262,
      "bar": 5263,
      "Ġspecified": 5264,
      "LC": 5265,
      "enced": 5266,
      "Ġadvantage": 5267,
      "Ġblue": 5268,
      "ĠTheir": 5269,
      "rian": 5270,
      "Ġhear": 5271,
      "Some": 5272,
      "za": 5273,
      "ĠEU": 5274,
      "Ġlearned": 5275,
      "83": 5276,
      "state": 5277,
      "Ġaccepted": 5278,
      "Ġmer": 5279,
      "Ġcooper": 5280,
      "Ġopinion": 5281,
      "ĠRoman": 5282,
      "Ð¾": 5283,
      "Ġ1990": 5284,
      "Ġthick": 5285,
      "Ġtransl": 5286,
      "Ġadvice": 5287,
      "Ġwel": 5288,
      "ĠPlease": 5289,
      "Ġmo": 5290,
      "ĠâĢ¦": 5291,
      "hy": 5292,
      "ho": 5293,
      "iful": 5294,
      "Ġdistinct": 5295,
      "Ġdoub": 5296,
      "Ġprimarily": 5297,
      "ĠTexas": 5298,
      "ails": 5299,
      "Ã¼": 5300,
      "ishing": 5301,
      "Ġrepresents": 5302,
      "Ġconcepts": 5303,
      "Ġcontribute": 5304,
      "Ġbirds": 5305,
      "Ġcolumn": 5306,
      "Ġidentity": 5307,
      "pi": 5308,
      "Ġcreation": 5309,
      "Int": 5310,
      "Ġundert": 5311,
      "nect": 5312,
      "ball": 5313,
      "Ġmetal": 5314,
      "uality": 5315,
      "ĠâĪ": 5316,
      "Ġbodies": 5317,
      "Ġvariable": 5318,
      "Ġformal": 5319,
      "Ġproperly": 5320,
      "Ġdu": 5321,
      "Ġinstrument": 5322,
      "Ġround": 5323,
      "Ġign": 5324,
      "Ġguidelines": 5325,
      "Ġagreed": 5326,
      "Ġoptim": 5327,
      "ygen": 5328,
      "ĠAccount": 5329,
      "Ġmotiv": 5330,
      "Ġelectricity": 5331,
      "Ġaid": 5332,
      "MM": 5333,
      "Ġsuggested": 5334,
      "EF": 5335,
      "Ġther": 5336,
      "Ġdescription": 5337,
      "ĠMac": 5338,
      "ĠLife": 5339,
      "ĠRepublic": 5340,
      "Ġcompliance": 5341,
      "Ġshares": 5342,
      "Ġgene": 5343,
      "Ġheavy": 5344,
      "Ġready": 5345,
      "Ġconcentration": 5346,
      "Ġshowing": 5347,
      "Ġunf": 5348,
      "ĠConst": 5349,
      "---|---|---|---|": 5350,
      "Ġawareness": 5351,
      "Ġfocused": 5352,
      "âĢ¦âĢ¦âĢ¦âĢ¦": 5353,
      "Ġ1998": 5354,
      "ogle": 5355,
      "Ġgenerated": 5356,
      "ns": 5357,
      "Ġperiods": 5358,
      "ota": 5359,
      "Ġ01": 5360,
      "Ġexcell": 5361,
      "ado": 5362,
      "Ġfine": 5363,
      "Ġcampaign": 5364,
      "requ": 5365,
      "Ġbelong": 5366,
      "81": 5367,
      "onic": 5368,
      "Ġtechnique": 5369,
      "ĠHel": 5370,
      "Ġsen": 5371,
      "Ġbusinesses": 5372,
      "ĠAdv": 5373,
      "estion": 5374,
      "ÃŃ": 5375,
      "Ġreasonable": 5376,
      "ĠExper": 5377,
      "Ġdesp": 5378,
      "lick": 5379,
      "hetic": 5380,
      "Ġleads": 5381,
      "tage": 5382,
      "Ġbehaviour": 5383,
      "ca": 5384,
      "Ġsettle": 5385,
      "Ġimprovement": 5386,
      "road": 5387,
      "Ġ2023": 5388,
      "iary": 5389,
      "Ġ00": 5390,
      "ÂŃ": 5391,
      "Ġchance": 5392,
      "Ġleadership": 5393,
      "ĠSam": 5394,
      "Ġextremely": 5395,
      "ĠJe": 5396,
      "Ġquarter": 5397,
      "ceived": 5398,
      "Ġdiscovered": 5399,
      "Ġroll": 5400,
      "section": 5401,
      "ĠIT": 5402,
      "that": 5403,
      "Ġexpressed": 5404,
      "Ġestimates": 5405,
      "Ġpercentage": 5406,
      "Ġdecrease": 5407,
      "Ġmode": 5408,
      "Ġconsideration": 5409,
      "ĠMeeting": 5410,
      "ĠMass": 5411,
      "Ġdepending": 5412,
      "Ġteeth": 5413,
      "Se": 5414,
      "ĠTax": 5415,
      "UB": 5416,
      "endit": 5417,
      "Ġnetworks": 5418,
      "ĠStudies": 5419,
      "ĠAssess": 5420,
      "ĠExt": 5421,
      "Ġnutri": 5422,
      "Ġheight": 5423,
      "Ġcompens": 5424,
      "Ġreleased": 5425,
      "Ġpoly": 5426,
      "bur": 5427,
      "ĠConference": 5428,
      "ĠFac": 5429,
      "Ġradio": 5430,
      "Ġkept": 5431,
      "ĠBer": 5432,
      "Ġelimin": 5433,
      "Ġdoll": 5434,
      "Ġoccurred": 5435,
      "CT": 5436,
      "Ġexplan": 5437,
      "ĠĠĠĠĠĠĠĠĠĠĠĠĠĠĠĠĠĠĠĠĠĠĠĠĠĠĠĠĠĠĠ": 5438,
      "CD": 5439,
      "\\(^{": 5440,
      "Ġnumerous": 5441,
      "Ġsubjects": 5442,
      "Ġintellig": 5443,
      "mail": 5444,
      "phi": 5445,
      "which": 5446,
      "Ġrecognized": 5447,
      "Ġwatch": 5448,
      "Ġelectronic": 5449,
      "Ġcoordin": 5450,
      "Ġsatisf": 5451,
      "Ġ42": 5452,
      "82": 5453,
      "ĠSign": 5454,
      "Ġrecommendations": 5455,
      "ician": 5456,
      "Ġmainly": 5457,
      "Ġcop": 5458,
      ".*": 5459,
      "Ġcontinues": 5460,
      "ĠSuch": 5461,
      "Ġinstruction": 5462,
      "no": 5463,
      "rust": 5464,
      "rd": 5465,
      "quad": 5466,
      "ressed": 5467,
      "Ġdomestic": 5468,
      "Ġsyn": 5469,
      "ĠÂ±": 5470,
      "Ġmeetings": 5471,
      "Ġvent": 5472,
      "Ġisn": 5473,
      "Ġhomes": 5474,
      "ĠAccess": 5475,
      "Ġsquare": 5476,
      "Ġmag": 5477,
      "Ġreaction": 5478,
      "ester": 5479,
      "Ġwanted": 5480,
      "Ġreality": 5481,
      "Ġformation": 5482,
      "Ġbill": 5483,
      "Ġclosed": 5484,
      "Ġexplained": 5485,
      "udd": 5486,
      "Ġfrequently": 5487,
      "forcement": 5488,
      "Ġcolle": 5489,
      "ĠBook": 5490,
      "Ġperman": 5491,
      "Ġnative": 5492,
      "ĠExecutive": 5493,
      "urities": 5494,
      "sum": 5495,
      "ĠAud": 5496,
      "Ġitem": 5497,
      "oo": 5498,
      "comp": 5499,
      "Ġiron": 5500,
      "hi": 5501,
      "Ġsave": 5502,
      "Ġcomparison": 5503,
      "oyal": 5504,
      "Ġseed": 5505,
      "ifies": 5506,
      "Ġspeech": 5507,
      "Ġrace": 5508,
      "Ġresponses": 5509,
      "ĠEngineering": 5510,
      "ĠIsland": 5511,
      "cd": 5512,
      "Ġinvolves": 5513,
      "riage": 5514,
      "icians": 5515,
      "Ġdensity": 5516,
      "ĠSing": 5517,
      "Ġparticipate": 5518,
      "ĠHall": 5519,
      "à¦": 5520,
      "Ġsend": 5521,
      "Ġmedium": 5522,
      "Ġorganic": 5523,
      "Ġperspective": 5524,
      "Ġaccounts": 5525,
      "Ġjournal": 5526,
      "}^": 5527,
      "Ġplastic": 5528,
      "Ġexcl": 5529,
      "tes": 5530,
      "Ġelig": 5531,
      "Ġsurpr": 5532,
      "Ġfilm": 5533,
      "Ġbus": 5534,
      "ĠIII": 5535,
      "ĠFe": 5536,
      "Ġretain": 5537,
      "ĠAppro": 5538,
      "ka": 5539,
      "ĠChapter": 5540,
      "ĠSmith": 5541,
      "EW": 5542,
      "bu": 5543,
      "Ġpolice": 5544,
      "iform": 5545,
      "icted": 5546,
      "Ġ65": 5547,
      "Ġminim": 5548,
      "ander": 5549,
      "lia": 5550,
      "uled": 5551,
      "overty": 5552,
      "ĠGood": 5553,
      "adian": 5554,
      "Ġimmune": 5555,
      "Ġmathemat": 5556,
      "tra": 5557,
      "ĠAT": 5558,
      "UD": 5559,
      "Ġcontaining": 5560,
      "Ġmilk": 5561,
      "ulating": 5562,
      "Ġformat": 5563,
      "****": 5564,
      "Ġmouth": 5565,
      "ĠEnd": 5566,
      "Ġfloor": 5567,
      "Ġtrig": 5568,
      "Ġcourses": 5569,
      "ĠSecurity": 5570,
      "Ġattribut": 5571,
      "Ġguidance": 5572,
      "osystem": 5573,
      "Ġraised": 5574,
      "ĠMicro": 5575,
      "ĠLi": 5576,
      "ĠAS": 5577,
      "Ġadministration": 5578,
      "ĠSun": 5579,
      "Ġanyone": 5580,
      "Ġreached": 5581,
      "Ġdecided": 5582,
      "Ġlik": 5583,
      "Ġchronic": 5584,
      "Ġalt": 5585,
      "Ġwidely": 5586,
      "Ġvote": 5587,
      "Note": 5588,
      "olute": 5589,
      "rier": 5590,
      "ĠTur": 5591,
      "Ġcomments": 5592,
      "ĠEffect": 5593,
      "Ġended": 5594,
      "Ġnuclear": 5595,
      "Ġvulner": 5596,
      "pling": 5597,
      "band": 5598,
      "Ġheard": 5599,
      "Ġbelieved": 5600,
      "Ġbreast": 5601,
      "Ġgames": 5602,
      "Ġthousands": 5603,
      "Ġdie": 5604,
      "Ġbecoming": 5605,
      "ĠArea": 5606,
      "_\\": 5607,
      "Ġ39": 5608,
      "Ġ300": 5609,
      "ĠFig": 5610,
      "Ġvessel": 5611,
      "lar": 5612,
      "Ġdepth": 5613,
      "aper": 5614,
      "Ġremaining": 5615,
      "eces": 5616,
      "Ġvolunte": 5617,
      "ĠMiss": 5618,
      "enth": 5619,
      "akers": 5620,
      "Ġhappen": 5621,
      "RC": 5622,
      "anch": 5623,
      "ias": 5624,
      "ĠSet": 5625,
      "Ġcalculated": 5626,
      "eared": 5627,
      "Ġconcerned": 5628,
      "Ġcontained": 5629,
      "Ġsand": 5630,
      "Ġjour": 5631,
      "From": 5632,
      "anguages": 5633,
      "Ġjobs": 5634,
      "Ġsequence": 5635,
      "ĠAnalysis": 5636,
      "zing": 5637,
      "Ġextract": 5638,
      "inn": 5639,
      "Ġphone": 5640,
      "Ġvehicles": 5641,
      "ĠRights": 5642,
      "ĠTem": 5643,
      "ĠHIV": 5644,
      "endix": 5645,
      "Ġfirstname": 5646,
      "'ll": 5647,
      "Ġfert": 5648,
      "eck": 5649,
      "Ġmix": 5650,
      "rich": 5651,
      "ĠPL": 5652,
      "celer": 5653,
      "ĠJewish": 5654,
      "Ġrecovery": 5655,
      "ĠMo": 5656,
      "ctors": 5657,
      "Ġped": 5658,
      "ria": 5659,
      "Ġsac": 5660,
      "Ġtested": 5661,
      "ĠIndust": 5662,
      "Ġcontrolled": 5663,
      "Ġ55": 5664,
      "Ġmulti": 5665,
      "Ġinvent": 5666,
      "Su": 5667,
      "Ġcris": 5668,
      "Ġsuitable": 5669,
      "Ġhop": 5670,
      "ormal": 5671,
      "lambda": 5672,
      "ĠAgency": 5673,
      "Ġsituations": 5674,
      "HS": 5675,
      "ĠUsing": 5676,
      "Ġterrit": 5677,
      "Ġachieved": 5678,
      "ĠGeorge": 5679,
      "Ġclick": 5680,
      "ĠThomas": 5681,
      "--------------|": 5682,
      "Ġguarant": 5683,
      "Ġrural": 5684,
      "Ġcareer": 5685,
      "ĠFlor": 5686,
      "mun": 5687,
      "Ġlocations": 5688,
      "RS": 5689,
      "Ġthin": 5690,
      "Ġcustomer": 5691,
      "xiety": 5692,
      "Ã¶": 5693,
      "ĠType": 5694,
      "Ġmatters": 5695,
      "ensus": 5696,
      "mes": 5697,
      "Ġband": 5698,
      "Ġplanet": 5699,
      "Ġhair": 5700,
      "Ġconservation": 5701,
      "Ġtemperatures": 5702,
      "van": 5703,
      "Ġtum": 5704,
      "Ġsecondary": 5705,
      "ĠIP": 5706,
      "à¤¾": 5707,
      "stream": 5708,
      "Ġhuge": 5709,
      "ĠMil": 5710,
      "Ġspl": 5711,
      "ĠMethod": 5712,
      "}^{": 5713,
      "Ġspent": 5714,
      "under": 5715,
      "beta": 5716,
      "Ġeasier": 5717,
      "ĠClin": 5718,
      "ĠCost": 5719,
      "Ġinteraction": 5720,
      "Ġdouble": 5721,
      "'ve": 5722,
      "iology": 5723,
      "Ġ44": 5724,
      "ĠOnce": 5725,
      "Ġacknow": 5726,
      "DS": 5727,
      "ĠLake": 5728,
      "ints": 5729,
      "Ġsort": 5730,
      "iscal": 5731,
      "Ġamend": 5732,
      "ĠTre": 5733,
      "Ġmedicine": 5734,
      "Ġdecades": 5735,
      "ĠSol": 5736,
      "ĠSupport": 5737,
      "Ġconsists": 5738,
      "Ġexposed": 5739,
      "ĠAcad": 5740,
      "TA": 5741,
      "eties": 5742,
      "rors": 5743,
      "Ġfreedom": 5744,
      "Ġindicates": 5745,
      "Ġarticles": 5746,
      "Ġallowing": 5747,
      "ĠMount": 5748,
      "Ġsched": 5749,
      "Ġanalys": 5750,
      "Ġforth": 5751,
      "Ġdispos": 5752,
      "Ġexperts": 5753,
      "Ġpun": 5754,
      "stitution": 5755,
      "times": 5756,
      "ãĤ": 5757,
      "Rec": 5758,
      "oster": 5759,
      "ĠArticle": 5760,
      "---------|": 5761,
      "Ðµ": 5762,
      "Ġtopics": 5763,
      "Ġpermit": 5764,
      "Ġdegrees": 5765,
      "ux": 5766,
      "ras": 5767,
      "erate": 5768,
      "Ġturned": 5769,
      "Ġsecure": 5770,
      "Ġaccurate": 5771,
      "ounced": 5772,
      "ĠJer": 5773,
      "Ġclos": 5774,
      "Ġdatabase": 5775,
      "Ġdisorder": 5776,
      "TING": 5777,
      "Ġstake": 5778,
      "ĠCOVID": 5779,
      "ÙĦ": 5780,
      "Ġ1997": 5781,
      "gypt": 5782,
      "Ġabuse": 5783,
      "Ġmarkets": 5784,
      "theta": 5785,
      "Us": 5786,
      "ĠRetrieved": 5787,
      "Äģ": 5788,
      "Ġfees": 5789,
      "CP": 5790,
      "Ġcompr": 5791,
      "ĠLabor": 5792,
      "Ġenable": 5793,
      "cel": 5794,
      "Ġsubmit": 5795,
      "Ġestimate": 5796,
      "Ġpray": 5797,
      "))": 5798,
      "ooth": 5799,
      "Ġdial": 5800,
      "Ġmobile": 5801,
      "Ġaccomp": 5802,
      "acific": 5803,
      "Ġtitle": 5804,
      "ĠMot": 5805,
      "Ġhypot": 5806,
      "Ġmuscle": 5807,
      "Ġstar": 5808,
      "leq": 5809,
      "ptions": 5810,
      "Ġbaby": 5811,
      "oly": 5812,
      "Ġdiscipl": 5813,
      "ĠManager": 5814,
      "ĠSafety": 5815,
      "astern": 5816,
      "hemistry": 5817,
      "otic": 5818,
      "2016": 5819,
      "ĠLocal": 5820,
      "istan": 5821,
      "Mr": 5822,
      "agers": 5823,
      "Ġsupporting": 5824,
      "Ġgenes": 5825,
      "Ġentry": 5826,
      "EX": 5827,
      "ĠPlanning": 5828,
      "Ġinstructions": 5829,
      "eding": 5830,
      "zon": 5831,
      "Ġoutl": 5832,
      "sigma": 5833,
      "ĠAsia": 5834,
      "Ġdirector": 5835,
      "ĠLibrary": 5836,
      "Ġobjective": 5837,
      "ĠMedicine": 5838,
      "flow": 5839,
      "Ġfelt": 5840,
      "rating": 5841,
      "ĠFranc": 5842,
      "Ġpi": 5843,
      "DP": 5844,
      "ĠGlobal": 5845,
      "alled": 5846,
      "ĠRad": 5847,
      "Ġemotional": 5848,
      "ï¼": 5849,
      "See": 5850,
      "Ġreform": 5851,
      "ĠPerson": 5852,
      "Ġlimits": 5853,
      "Ġexactly": 5854,
      "Ġneighbor": 5855,
      "ĠLong": 5856,
      "2015": 5857,
      "Ġmaster": 5858,
      "ĠDivision": 5859,
      "Ġlinked": 5860,
      "Ġhelped": 5861,
      "Ġtrib": 5862,
      "ĠModel": 5863,
      "Ġswitch": 5864,
      "Ġnutrition": 5865,
      "ĠJapanese": 5866,
      "Ġauthorities": 5867,
      "ĠMult": 5868,
      "BS": 5869,
      "Ġprotocol": 5870,
      "Ġimplemented": 5871,
      "ĠMont": 5872,
      "Ġeventually": 5873,
      "Ġcorresponding": 5874,
      "Ġconsequences": 5875,
      "Ġdiscrim": 5876,
      "itled": 5877,
      "ĠSecretary": 5878,
      "ĠEvery": 5879,
      "agram": 5880,
      "Ġshap": 5881,
      "Ġobvious": 5882,
      "apping": 5883,
      "hop": 5884,
      "Ġviews": 5885,
      "Ġtrou": 5886,
      "Ġexpenses": 5887,
      "Ġbone": 5888,
      "ĠLou": 5889,
      "Ġobjectives": 5890,
      "Ġsan": 5891,
      "exp": 5892,
      "ologist": 5893,
      "Ġextended": 5894,
      "Ġsurgery": 5895,
      "istical": 5896,
      "Other": 5897,
      "Ġequivalent": 5898,
      "uls": 5899,
      "ansion": 5900,
      "osite": 5901,
      "Ġdro": 5902,
      "ĠCivil": 5903,
      "Ġmostly": 5904,
      "Ġcomfort": 5905,
      "ĠCamp": 5906,
      "ĠNote": 5907,
      "ĠSl": 5908,
      "Ġexperiments": 5909,
      "ãĢ": 5910,
      "stract": 5911,
      "ĠStrateg": 5912,
      "à¥į": 5913,
      "Ġuncertain": 5914,
      "Ġdepression": 5915,
      "Ġwet": 5916,
      "Ġrevenue": 5917,
      "Ġoblig": 5918,
      "ĠCarol": 5919,
      "uris": 5920,
      "ĠPrinc": 5921,
      "Ġparagraph": 5922,
      "Ġ1996": 5923,
      "Ġelectrical": 5924,
      "ĠWhy": 5925,
      "Ġsimpl": 5926,
      "ĠMember": 5927,
      "2017": 5928,
      "hav": 5929,
      "ĠOpen": 5930,
      "anged": 5931,
      "Ġrequirement": 5932,
      "oking": 5933,
      "ĠWell": 5934,
      "ancer": 5935,
      "ĠBoth": 5936,
      "Ġcast": 5937,
      "Ġrein": 5938,
      "Ġdestroy": 5939,
      "Ġdelay": 5940,
      "Ġmeasurement": 5941,
      "ĠUp": 5942,
      "ĠMA": 5943,
      "west": 5944,
      "Ġexistence": 5945,
      "ĠIr": 5946,
      "Ġcm": 5947,
      "101": 5948,
      "ĠCath": 5949,
      "ĠStep": 5950,
      "Ġfacts": 5951,
      "Ġclust": 5952,
      "Ġcamer": 5953,
      "Ġpositions": 5954,
      "ĠWind": 5955,
      "Ġoxygen": 5956,
      "Ġphenomen": 5957,
      "Ġsession": 5958,
      "Ġ150": 5959,
      "lude": 5960,
      "Ġcorrel": 5961,
      "ĠAnnual": 5962,
      "ĠWorks": 5963,
      "Ġgarden": 5964,
      "Ġfundamental": 5965,
      "ĠTreat": 5966,
      "Ġattached": 5967,
      "Total": 5968,
      "Ġslightly": 5969,
      "Ġhyper": 5970,
      "Ġpeak": 5971,
      "Ġdisorders": 5972,
      "win": 5973,
      "being": 5974,
      "Ġfeedback": 5975,
      "Ġ43": 5976,
      "ĠBre": 5977,
      "ommod": 5978,
      "Ġsell": 5979,
      "ĠCommon": 5980,
      "ĠHen": 5981,
      "ĠOld": 5982,
      "Ġjustice": 5983,
      "Ġdiam": 5984,
      "Ġstraight": 5985,
      "Ġ95": 5986,
      "Ġstudied": 5987,
      "Ġprinciple": 5988,
      "ĊĠĠĠ": 5989,
      "Ġzero": 5990,
      "aser": 5991,
      "Ġtransportation": 5992,
      "Ġmechanism": 5993,
      "Ġdoi": 5994,
      "Ġagricultural": 5995,
      "aud": 5996,
      "ĠResources": 5997,
      "Ġvs": 5998,
      "ĠSystems": 5999,
      "Ġargument": 6000,
      "igned": 6001,
      "ĠIslam": 6002,
      "Ġcurriculum": 6003,
      "Ð¸": 6004,
      "ĠCA": 6005,
      "textit": 6006,
      "arp": 6007,
      "Ġfiles": 6008,
      "\\(^": 6009,
      "Ġcrisis": 6010,
      "Ġdiagnosis": 6011,
      "including": 6012,
      "Ġpup": 6013,
      "Ġphilosoph": 6014,
      "ĠRobert": 6015,
      "Ġceleb": 6016,
      "ĠEgypt": 6017,
      "Ġalgorithm": 6018,
      "Ġpartners": 6019,
      "Ġprogramme": 6020,
      "ĠPR": 6021,
      "ĠCentre": 6022,
      "amil": 6023,
      "Ġpotentially": 6024,
      "Ġpresentation": 6025,
      "alse": 6026,
      "Ġsupplement": 6027,
      "Ġ1995": 6028,
      "Ġneut": 6029,
      "ĠPub": 6030,
      "Ġhelping": 6031,
      "ĠWomen": 6032,
      "Ġdiversity": 6033,
      "Ġlabel": 6034,
      "Ġburn": 6035,
      "They": 6036,
      "Ġtheore": 6037,
      "aughter": 6038,
      "rog": 6039,
      "enda": 6040,
      "osc": 6041,
      "Ġinsect": 6042,
      "Ġtherap": 6043,
      "Ġcategory": 6044,
      "ĠMuseum": 6045,
      "Ġstorm": 6046,
      "Ġnoise": 6047,
      "usions": 6048,
      "2012": 6049,
      "pre": 6050,
      "Ġrecip": 6051,
      "Ġamb": 6052,
      "ĠNor": 6053,
      "Ġmand": 6054,
      "amps": 6055,
      "Ġtransmission": 6056,
      "HO": 6057,
      "ĠChange": 6058,
      "ĠFamily": 6059,
      "doi": 6060,
      "Ġrepresented": 6061,
      "cribed": 6062,
      "charge": 6063,
      "Ġgets": 6064,
      "Ġnurs": 6065,
      "Ġreturned": 6066,
      "Ġsections": 6067,
      "iatric": 6068,
      "Dr": 6069,
      "abled": 6070,
      "ĠLead": 6071,
      "Ġmg": 6072,
      "ini": 6073,
      "ript": 6074,
      "Ġchain": 6075,
      "Ġlived": 6076,
      "Ġreligion": 6077,
      "ossible": 6078,
      "ague": 6079,
      "Ġpil": 6080,
      "Ġwire": 6081,
      "END": 6082,
      "Qu": 6083,
      "Ġcausing": 6084,
      "2020": 6085,
      "cers": 6086,
      "Ġgrass": 6087,
      "bert": 6088,
      "add": 6089,
      "Ġelev": 6090,
      "Ġcoverage": 6091,
      "Ġ\\\\": 6092,
      "Comm": 6093,
      "Ġwave": 6094,
      "asp": 6095,
      "ĠExpl": 6096,
      "ĠIts": 6097,
      "ompl": 6098,
      "Ġfeeling": 6099,
      "Ġ41": 6100,
      "Stud": 6101,
      "Ġarg": 6102,
      "Ġengage": 6103,
      "Ġsaying": 6104,
      "EA": 6105,
      "Ã¤": 6106,
      "Ġofficials": 6107,
      "Ġprincipal": 6108,
      "Ġscore": 6109,
      "Ġintroduction": 6110,
      "ĠSou": 6111,
      "ĠWhere": 6112,
      "ailability": 6113,
      "Ġrail": 6114,
      "Ġappeal": 6115,
      "uted": 6116,
      "Ġ(\"": 6117,
      "ALL": 6118,
      "Ġtypical": 6119,
      "ban": 6120,
      "Ġ)": 6121,
      "Ġimmun": 6122,
      "Ġwest": 6123,
      "2014": 6124,
      "However": 6125,
      "ĠLab": 6126,
      "Ġconstra": 6127,
      "inations": 6128,
      "ĠVis": 6129,
      "ologists": 6130,
      "CI": 6131,
      "Ġarm": 6132,
      "bour": 6133,
      "Ġtrain": 6134,
      "Ġship": 6135,
      "Ġvoice": 6136,
      "Ġcategories": 6137,
      "formance": 6138,
      "PL": 6139,
      "Ġpollution": 6140,
      "Ġcontribution": 6141,
      "OU": 6142,
      "zy": 6143,
      "Me": 6144,
      "ĠAR": 6145,
      "ĠMill": 6146,
      "ĠOnly": 6147,
      "Ġexists": 6148,
      "Ġlibrary": 6149,
      "ĠSpanish": 6150,
      "ĠQue": 6151,
      "Ġdram": 6152,
      "Ġfee": 6153,
      "Ġexec": 6154,
      "orough": 6155,
      "Ġclient": 6156,
      "ĠVirgin": 6157,
      "That": 6158,
      "Ġwaters": 6159,
      "ipped": 6160,
      "2013": 6161,
      "ĠPan": 6162,
      "Ġmeant": 6163,
      "acts": 6164,
      "rows": 6165,
      "Ġfarmers": 6166,
      "Ġapprec": 6167,
      "ĠProcess": 6168,
      "ilde": 6169,
      "inet": 6170,
      "inger": 6171,
      "According": 6172,
      "Ġintervention": 6173,
      "Ġfif": 6174,
      "2010": 6175,
      "Ġreject": 6176,
      "Ġinvestigation": 6177,
      "2018": 6178,
      "QU": 6179,
      "ĠDan": 6180,
      "itage": 6181,
      "olf": 6182,
      "just": 6183,
      "Ġmorning": 6184,
      "aid": 6185,
      "Ġradiation": 6186,
      "ĠCL": 6187,
      "ĠNews": 6188,
      "Ġcontrols": 6189,
      "Ġwealth": 6190,
      "Ġwish": 6191,
      "Ġideal": 6192,
      "Ġdepends": 6193,
      "Ġafford": 6194,
      "Ġpartnership": 6195,
      "stood": 6196,
      "faces": 6197,
      "Ġkid": 6198,
      "Ġdivided": 6199,
      "ndrome": 6200,
      "Ġcoal": 6201,
      "oted": 6202,
      "ĠAdministration": 6203,
      "ipt": 6204,
      "Ġprotected": 6205,
      "Ġderived": 6206,
      "ĠEX": 6207,
      "ita": 6208,
      "unicipal": 6209,
      "Ġowner": 6210,
      "Ġpreparation": 6211,
      "ĠMexico": 6212,
      "ĠList": 6213,
      "ĠLevel": 6214,
      "Ġcalls": 6215,
      "____________": 6216,
      "0000": 6217,
      "erning": 6218,
      "pdf": 6219,
      "Ġnav": 6220,
      "Ġreceiving": 6221,
      "Ġlargely": 6222,
      "Ġonto": 6223,
      "ĠOfficer": 6224,
      "ĠOrder": 6225,
      "Ġlinear": 6226,
      "ECT": 6227,
      "Ġ47": 6228,
      "ola": 6229,
      "ogue": 6230,
      "ĠMS": 6231,
      "Ġedge": 6232,
      "fol": 6233,
      "allel": 6234,
      "Ġregistered": 6235,
      "',": 6236,
      "ĠCurrent": 6237,
      "Ġ46": 6238,
      "Ġsole": 6239,
      "Ġrecy": 6240,
      "ĠOx": 6241,
      "ags": 6242,
      "Ġrecognition": 6243,
      "AA": 6244,
      "Ġsale": 6245,
      "Ġpossibility": 6246,
      "Ġgenerate": 6247,
      "Ġdoor": 6248,
      "ificate": 6249,
      "Ġletters": 6250,
      "ĠPet": 6251,
      "Ġsupports": 6252,
      "ĠBur": 6253,
      "Ġmist": 6254,
      "ĠBuilding": 6255,
      "Ġdespite": 6256,
      "Ġlanguages": 6257,
      "Ġimproving": 6258,
      "Ġpal": 6259,
      "EST": 6260,
      "Ġprepare": 6261,
      "free": 6262,
      "Ġspot": 6263,
      "ĠIll": 6264,
      "osph": 6265,
      "Ġhighlight": 6266,
      "Ġlegislation": 6267,
      "Ġ49": 6268,
      "Ġfunctional": 6269,
      "Ġexcellent": 6270,
      "irms": 6271,
      "Ġaccompl": 6272,
      "inder": 6273,
      "Ġoral": 6274,
      "ĠChief": 6275,
      "ye": 6276,
      "ĠFlorida": 6277,
      "organ": 6278,
      "othing": 6279,
      "Ġrefers": 6280,
      "Do": 6281,
      "Ġprevention": 6282,
      "ventions": 6283,
      "Ġmanufacturing": 6284,
      "Ġtoxic": 6285,
      "Le": 6286,
      "Ġhappens": 6287,
      "Ġschedule": 6288,
      "ĠArab": 6289,
      "ventional": 6290,
      "2011": 6291,
      "ston": 6292,
      "ĠSciences": 6293,
      "cling": 6294,
      "Ġsed": 6295,
      "ĠMiddle": 6296,
      "Ġfib": 6297,
      "Ġinh": 6298,
      "Ġcontem": 6299,
      "Ġapparent": 6300,
      "ellect": 6301,
      "ortunately": 6302,
      "---": 6303,
      "Ġemployed": 6304,
      "Ġanxiety": 6305,
      "from": 6306,
      "Ġaudit": 6307,
      "ĠGovern": 6308,
      "Ġofficers": 6309,
      "Ġvac": 6310,
      "Ġcompetition": 6311,
      "ĠJose": 6312,
      "HA": 6313,
      "unk": 6314,
      "à¸": 6315,
      "espite": 6316,
      "ĠIss": 6317,
      "Ġadequate": 6318,
      "Ġcounty": 6319,
      "Ġaccounting": 6320,
      "Ġclosely": 6321,
      "Ġcomposition": 6322,
      "olve": 6323,
      "Ġeast": 6324,
      "net": 6325,
      "Ġchosen": 6326,
      "ferent": 6327,
      "ĠPay": 6328,
      "Ġsin": 6329,
      "Ġremained": 6330,
      "iced": 6331,
      "han": 6332,
      "egin": 6333,
      "FOR": 6334,
      "Ġmechanisms": 6335,
      "Ġadvoc": 6336,
      "essions": 6337,
      "Ġsurrounding": 6338,
      "Ġesc": 6339,
      "ĠLo": 6340,
      "ĠGold": 6341,
      "Ġleader": 6342,
      "Ġassigned": 6343,
      "lied": 6344,
      "sey": 6345,
      "ĠRob": 6346,
      "Ġdisp": 6347,
      "irmed": 6348,
      "ĠImp": 6349,
      "Ġaccuracy": 6350,
      "%,": 6351,
      "erved": 6352,
      "Please": 6353,
      "Ġcrim": 6354,
      "ircraft": 6355,
      "Ġbegins": 6356,
      "iled": 6357,
      "Ġbeautiful": 6358,
      "atal": 6359,
      "indu": 6360,
      "Ġconcerning": 6361,
      "Ġcognitive": 6362,
      "gments": 6363,
      "acters": 6364,
      "ato": 6365,
      "Ġcontinuous": 6366,
      "Ġproof": 6367,
      "Ġlinks": 6368,
      "Now": 6369,
      "Ġlatest": 6370,
      "**:": 6371,
      "Ġabsolute": 6372,
      "fit": 6373,
      "ĠGuide": 6374,
      "Ġmetab": 6375,
      "Ġorient": 6376,
      "ĠProfessor": 6377,
      "Part": 6378,
      "Ġfamous": 6379,
      "Ġkeeping": 6380,
      "ĠAuthority": 6381,
      "Ġfol": 6382,
      "Ġevaluate": 6383,
      "Ġhabitat": 6384,
      "ĠFire": 6385,
      "Ġgovernments": 6386,
      "ĠDescription": 6387,
      "Ġpersonnel": 6388,
      "Ġocean": 6389,
      "Ġecosystem": 6390,
      "Ġpoverty": 6391,
      "Â®": 6392,
      "Ġdangerous": 6393,
      "Ġcere": 6394,
      "Although": 6395,
      "Ġaf": 6396,
      "Ġongoing": 6397,
      "oved": 6398,
      "Ġinflamm": 6399,
      "Ġfamiliar": 6400,
      "Ġcrucial": 6401,
      "riers": 6402,
      "ĠAtl": 6403,
      "alls": 6404,
      "ART": 6405,
      "Ġpartner": 6406,
      "bra": 6407,
      "Americ": 6408,
      "Ġconsent": 6409,
      "Ġplus": 6410,
      "ĠHome": 6411,
      "Ġsteel": 6412,
      "Ġwindow": 6413,
      "ĠHead": 6414,
      "zed": 6415,
      "Ġdistributed": 6416,
      "Ġnit": 6417,
      "Ġoutcome": 6418,
      "Ġregulation": 6419,
      "Ġsensitive": 6420,
      "Ġgrand": 6421,
      "Ġwitness": 6422,
      "ĠVer": 6423,
      "-----------|": 6424,
      "ilon": 6425,
      "Ġassociation": 6426,
      "ĠPage": 6427,
      "Ġparticles": 6428,
      "athy": 6429,
      "Ġproportion": 6430,
      "Ġkilled": 6431,
      "Ġdiverse": 6432,
      "%.": 6433,
      "Ġinstruments": 6434,
      "Ġmeasurements": 6435,
      "Ġacts": 6436,
      "Ġremote": 6437,
      "Ġmere": 6438,
      "Ġinhib": 6439,
      "Ġbrother": 6440,
      "Ġintegrated": 6441,
      "Ġdownload": 6442,
      "ĠEconomic": 6443,
      "rolog": 6444,
      "urisd": 6445,
      "Ġstored": 6446,
      "ME": 6447,
      "Ġdogs": 6448,
      "Ġfinally": 6449,
      "oral": 6450,
      "ASA": 6451,
      "ĠCult": 6452,
      "Ġearn": 6453,
      "osa": 6454,
      "ĠProper": 6455,
      "Ġrelating": 6456,
      "2009": 6457,
      "Ġpublication": 6458,
      "Ġspend": 6459,
      "ĠUnit": 6460,
      "Ġpump": 6461,
      "Ġkm": 6462,
      "Ġaccommod": 6463,
      "```": 6464,
      "ano": 6465,
      "ypes": 6466,
      "Ġprohib": 6467,
      "inity": 6468,
      "Ġconfirm": 6469,
      "Ġconsumer": 6470,
      "Ġantic": 6471,
      "Ġproposal": 6472,
      "Ġsong": 6473,
      "Ġdefend": 6474,
      "ĠNetwork": 6475,
      "Ġrain": 6476,
      "300": 6477,
      "burg": 6478,
      "arsh": 6479,
      "Ġsubsequent": 6480,
      "Ġplate": 6481,
      "ĠTer": 6482,
      "ĠWood": 6483,
      "\")": 6484,
      "ĠPacific": 6485,
      "Ġpanel": 6486,
      "FF": 6487,
      "sis": 6488,
      "Ġimmig": 6489,
      "2019": 6490,
      "Ġdistingu": 6491,
      "Ġuniversity": 6492,
      "liament": 6493,
      "Ġbiological": 6494,
      "Ġobservations": 6495,
      "ĠGreek": 6496,
      "Ġfigures": 6497,
      "Ġscope": 6498,
      "ĠDise": 6499,
      "ĠCur": 6500,
      "ĠAG": 6501,
      "ĠAgricult": 6502,
      "Ġprofessionals": 6503,
      "Ġvoltage": 6504,
      "Ġdefine": 6505,
      "ĠPers": 6506,
      "ĠEth": 6507,
      "Ġlung": 6508,
      "Sub": 6509,
      "Ġpapers": 6510,
      "ĠCamb": 6511,
      "Ġvaluable": 6512,
      "Ġsomew": 6513,
      "Ġscheme": 6514,
      "iverse": 6515,
      "Ġdemonstrate": 6516,
      "Ġraise": 6517,
      "Ġprofit": 6518,
      "Ġunderlying": 6519,
      "Ġpayments": 6520,
      "ureau": 6521,
      "Be": 6522,
      "ĠMa": 6523,
      "Ġju": 6524,
      "Ġyellow": 6525,
      "Ġproviders": 6526,
      "ested": 6527,
      "Ġconsumers": 6528,
      "ĠMembers": 6529,
      "itt": 6530,
      "Ġrevealed": 6531,
      "Ġnorthern": 6532,
      "Ġcertainly": 6533,
      "Ġcommission": 6534,
      "Ġregularly": 6535,
      "Ġfill": 6536,
      "mod": 6537,
      "Ġlatter": 6538,
      "ĠTR": 6539,
      "Ġmel": 6540,
      "Ġdescribes": 6541,
      "Ġconfig": 6542,
      "FR": 6543,
      "Ġentered": 6544,
      "Ġtaught": 6545,
      "Ġsouthern": 6546,
      "Ġlicense": 6547,
      "Sec": 6548,
      "ĠComple": 6549,
      "Ġoperate": 6550,
      "Ġdraft": 6551,
      "Ġdepart": 6552,
      "king": 6553,
      "Ġ1994": 6554,
      "va": 6555,
      "Ġdefic": 6556,
      "Ġhealthcare": 6557,
      "ĠCP": 6558,
      "ĠProtection": 6559,
      "EG": 6560,
      "top": 6561,
      "Ġdiscover": 6562,
      "Ġabsence": 6563,
      "Ġlooks": 6564,
      "Ġcounsel": 6565,
      "Ġseeds": 6566,
      "ĠLow": 6567,
      "Here": 6568,
      "Ġmaintained": 6569,
      "Ġgranted": 6570,
      "Ġcommitted": 6571,
      "Ġinfections": 6572,
      "Ġspaces": 6573,
      "ĠMax": 6574,
      "Ġsigned": 6575,
      "Ġofficer": 6576,
      "othe": 6577,
      "Ġpool": 6578,
      "Ġpieces": 6579,
      "001": 6580,
      "Ġstages": 6581,
      "Ġvitamin": 6582,
      "ivered": 6583,
      "ĠMD": 6584,
      "Ġadding": 6585,
      "ĠCy": 6586,
      "Ġharvest": 6587,
      "ARD": 6588,
      "Ġtreatments": 6589,
      "Ġcriminal": 6590,
      "Ġimmediate": 6591,
      "ĠStandard": 6592,
      "Ġmath": 6593,
      "Ġexamination": 6594,
      "Ġwonder": 6595,
      "isition": 6596,
      "Ġforced": 6597,
      "Ġbrand": 6598,
      "Ġagents": 6599,
      "Ġhit": 6600,
      "ependent": 6601,
      "âĤ": 6602,
      "ĠImpro": 6603,
      "itudes": 6604,
      "vironments": 6605,
      "Ġextensive": 6606,
      "Ġfluid": 6607,
      "ĠSpace": 6608,
      "Ġpresident": 6609,
      "Ġshift": 6610,
      "Ġplayed": 6611,
      "nam": 6612,
      "Ġadvert": 6613,
      "2008": 6614,
      "Ġprobability": 6615,
      "Ġscholars": 6616,
      "Ġchannel": 6617,
      "Ġwife": 6618,
      "bi": 6619,
      "oto": 6620,
      "Ġdomain": 6621,
      "Ġimprovements": 6622,
      "anda": 6623,
      "kin": 6624,
      "Ġacceler": 6625,
      "Ġdriving": 6626,
      "long": 6627,
      "cher": 6628,
      "Ġincreasingly": 6629,
      "Ġmeat": 6630,
      "edu": 6631,
      "Ġsettings": 6632,
      "Ġdemonstrated": 6633,
      "ĠKore": 6634,
      "Ġinformed": 6635,
      "Ġreact": 6636,
      "Ġcharacters": 6637,
      "Ġconfidence": 6638,
      "Ġinstalled": 6639,
      "Ġvital": 6640,
      "Ġagent": 6641,
      "Ġclar": 6642,
      "ĠAustralian": 6643,
      "Ġopening": 6644,
      "ricted": 6645,
      "Ġelectron": 6646,
      "Date": 6647,
      "ĠCanadian": 6648,
      "Ġax": 6649,
      "raction": 6650,
      "itivity": 6651,
      "Ġmixed": 6652,
      "orter": 6653,
      "ĠAction": 6654,
      "Ġidentification": 6655,
      "ĠNav": 6656,
      "ĠNatural": 6657,
      "ificial": 6658,
      "Ġbattle": 6659,
      "Ġlandscape": 6660,
      "ĠTerm": 6661,
      "Ġcontributions": 6662,
      "Ġanswers": 6663,
      "Ġisland": 6664,
      "Ġkinds": 6665,
      "igenous": 6666,
      "Ġeffectiveness": 6667,
      "making": 6668,
      "Ġhelpful": 6669,
      "BN": 6670,
      "ĠArmy": 6671,
      "mentation": 6672,
      "Ġgar": 6673,
      "Ġgirls": 6674,
      "Ġpermanent": 6675,
      "Ġsharing": 6676,
      "Ġdetection": 6677,
      "Ġzone": 6678,
      "Ġexpendit": 6679,
      "Ġmanaged": 6680,
      "Ġsurve": 6681,
      "Ġinject": 6682,
      "Ġsubstance": 6683,
      "ĠMichael": 6684,
      "Ġunderstood": 6685,
      "Ð½": 6686,
      "orph": 6687,
      "unday": 6688,
      "ĠRef": 6689,
      "igital": 6690,
      "Ġhorm": 6691,
      "then": 6692,
      "Ġsummary": 6693,
      "Ġprecise": 6694,
      "ena": 6695,
      "Ġatmosphere": 6696,
      "yer": 6697,
      "ĠStudent": 6698,
      "Ġreviewed": 6699,
      "elfare": 6700,
      "ĠOh": 6701,
      "Am": 6702,
      "Ġrepresentation": 6703,
      "Ġgreatest": 6704,
      "ĠBill": 6705,
      "Ġ________________": 6706,
      "Ġfailed": 6707,
      "Ġnegot": 6708,
      "Ġsuccessfully": 6709,
      "Ġproteins": 6710,
      "rag": 6711,
      "Ġadverse": 6712,
      "Ġfilter": 6713,
      "roid": 6714,
      "Ġfulf": 6715,
      "ĠTor": 6716,
      "Ġtermin": 6717,
      "acher": 6718,
      "ĠDO": 6719,
      "Ġmanual": 6720,
      "ĠCheck": 6721,
      "Ġregulatory": 6722,
      "gamma": 6723,
      "Ġflat": 6724,
      "Ġcircuit": 6725,
      "ĠWhe": 6726,
      "earing": 6727,
      "Ġlib": 6728,
      "Ġtrad": 6729,
      "ĠAssessment": 6730,
      "ait": 6731,
      "Ġgram": 6732,
      "Co": 6733,
      "Ġmac": 6734,
      "ĠForest": 6735,
      "Bl": 6736,
      "Ġrank": 6737,
      "encing": 6738,
      "My": 6739,
      "Med": 6740,
      "Ġaddressed": 6741,
      "Ġappeared": 6742,
      "ua": 6743,
      "ĠParty": 6744,
      ".:": 6745,
      "ĠIdent": 6746,
      "Ġequation": 6747,
      "ĠMoreover": 6748,
      "ny": 6749,
      "ĠBible": 6750,
      "alt": 6751,
      "Ġrepair": 6752,
      "ĠVict": 6753,
      "ĠFree": 6754,
      "Ġvisible": 6755,
      "Ġsheet": 6756,
      "ĠPeter": 6757,
      "ĠAP": 6758,
      "abric": 6759,
      "During": 6760,
      "Ġrepresentative": 6761,
      "tau": 6762,
      "Ġsmart": 6763,
      "Ġcommitment": 6764,
      "ĠCert": 6765,
      "ĠProduct": 6766,
      "ĠHistor": 6767,
      "Ġadministrative": 6768,
      "car": 6769,
      "racy": 6770,
      "Many": 6771,
      "ĠLt": 6772,
      "stein": 6773,
      "ĠThrough": 6774,
      "Ġprovider": 6775,
      "Ġinvolving": 6776,
      "Ġrough": 6777,
      "Ġwilling": 6778,
      "Ġlesson": 6779,
      "Why": 6780,
      "ĠBet": 6781,
      "awa": 6782,
      "Ġ________________________________": 6783,
      "ascular": 6784,
      "atever": 6785,
      "ĠĠĠĠĠĠĠĠĠĠĠĠĠĠĠĠĠĠĠĠĠĠĠĠĠĠĠĠĠĠĠĠĠ": 6786,
      "Ġrepeated": 6787,
      "ĠSpring": 6788,
      "Ġmarked": 6789,
      "Reg": 6790,
      "Ġdecline": 6791,
      "Ġwhereas": 6792,
      "Ġlaboratory": 6793,
      "'m": 6794,
      "kins": 6795,
      "ĠFurthermore": 6796,
      "Ġrecognize": 6797,
      "Ġod": 6798,
      "Ġlooked": 6799,
      "ĠEmploy": 6800,
      "Ġaccum": 6801,
      "Ġ52": 6802,
      "Ġinteractions": 6803,
      "}{\\": 6804,
      "Ġattacks": 6805,
      "Ġplaying": 6806,
      "ĠAff": 6807,
      "Ġgather": 6808,
      "Ġvaccine": 6809,
      "Ġowners": 6810,
      "Ġsubstantial": 6811,
      "itan": 6812,
      "ĠAlex": 6813,
      "but": 6814,
      "ĠIV": 6815,
      "ava": 6816,
      "position": 6817,
      "ĠDC": 6818,
      "ĠCond": 6819,
      "ĠEr": 6820,
      "Pr": 6821,
      "Ġtaxes": 6822,
      "ĠBrown": 6823,
      "ĠTransport": 6824,
      "Ġexpansion": 6825,
      "ĠAnother": 6826,
      "atial": 6827,
      "Ġ1980": 6828,
      "Ġtal": 6829,
      "roke": 6830,
      "Ġnarr": 6831,
      "Since": 6832,
      "ĠHand": 6833,
      "ĠRES": 6834,
      "Ġunable": 6835,
      "Ġfaster": 6836,
      "Ġchemicals": 6837,
      "ruits": 6838,
      "}\\": 6839,
      "Ġconcrete": 6840,
      "Ġnarrow": 6841,
      "Ġleaving": 6842,
      "Ġconference": 6843,
      "ĠColumb": 6844,
      "Ġstable": 6845,
      "Ġ64": 6846,
      "------------|": 6847,
      "Ġaffects": 6848,
      "ocratic": 6849,
      "Ġadvis": 6850,
      "Ġdisapp": 6851,
      "ĠSurvey": 6852,
      "Ġresulted": 6853,
      "Ġknew": 6854,
      "ĠMad": 6855,
      "umes": 6856,
      "Ġshel": 6857,
      "Ġclients": 6858,
      "Ġconsidering": 6859,
      "ĠFrank": 6860,
      "ĠExam": 6861,
      "ĠFY": 6862,
      "Ġmoral": 6863,
      "Ġsecret": 6864,
      "Ġconclusion": 6865,
      "Ġkill": 6866,
      "Ġeligible": 6867,
      "Ġexperimental": 6868,
      "ĠValley": 6869,
      "Ġ54": 6870,
      "Ġtoler": 6871,
      "ĠMuslim": 6872,
      "ORT": 6873,
      "ĠAcademy": 6874,
      "ĠLu": 6875,
      "Ġtun": 6876,
      "LA": 6877,
      "uties": 6878,
      "Ġprison": 6879,
      "ĠClub": 6880,
      "More": 6881,
      "miss": 6882,
      "Ġcardi": 6883,
      "Ġcapable": 6884,
      "ĠSil": 6885,
      "Ġdrinking": 6886,
      "Ġpair": 6887,
      "ÑĤ": 6888,
      "ĠSea": 6889,
      "EV": 6890,
      "Ġhoriz": 6891,
      "ĠCr": 6892,
      "Ġ400": 6893,
      "mas": 6894,
      "Ġdelivered": 6895,
      "ĠTw": 6896,
      "800": 6897,
      "ĠKnow": 6898,
      "Ġpursuant": 6899,
      "Ġlessons": 6900,
      "Ġrevolution": 6901,
      "Ġmoist": 6902,
      "Ġ51": 6903,
      "ĠCle": 6904,
      "ĠDirectors": 6905,
      "ĠEnt": 6906,
      "rator": 6907,
      "^\\": 6908,
      "Ġ53": 6909,
      "Ġholding": 6910,
      "Ġelectro": 6911,
      "ĠMake": 6912,
      "rency": 6913,
      "Ġpure": 6914,
      "Fin": 6915,
      "Ġassume": 6916,
      "word": 6917,
      "icago": 6918,
      "Ġlosses": 6919,
      "hand": 6920,
      "Ġelection": 6921,
      ".\\": 6922,
      "Ġstreet": 6923,
      "Ġinternet": 6924,
      "def": 6925,
      "tilde": 6926,
      "Ġsides": 6927,
      "hips": 6928,
      "Ġengagement": 6929,
      "ĠLouis": 6930,
      "Ġbanks": 6931,
      "ĠCharles": 6932,
      "Ġrent": 6933,
      "ĠWild": 6934,
      "Ġwithd": 6935,
      "Gener": 6936,
      "Ġduty": 6937,
      "Ġorganized": 6938,
      "ĠInit": 6939,
      "Ġliability": 6940,
      "Ġenvironments": 6941,
      "Ġdedicated": 6942,
      "Ġjurisd": 6943,
      "Ġchart": 6944,
      "Ġappearance": 6945,
      "Ġaircraft": 6946,
      "Ġjoin": 6947,
      "ĠRussian": 6948,
      "Ġsnow": 6949,
      "Des": 6950,
      "Ġopened": 6951,
      "Ġvast": 6952,
      "Ġroutine": 6953,
      "Ġrapidly": 6954,
      "ĠGr": 6955,
      "ĠDev": 6956,
      "ĠUt": 6957,
      "Ġsatisfact": 6958,
      "Ġerrors": 6959,
      "Rep": 6960,
      "law": 6961,
      "Ġdependent": 6962,
      "IST": 6963,
      "cons": 6964,
      "Ġgod": 6965,
      "Pre": 6966,
      "ĠAp": 6967,
      "isters": 6968,
      "Ġframe": 6969,
      "Ġlegisl": 6970,
      "](": 6971,
      "Ġeggs": 6972,
      "Ġsalt": 6973,
      "Ġfaculty": 6974,
      "Ġwalls": 6975,
      "Ġstrategic": 6976,
      "ĠNations": 6977,
      "Ġinterpretation": 6978,
      "Ġserver": 6979,
      "lephone": 6980,
      "ega": 6981,
      "Ġunknown": 6982,
      "orney": 6983,
      "OUR": 6984,
      "Ġremoval": 6985,
      "ĠFour": 6986,
      "Ġcollaboration": 6987,
      "Or": 6988,
      "aturally": 6989,
      "Ġclim": 6990,
      "ĠLatin": 6991,
      "............": 6992,
      "URE": 6993,
      "Ġrequested": 6994,
      "Ġconven": 6995,
      "oven": 6996,
      "icks": 6997,
      "etary": 6998,
      "ella": 6999,
      "ĠCa": 7000,
      "Ġpregnancy": 7001,
      "iration": 7002,
      "Ġhappened": 7003,
      "Ġmovements": 7004,
      "arks": 7005,
      "Ġcrime": 7006,
      "ĠEmer": 7007,
      "Ġfurn": 7008,
      "riting": 7009,
      "ulin": 7010,
      "edy": 7011,
      "Ġsubsid": 7012,
      "imer": 7013,
      "ãĥ": 7014,
      "Ġvan": 7015,
      "Ġinsert": 7016,
      "istent": 7017,
      "antly": 7018,
      "Ġbright": 7019,
      "2007": 7020,
      "riday": 7021,
      "ĠJews": 7022,
      "ĠCorporation": 7023,
      "Ġnations": 7024,
      "Ġholds": 7025,
      "Ġment": 7026,
      "Ġvariation": 7027,
      "ĠVirginia": 7028,
      "Ġmatch": 7029,
      "alian": 7030,
      "ocy": 7031,
      "GE": 7032,
      "ĠHill": 7033,
      "Ġles": 7034,
      "sell": 7035,
      "Ġplanned": 7036,
      "ani": 7037,
      "rey": 7038,
      "Ġunlike": 7039,
      "à¤°": 7040,
      "Ġasset": 7041,
      "Ġtooth": 7042,
      "Ġenroll": 7043,
      "Ġprogramming": 7044,
      "ĠCirc": 7045,
      "Ġdesignated": 7046,
      "Ġequity": 7047,
      "Ġvegetables": 7048,
      "rene": 7049,
      "Ġstrongly": 7050,
      "war": 7051,
      "Ġ56": 7052,
      "DR": 7053,
      "Ġconnections": 7054,
      "BA": 7055,
      "Ġgrown": 7056,
      "Ġcloud": 7057,
      "body": 7058,
      "Ġfort": 7059,
      "iï¬ģ": 7060,
      "Ġjudge": 7061,
      "Ġresid": 7062,
      "ensed": 7063,
      "Ġsurvival": 7064,
      "Ġstone": 7065,
      "ourse": 7066,
      "ellectual": 7067,
      "Ġintent": 7068,
      "Ġprofessor": 7069,
      "Ġbio": 7070,
      "Ġcra": 7071,
      "Ġnecessarily": 7072,
      "Ġavailability": 7073,
      "Ġdynamic": 7074,
      "Ġexplains": 7075,
      "Ġinvestments": 7076,
      "ĠCE": 7077,
      "onds": 7078,
      "ingly": 7079,
      "Ġnormally": 7080,
      "Ġexecut": 7081,
      "Ġprompt": 7082,
      "ĠPC": 7083,
      "ĠTop": 7084,
      "ĠScient": 7085,
      "Ġinstitution": 7086,
      "ARY": 7087,
      "Most": 7088,
      "Ġseeking": 7089,
      "Ġfalse": 7090,
      "rary": 7091,
      "Ġsignals": 7092,
      "Ġtried": 7093,
      "Ġfell": 7094,
      "Ġcorporate": 7095,
      "zen": 7096,
      "Ġfilled": 7097,
      "Ġsick": 7098,
      "Ġaer": 7099,
      "HER": 7100,
      "ĠScott": 7101,
      "irty": 7102,
      "Ġmatrix": 7103,
      "irement": 7104,
      "2006": 7105,
      "Ġrow": 7106,
      "Ġreplaced": 7107,
      "Ġflows": 7108,
      "Ġsolve": 7109,
      "Ġages": 7110,
      "ĠRussia": 7111,
      "Ġsignificance": 7112,
      "Ġbattery": 7113,
      "Ġnine": 7114,
      "Ġpush": 7115,
      "https": 7116,
      "Ġtouch": 7117,
      "Ġoverl": 7118,
      "quir": 7119,
      "eless": 7120,
      "Ġintegration": 7121,
      "ĠStandards": 7122,
      "ĠColor": 7123,
      "Ġexamine": 7124,
      "ĠHospital": 7125,
      "ĠCatholic": 7126,
      "$_": 7127,
      "anta": 7128,
      "Ġupdated": 7129,
      "ĠNature": 7130,
      "ette": 7131,
      "ML": 7132,
      "Ġaggreg": 7133,
      "Ġengaged": 7134,
      "Ġgap": 7135,
      "Per": 7136,
      "Ġchief": 7137,
      "imensions": 7138,
      "ĠMer": 7139,
      "Ġpresents": 7140,
      "aneous": 7141,
      "Ġsenior": 7142,
      "Ġoffering": 7143,
      "2005": 7144,
      "ĠMag": 7145,
      "ustain": 7146,
      "she": 7147,
      "âĢĻ.": 7148,
      "Ġstructural": 7149,
      "Ġextension": 7150,
      "Ġabund": 7151,
      "Ġdecide": 7152,
      "Ġaccessible": 7153,
      "Ġ\\).": 7154,
      "oxide": 7155,
      "Ġconscious": 7156,
      "Ġstem": 7157,
      "reshold": 7158,
      "Ġresidential": 7159,
      "Ġcouple": 7160,
      ")}": 7161,
      "oding": 7162,
      "May": 7163,
      "BER": 7164,
      "VI": 7165,
      "Ġwestern": 7166,
      "Let": 7167,
      "Ġweap": 7168,
      "Ġalter": 7169,
      "ĠEN": 7170,
      "ĠStaff": 7171,
      "Ġmaintaining": 7172,
      "ĠØ": 7173,
      "Ġliver": 7174,
      "ollowing": 7175,
      "Ġbird": 7176,
      "TC": 7177,
      "icide": 7178,
      "fl": 7179,
      "Ġpossibly": 7180,
      "Ġinnovation": 7181,
      "Ġlands": 7182,
      "aph": 7183,
      "Ġparallel": 7184,
      "ĠLar": 7185,
      "Ġhazard": 7186,
      "Ġinterface": 7187,
      "ĠLanguage": 7188,
      "Ġchoices": 7189,
      "Ġinches": 7190,
      "Ġstanding": 7191,
      "ILL": 7192,
      "Ass": 7193,
      "Ġ120": 7194,
      "Ġroles": 7195,
      "Ġcrops": 7196,
      "Ġlose": 7197,
      "Ġethnic": 7198,
      "zil": 7199,
      "throp": 7200,
      "Ġpowers": 7201,
      "ĠBritain": 7202,
      "Ġdiscovery": 7203,
      "ĠMaterial": 7204,
      "âĢĲ": 7205,
      "Ġagriculture": 7206,
      "Ġ85": 7207,
      "Ġvillage": 7208,
      "Ġvirtual": 7209,
      "Ġtail": 7210,
      "^*": 7211,
      "vision": 7212,
      "Ġentity": 7213,
      "Ġapart": 7214,
      "Ġ1993": 7215,
      "Ġcreative": 7216,
      "redit": 7217,
      "Ġfoundation": 7218,
      "Ġentirely": 7219,
      "ĠSC": 7220,
      "roduct": 7221,
      "lets": 7222,
      "ĠPlant": 7223,
      "Ġrecept": 7224,
      "list": 7225,
      "Ġcentre": 7226,
      "Hz": 7227,
      "ĠInstead": 7228,
      "Ġinstallation": 7229,
      "such": 7230,
      "idity": 7231,
      "lers": 7232,
      "Ġsentence": 7233,
      "Delta": 7234,
      "Ġcompletion": 7235,
      "ĠCS": 7236,
      "Ġpharm": 7237,
      "endar": 7238,
      "aren": 7239,
      "ĠNOT": 7240,
      "erman": 7241,
      "yr": 7242,
      "Ġindeed": 7243,
      "Ġrub": 7244,
      "ifts": 7245,
      "Ġauthorized": 7246,
      "Ed": 7247,
      "Ġil": 7248,
      "Ġtrained": 7249,
      "Ġfeelings": 7250,
      "ĠJustice": 7251,
      "uma": 7252,
      "mp": 7253,
      "ĠMinistry": 7254,
      "eli": 7255,
      "ĠAge": 7256,
      "Ġimper": 7257,
      "agues": 7258,
      "Ġbow": 7259,
      "Ġintelligence": 7260,
      "Ġthoughts": 7261,
      "Over": 7262,
      "Ġbehalf": 7263,
      "Ġmarriage": 7264,
      "400": 7265,
      "Ġpaint": 7266,
      "ĠCoun": 7267,
      "Ġtrials": 7268,
      "ĠJoseph": 7269,
      "Ġcompensation": 7270,
      "Ġsports": 7271,
      "Ġentitled": 7272,
      "reland": 7273,
      "âĢĻ,": 7274,
      "Ġloan": 7275,
      "ĠTraining": 7276,
      "ipping": 7277,
      "Ġspeaking": 7278,
      "ala": 7279,
      "omic": 7280,
      "Ġanticip": 7281,
      "bf": 7282,
      "Ġcatch": 7283,
      "Ġsto": 7284,
      "idden": 7285,
      "asive": 7286,
      "ih": 7287,
      "ĠHenry": 7288,
      "Ġsupplies": 7289,
      "Ġprove": 7290,
      "Ġ57": 7291,
      "ĠUr": 7292,
      "izer": 7293,
      "Ġfle": 7294,
      "Ġteams": 7295,
      "Ġkil": 7296,
      "EMENT": 7297,
      "ĠCR": 7298,
      "inking": 7299,
      "ĠLtd": 7300,
      "Ġskill": 7301,
      "duate": 7302,
      "aria": 7303,
      "ĠSA": 7304,
      "erior": 7305,
      "Another": 7306,
      "''": 7307,
      "Ġcarefully": 7308,
      "Ġ1992": 7309,
      "TY": 7310,
      "Col": 7311,
      "Ġobst": 7312,
      "Ġarchitecture": 7313,
      "umer": 7314,
      "Ġmanager": 7315,
      "Ġscores": 7316,
      "Ġthank": 7317,
      "Ġpriority": 7318,
      "ache": 7319,
      "Ġfoss": 7320,
      "Ġhydro": 7321,
      "acent": 7322,
      "Ġoperational": 7323,
      "ĠEmp": 7324,
      "Ġconfirmed": 7325,
      "Ġtalking": 7326,
      "Ġtradition": 7327,
      "Ġprospect": 7328,
      "ANCE": 7329,
      "Ġthousand": 7330,
      "Ġappointed": 7331,
      "coming": 7332,
      "Ġtargets": 7333,
      "ĠPA": 7334,
      "First": 7335,
      "Ġtwenty": 7336,
      "onday": 7337,
      "Ġneuro": 7338,
      "ĠMinister": 7339,
      "Ġdoubt": 7340,
      "onomic": 7341,
      "ÑĢ": 7342,
      "Ġbeneficial": 7343,
      "Ġconventional": 7344,
      "Ġstability": 7345,
      "SION": 7346,
      "Ġnone": 7347,
      "ĠDen": 7348,
      "iability": 7349,
      "Ġimpossible": 7350,
      "Ġproducing": 7351,
      "igan": 7352,
      "Ġuns": 7353,
      "Ġbear": 7354,
      "ruption": 7355,
      "ĠSup": 7356,
      "Ġspiritual": 7357,
      "Ġdirected": 7358,
      "ĠThose": 7359,
      "ĠCapital": 7360,
      "Ġhappy": 7361,
      "oning": 7362,
      "aks": 7363,
      "Ġsyndrome": 7364,
      "ĠPenn": 7365,
      "MC": 7366,
      "**,": 7367,
      "Ġdesire": 7368,
      ")|": 7369,
      "Ġgun": 7370,
      "Ġconstructed": 7371,
      "Ġhandle": 7372,
      "hent": 7373,
      "Ġsuc": 7374,
      "Ġdesired": 7375,
      "ĠNov": 7376,
      "TE": 7377,
      "Ġtwice": 7378,
      "Ġplays": 7379,
      "Ġmarketing": 7380,
      "teen": 7381,
      "Ġimplications": 7382,
      "Ġlots": 7383,
      "ailed": 7384,
      "ĠĠĠĠĠĠĠĠĠĠĠĠĠĠĠĠĠĠĠĠĠĠĠĠĠĠĠĠĠĠĠĠĠĠ": 7385,
      "Ġexplo": 7386,
      "oir": 7387,
      "Ġaqu": 7388,
      "ä¸": 7389,
      "mic": 7390,
      "Ġtro": 7391,
      "ĠToday": 7392,
      "Ġedition": 7393,
      "Ġfiscal": 7394,
      "Ġpossess": 7395,
      "Man": 7396,
      "Ġsatell": 7397,
      "scale": 7398,
      "Ġpreval": 7399,
      "Ġpig": 7400,
      "ora": 7401,
      "Ġaudience": 7402,
      "Ġusage": 7403,
      "ometimes": 7404,
      "2000": 7405,
      "ĠNorthern": 7406,
      "lishing": 7407,
      "Ġque": 7408,
      "Ġsounds": 7409,
      "Ġcreates": 7410,
      "Ġstarts": 7411,
      "Ġpermitted": 7412,
      "Ġampl": 7413,
      "ĠField": 7414,
      "ĠCre": 7415,
      "normal": 7416,
      "rite": 7417,
      "Ġsuffering": 7418,
      "emed": 7419,
      "Ġsmooth": 7420,
      "ĠSouthern": 7421,
      "brid": 7422,
      "Ġphr": 7423,
      "ounce": 7424,
      "Ġmodified": 7425,
      "Comp": 7426,
      "ĠWal": 7427,
      "ospit": 7428,
      "Ġrid": 7429,
      "Ġcommunications": 7430,
      "chers": 7431,
      "OG": 7432,
      "Ġdivision": 7433,
      "Ġuniform": 7434,
      "html": 7435,
      "Ġexpensive": 7436,
      "iest": 7437,
      "ifferent": 7438,
      "Ġkit": 7439,
      "Ġdefault": 7440,
      "Ġroots": 7441,
      "Ġflowers": 7442,
      "Ġcultiv": 7443,
      "Ġcarrying": 7444,
      "Ġmanif": 7445,
      "Ġjourney": 7446,
      "Ġinteract": 7447,
      "ffee": 7448,
      "ĠGoogle": 7449,
      "Ġstatistics": 7450,
      "mits": 7451,
      "ĠGeorg": 7452,
      "ĠParis": 7453,
      "oom": 7454,
      "ricts": 7455,
      "Ġcharges": 7456,
      "Ġnerv": 7457,
      "Ġwants": 7458,
      "Â·": 7459,
      "Ġexplanation": 7460,
      "ĠBudget": 7461,
      "herent": 7462,
      "ĠVe": 7463,
      "Ġpu": 7464,
      "Ġdifficulty": 7465,
      "trans": 7466,
      "Ġcompare": 7467,
      "Ġduration": 7468,
      "Ġspending": 7469,
      "ĠIreland": 7470,
      "rection": 7471,
      "Ġleaf": 7472,
      "ĠBC": 7473,
      "Ġprev": 7474,
      "Ġanalyses": 7475,
      "using": 7476,
      "iii": 7477,
      "ĠCross": 7478,
      "Ġenforcement": 7479,
      "ĠGrand": 7480,
      "Ġorganis": 7481,
      "Ġ101": 7482,
      "Ġtow": 7483,
      "ĠLee": 7484,
      "ums": 7485,
      "ĠInterest": 7486,
      "ĠQuality": 7487,
      "born": 7488,
      "iations": 7489,
      "ulus": 7490,
      "Ġreliable": 7491,
      "Ġregistration": 7492,
      "ĠChicago": 7493,
      "ker": 7494,
      "Ġcovers": 7495,
      "ĠParticip": 7496,
      "Ġfiled": 7497,
      "Ġ58": 7498,
      "ĠKey": 7499,
      "Go": 7500,
      "ican": 7501,
      "Ġdeaths": 7502,
      "andemic": 7503,
      "Ġupdate": 7504,
      "Ġdecreased": 7505,
      "ĠTim": 7506,
      "Ġmaps": 7507,
      "stone": 7508,
      "ĠColl": 7509,
      "Ġtrends": 7510,
      "ECTION": 7511,
      "prise": 7512,
      "Ġorders": 7513,
      "irus": 7514,
      "Ġincent": 7515,
      "Ġplayers": 7516,
      "Ġmarine": 7517,
      "ĠOrganization": 7518,
      "ĠEarly": 7519,
      "Ġintake": 7520,
      "Ġroute": 7521,
      "Ġexamined": 7522,
      "Ġabsorb": 7523,
      "Ġgrid": 7524,
      "Ġcommunicate": 7525,
      "III": 7526,
      "Ġstars": 7527,
      "Ġpreced": 7528,
      "ĠCarolina": 7529,
      "lder": 7530,
      "Ġtips": 7531,
      "DC": 7532,
      "ĠPur": 7533,
      "ĠRichard": 7534,
      "ĠFinally": 7535,
      "Ġcapture": 7536,
      "ĠNY": 7537,
      "Source": 7538,
      "Ġmagnetic": 7539,
      "LY": 7540,
      "ĠEc": 7541,
      "ĠMrs": 7542,
      "ĠRest": 7543,
      "Ġrig": 7544,
      "onia": 7545,
      "Ġdust": 7546,
      "Ġincl": 7547,
      "Ġstret": 7548,
      "olving": 7549,
      "ĠSH": 7550,
      "ĠHy": 7551,
      "Ġindustries": 7552,
      "Ġrelief": 7553,
      "icing": 7554,
      "ĠOrd": 7555,
      "Ġ1970": 7556,
      "?\"": 7557,
      "elled": 7558,
      "ĠMaster": 7559,
      "ACT": 7560,
      "ĠConstitution": 7561,
      "Ġdebate": 7562,
      "usal": 7563,
      "Ġconcentrations": 7564,
      "Ġhouses": 7565,
      "obe": 7566,
      "Dep": 7567,
      "Ġgall": 7568,
      "Ġcamera": 7569,
      "Ġreaders": 7570,
      "Ġparameter": 7571,
      "Ġstakeholders": 7572,
      "Ġinterpre": 7573,
      "ĠDu": 7574,
      "Ġmedication": 7575,
      "Ġflight": 7576,
      "Ġoriginally": 7577,
      "ĠPot": 7578,
      "Ġnutrients": 7579,
      "ĠÙ": 7580,
      "Ġ72": 7581,
      "Ġhundreds": 7582,
      "Ġstrict": 7583,
      "Section": 7584,
      "cdot": 7585,
      "ĠPop": 7586,
      "ĠGal": 7587,
      "Ġaims": 7588,
      "Ġtransactions": 7589,
      "Ġincident": 7590,
      "BI": 7591,
      "ĠItaly": 7592,
      "Cons": 7593,
      "Ġfract": 7594,
      "ĠSov": 7595,
      "otes": 7596,
      "valuation": 7597,
      "ĠRisk": 7598,
      "Ġdisability": 7599,
      "Ġassumed": 7600,
      "Ġaw": 7601,
      "ĠPo": 7602,
      "Ġends": 7603,
      "ĠAdditionally": 7604,
      "Ġprox": 7605,
      "Ġarmy": 7606,
      "mann": 7607,
      "ĠBased": 7608,
      "ĠPoint": 7609,
      "irt": 7610,
      "Ġensuring": 7611,
      "Ġinjuries": 7612,
      "OV": 7613,
      "ĠMartin": 7614,
      "ĠPaper": 7615,
      "ailing": 7616,
      "erk": 7617,
      "fe": 7618,
      "ocracy": 7619,
      "partial": 7620,
      "vity": 7621,
      "Ġnan": 7622,
      "ĠCancer": 7623,
      "Ġ1991": 7624,
      "Ġcars": 7625,
      "Ġroof": 7626,
      "class": 7627,
      "Ġvulnerable": 7628,
      "Ñģ": 7629,
      "Ġcontracts": 7630,
      "ĠLit": 7631,
      "Ps": 7632,
      "ĠScot": 7633,
      "Ġchallenging": 7634,
      "Ġworldwide": 7635,
      "Ġcharged": 7636,
      "Ġexpectations": 7637,
      "ĠJohnson": 7638,
      "Ġprofile": 7639,
      "ĠSimilar": 7640,
      "Ġlect": 7641,
      "Ġ99": 7642,
      "Ġopposite": 7643,
      "Ġtrip": 7644,
      "Ġdrain": 7645,
      "Ġdetermining": 7646,
      "weight": 7647,
      "ousing": 7648,
      "ĠIncre": 7649,
      "ĠAI": 7650,
      "Ġban": 7651,
      "SD": 7652,
      "Ġcolour": 7653,
      "rine": 7654,
      "Ġingred": 7655,
      "AGE": 7656,
      "Ġpull": 7657,
      "Ġencouraged": 7658,
      "Ġraw": 7659,
      "Ġdollars": 7660,
      "Ġcenturies": 7661,
      "ĠLic": 7662,
      "ĠSunday": 7663,
      "Ġextend": 7664,
      "Ġconj": 7665,
      "ĠMel": 7666,
      "aints": 7667,
      "asters": 7668,
      "ĠDou": 7669,
      "Ġneither": 7670,
      "holder": 7671,
      "Ġaccident": 7672,
      "ĠCard": 7673,
      "Ġexception": 7674,
      "amber": 7675,
      "eps": 7676,
      "Ġduties": 7677,
      "Ġbutton": 7678,
      "ĠGrant": 7679,
      "isting": 7680,
      "vant": 7681,
      "ashion": 7682,
      "Ġ\\),": 7683,
      "ĠCell": 7684,
      "Ġpenal": 7685,
      "ION": 7686,
      "Ġdim": 7687,
      "Ġclub": 7688,
      "osh": 7689,
      "Ġdrawn": 7690,
      "tty": 7691,
      "xture": 7692,
      "ĠGuid": 7693,
      "heast": 7694,
      "esh": 7695,
      "ura": 7696,
      "Ġassessed": 7697,
      "Ġmonthly": 7698,
      "Ġtruly": 7699,
      "Ġultimately": 7700,
      "Ġsought": 7701,
      "Ġcomputers": 7702,
      "MR": 7703,
      "Ġlaun": 7704,
      "eries": 7705,
      "EAR": 7706,
      "Ġcouncil": 7707,
      "IGH": 7708,
      "Ġbrown": 7709,
      "Ġid": 7710,
      "Ġresponsibilities": 7711,
      "Ġdates": 7712,
      "Ġfabric": 7713,
      "Ġnaturally": 7714,
      "rons": 7715,
      "Ġcritic": 7716,
      "Pe": 7717,
      "ayer": 7718,
      "ĠEnter": 7719,
      "Ġanc": 7720,
      "Ġvel": 7721,
      "Ġsuffer": 7722,
      "Ġpsychological": 7723,
      "first": 7724,
      "delta": 7725,
      "Ġfewer": 7726,
      "ortion": 7727,
      "ĠTV": 7728,
      "Ġsegment": 7729,
      "Ġgreatly": 7730,
      "Ġmuscles": 7731,
      "Ġmillions": 7732,
      "ether": 7733,
      "pet": 7734,
      "Ġhus": 7735,
      "rat": 7736,
      "Ġmechanical": 7737,
      "Ġbroken": 7738,
      "2004": 7739,
      "Ġhorse": 7740,
      "Ġexplicit": 7741,
      "2021": 7742,
      "ĠConnect": 7743,
      "ads": 7744,
      "ĠYoung": 7745,
      "Ġexecutive": 7746,
      "Ġapplies": 7747,
      "American": 7748,
      "Ġahead": 7749,
      "ĠThree": 7750,
      "inction": 7751,
      "Ġpermission": 7752,
      "Ġshell": 7753,
      "Ġmessages": 7754,
      "pled": 7755,
      "Ġq": 7756,
      "Ġtank": 7757,
      "Ġlimitations": 7758,
      "Ġaren": 7759,
      "sm": 7760,
      "Ġtemporary": 7761,
      "Ġpictures": 7762,
      "Ġ63": 7763,
      "iratory": 7764,
      "Ġannounced": 7765,
      "Ġobligations": 7766,
      "ĠSand": 7767,
      "?âĢĿ": 7768,
      "CON": 7769,
      "ĠLimited": 7770,
      "Ġtransp": 7771,
      "Ġflo": 7772,
      "Ġbehaviors": 7773,
      "utch": 7774,
      "orous": 7775,
      "Ġ59": 7776,
      "Ġvictims": 7777,
      "Ġdose": 7778,
      "ĠNASA": 7779,
      "Ġdisturb": 7780,
      "riv": 7781,
      "ĠTeam": 7782,
      "Ġdiscrimination": 7783,
      "FA": 7784,
      "Ġshut": 7785,
      "Ġangle": 7786,
      "Ġreader": 7787,
      "NS": 7788,
      "Read": 7789,
      "ĠJo": 7790,
      "ears": 7791,
      "ocated": 7792,
      "Ġmissing": 7793,
      "ĠHoly": 7794,
      "}_{": 7795,
      "Ġclassification": 7796,
      "Ġcourts": 7797,
      "Ġ66": 7798,
      "Ġrul": 7799,
      "rance": 7800,
      "Ġfruits": 7801,
      "emia": 7802,
      "ĠRegional": 7803,
      "Ġwildlife": 7804,
      "Ġhunt": 7805,
      "Ġfacilitate": 7806,
      "ĠPass": 7807,
      "sen": 7808,
      "Ġcomply": 7809,
      "Ġveter": 7810,
      "Ġ250": 7811,
      "Ġregister": 7812,
      "ths": 7813,
      "Ġreb": 7814,
      "Ġidentifying": 7815,
      "pan": 7816,
      "Car": 7817,
      "Ġmedications": 7818,
      "ĠRoyal": 7819,
      "Ġpupils": 7820,
      "Ġmeth": 7821,
      "Ġdream": 7822,
      "ao": 7823,
      "ĠâĪĴ": 7824,
      "ateral": 7825,
      "specific": 7826,
      "Ġreturns": 7827,
      "Ġcart": 7828,
      "urd": 7829,
      "Ġdental": 7830,
      "ĠApplication": 7831,
      "ĠPolit": 7832,
      "ĠClimate": 7833,
      "Ġautomatically": 7834,
      "mega": 7835,
      "ĠStart": 7836,
      "Ġblog": 7837,
      "Ġplot": 7838,
      "ione": 7839,
      "esity": 7840,
      "ĠCase": 7841,
      "ĠVictor": 7842,
      "Ġjudgment": 7843,
      "UP": 7844,
      "Ġparking": 7845,
      "ĠFort": 7846,
      "ropical": 7847,
      "ĠBack": 7848,
      "Ġsucceed": 7849,
      "imensional": 7850,
      "ostic": 7851,
      "Ġspons": 7852,
      "Ġinfected": 7853,
      "ĠAbout": 7854,
      "Ġintensity": 7855,
      "ĠSat": 7856,
      "Ġserving": 7857,
      "ĠYet": 7858,
      "everal": 7859,
      "Ġcompounds": 7860,
      "Ġthreshold": 7861,
      "Ġinner": 7862,
      "Ġcryst": 7863,
      "Ġobservation": 7864,
      "Ġallerg": 7865,
      "ĠPractice": 7866,
      "ĠPriv": 7867,
      "ICE": 7868,
      "ĠNS": 7869,
      "Ġdetected": 7870,
      "cm": 7871,
      "rho": 7872,
      "dden": 7873,
      "ĠBrazil": 7874,
      "ĠIntroduction": 7875,
      "ĠFair": 7876,
      "Ġspectrum": 7877,
      "Ġfertil": 7878,
      "Ġowned": 7879,
      "Ġchrom": 7880,
      "Ġmortality": 7881,
      "ĠBul": 7882,
      "Ġble": 7883,
      "----|": 7884,
      "Ġphotograph": 7885,
      "âĪ": 7886,
      "how": 7887,
      "Ġacquired": 7888,
      "ĠDisease": 7889,
      "ĠInteg": 7890,
      "Ġchildhood": 7891,
      "Ġalle": 7892,
      "aska": 7893,
      "ĠParent": 7894,
      "Ġalign": 7895,
      "etry": 7896,
      "ĠOxford": 7897,
      "Ġcultures": 7898,
      "Ġsettlement": 7899,
      "Ġamended": 7900,
      "Ġrespondents": 7901,
      "Ġconsolid": 7902,
      "ĠCambridge": 7903,
      "Can": 7904,
      "Ġreplacement": 7905,
      "Ġscreening": 7906,
      "Ġdecade": 7907,
      "INE": 7908,
      "effect": 7909,
      "Ġnewsp": 7910,
      "Ġfirms": 7911,
      "Ġapplying": 7912,
      "Ġseeing": 7913,
      "Ġcoe": 7914,
      "PM": 7915,
      "Ġcutting": 7916,
      "Ġlifest": 7917,
      "log": 7918,
      "Ġborrow": 7919,
      "Ġdeclared": 7920,
      "gency": 7921,
      "Ġsummar": 7922,
      "ĠCrit": 7923,
      "Ġmachines": 7924,
      "oids": 7925,
      "ĠTitle": 7926,
      "ĠDocu": 7927,
      "Ġstre": 7928,
      "atively": 7929,
      "Ġthorough": 7930,
      "Ġ62": 7931,
      "Ġcloser": 7932,
      "Ġera": 7933,
      "ivities": 7934,
      "Ġvoc": 7935,
      "ludes": 7936,
      "Ġwalking": 7937,
      "ĠEss": 7938,
      "Ġdrawing": 7939,
      "Tra": 7940,
      "ĠBE": 7941,
      "Ġmice": 7942,
      "LO": 7943,
      "Ġhab": 7944,
      "ĠRock": 7945,
      "Ġcolors": 7946,
      "Ġformula": 7947,
      "'.": 7948,
      "Ġownership": 7949,
      "Ġinitiatives": 7950,
      "print": 7951,
      "ĠBudd": 7952,
      "Ġapplicant": 7953,
      "Ġoccasion": 7954,
      "Ġruns": 7955,
      "ishment": 7956,
      "disc": 7957,
      "Ġworse": 7958,
      "ĠKar": 7959,
      "kes": 7960,
      "ordination": 7961,
      "itter": 7962,
      "Ġadoles": 7963,
      "Ġbiom": 7964,
      "Ġath": 7965,
      "Ġremark": 7966,
      "icon": 7967,
      "rooms": 7968,
      "Ġstick": 7969,
      "aintiff": 7970,
      "ĠLight": 7971,
      "Ġlayers": 7972,
      "inson": 7973,
      "ĠLog": 7974,
      "ooking": 7975,
      "Ġelected": 7976,
      "Ġcenters": 7977,
      "Ref": 7978,
      "Ġrational": 7979,
      "Ġfourth": 7980,
      "Ġarms": 7981,
      "ĠKingdom": 7982,
      "Ġfix": 7983,
      "Ġstatistical": 7984,
      "Ġproduces": 7985,
      "Ġmining": 7986,
      "ĠCoast": 7987,
      "ussion": 7988,
      "Ġobl": 7989,
      "Ġmarried": 7990,
      "Ġlabour": 7991,
      "Ġcolleagues": 7992,
      "ĠFact": 7993,
      "Ġring": 7994,
      "Ġphilosophy": 7995,
      "$$\\": 7996,
      "Ġcandidate": 7997,
      "ĠTimes": 7998,
      "Ġsessions": 7999,
      "ĠStatement": 8000,
      "Ġstudying": 8001,
      "ldots": 8002,
      "Ġdiagram": 8003,
      "Ġrestrictions": 8004,
      "Ġgal": 8005,
      "ĠComputer": 8006,
      "Ġdefect": 8007,
      "Ġstring": 8008,
      "omega": 8009,
      "Ġsudden": 8010,
      "Ġdil": 8011,
      "Ġcontamin": 8012,
      "Ġstands": 8013,
      "obile": 8014,
      "ĠForce": 8015,
      "PC": 8016,
      "Ġindirect": 8017,
      "isco": 8018,
      "otion": 8019,
      "Ġoptimal": 8020,
      "var": 8021,
      "ĠBox": 8022,
      "ĠOcean": 8023,
      "Ġforecast": 8024,
      "TIC": 8025,
      "Ġ61": 8026,
      "ATIONS": 8027,
      "osion": 8028,
      "icity": 8029,
      "Ġretail": 8030,
      "plant": 8031,
      "posed": 8032,
      "eping": 8033,
      "Ġdriver": 8034,
      "missions": 8035,
      "Ġmembership": 8036,
      "criptions": 8037,
      "ups": 8038,
      ".|": 8039,
      "600": 8040,
      "athe": 8041,
      "ĠCreat": 8042,
      "sup": 8043,
      "Ġmassive": 8044,
      "Ġ@": 8045,
      "Ġarrest": 8046,
      "Ġ67": 8047,
      "ĠMen": 8048,
      "door": 8049,
      "2003": 8050,
      "Ġfu": 8051,
      "Ġneighborhood": 8052,
      "Ġboundary": 8053,
      "Ġloans": 8054,
      "THE": 8055,
      "uan": 8056,
      "Ġconcluded": 8057,
      "ĠGet": 8058,
      "eper": 8059,
      "Ġstruggle": 8060,
      "ontal": 8061,
      "Ġlearners": 8062,
      "Ġfold": 8063,
      "ĠRule": 8064,
      "ĠHave": 8065,
      "ĠAngel": 8066,
      "Ġguard": 8067,
      "Ġgone": 8068,
      "Ġclassified": 8069,
      "Ġdiameter": 8070,
      "Ġsurfaces": 8071,
      "Ġsight": 8072,
      "Ġassert": 8073,
      "Ġpolitics": 8074,
      "inks": 8075,
      "ĠâĤ": 8076,
      "ĠAdvis": 8077,
      "ĠNut": 8078,
      "anes": 8079,
      "ĠSeries": 8080,
      "Ġ}": 8081,
      "Ġintellectual": 8082,
      "Ġpromin": 8083,
      "opic": 8084,
      "Ġjoined": 8085,
      "ctic": 8086,
      "erals": 8087,
      "venues": 8088,
      "Ġwhatever": 8089,
      "Ġturb": 8090,
      "Ġepid": 8091,
      "chen": 8092,
      "Ġcooperation": 8093,
      "Ġstations": 8094,
      "ĠTri": 8095,
      "Ġsensor": 8096,
      "abul": 8097,
      ".).": 8098,
      "after": 8099,
      "Ġmamm": 8100,
      "Ġevaluated": 8101,
      "Ġbeliefs": 8102,
      "ĠSE": 8103,
      "ĠEastern": 8104,
      "hist": 8105,
      "Ġutility": 8106,
      "Ġhence": 8107,
      "Ġblocks": 8108,
      "ugh": 8109,
      "Ġbuff": 8110,
      "ĠPlace": 8111,
      "achment": 8112,
      "Ġhouseholds": 8113,
      "ĠIC": 8114,
      "Ġinvolvement": 8115,
      "Ġforests": 8116,
      "Ġâĸ": 8117,
      "Ġrequests": 8118,
      "Ġcandidates": 8119,
      "ĠSupreme": 8120,
      "Ġcompetitive": 8121,
      "Ġhydrogen": 8122,
      "Ġsmoking": 8123,
      "Ġcontinuing": 8124,
      "Ġthr": 8125,
      "Ġlaunch": 8126,
      "Ġversus": 8127,
      "Ġwaves": 8128,
      "Ġdetermination": 8129,
      "à¤¿": 8130,
      "Ġrelax": 8131,
      "Ġdiscussions": 8132,
      "ressive": 8133,
      "Ġrefuge": 8134,
      "ĠSD": 8135,
      "Ġborder": 8136,
      "ĠPen": 8137,
      "Ġdin": 8138,
      "folio": 8139,
      "TP": 8140,
      "Ġpandemic": 8141,
      "Ġreactions": 8142,
      "Ġexpense": 8143,
      "ĠFriday": 8144,
      "ĠAvailable": 8145,
      "ĠNA": 8146,
      "Ġsavings": 8147,
      "yles": 8148,
      "uous": 8149,
      "ĠAppendix": 8150,
      "Ġinterventions": 8151,
      "Ġseconds": 8152,
      "Ġsod": 8153,
      "ĠSpain": 8154,
      "ĠJul": 8155,
      "Ġacquisition": 8156,
      "cribe": 8157,
      "ĠAsian": 8158,
      "ĠCall": 8159,
      "Ã¨": 8160,
      "Ġharmful": 8161,
      "Ġwelfare": 8162,
      "Your": 8163,
      "TO": 8164,
      "Mar": 8165,
      "iah": 8166,
      "Ġwarrant": 8167,
      "Ġourselves": 8168,
      "$-": 8169,
      "Ġtight": 8170,
      "retion": 8171,
      ".-": 8172,
      "Ġpm": 8173,
      "ĠSoviet": 8174,
      "ĠâĨ": 8175,
      "Ġtables": 8176,
      "Ġrespective": 8177,
      "ometric": 8178,
      "esis": 8179,
      "occ": 8180,
      "ading": 8181,
      "uction": 8182,
      "atus": 8183,
      "ĠPerformance": 8184,
      "sim": 8185,
      "Ġ\\]": 8186,
      "ĠAmend": 8187,
      "âĢĺ": 8188,
      "UST": 8189,
      "ĠSmall": 8190,
      "Ġserves": 8191,
      "Ġphosph": 8192,
      "Ġproductivity": 8193,
      "ĠCreek": 8194,
      "tery": 8195,
      "Ġlies": 8196,
      "ĠFarm": 8197,
      "Ġmuseum": 8198,
      "Ġthanks": 8199,
      "Ġsampling": 8200,
      "gs": 8201,
      "inance": 8202,
      "Ġ1000": 8203,
      "Ġcorner": 8204,
      "health": 8205,
      "Ġmolecules": 8206,
      "ERV": 8207,
      "ĠZeal": 8208,
      "Ġfrequent": 8209,
      "oned": 8210,
      "Ġvessels": 8211,
      "Ġdriven": 8212,
      "ĠFinance": 8213,
      "Ġrecre": 8214,
      "Ġbridge": 8215,
      "Ġdocumentation": 8216,
      "Ġperforming": 8217,
      "John": 8218,
      "Ġchair": 8219,
      "Ġyounger": 8220,
      "ifer": 8221,
      "iana": 8222,
      "Ġindependence": 8223,
      "Ġreduces": 8224,
      "Ġsecurities": 8225,
      "Ġconsiderable": 8226,
      "ĠResults": 8227,
      "rem": 8228,
      "uh": 8229,
      "Ġfeeding": 8230,
      "ometry": 8231,
      "ĠSem": 8232,
      "orption": 8233,
      ".âĢĻ": 8234,
      "ĠBehav": 8235,
      "PE": 8236,
      "ĠManual": 8237,
      "Ġterritory": 8238,
      "illa": 8239,
      "night": 8240,
      "Ġsoldiers": 8241,
      "vals": 8242,
      "FC": 8243,
      "Ġinnovative": 8244,
      "Where": 8245,
      "Ġpassage": 8246,
      "ĠCommer": 8247,
      "Ġmarg": 8248,
      "Ġsustainability": 8249,
      "Ġinflammation": 8250,
      "Ġdemands": 8251,
      "ĠReal": 8252,
      "theless": 8253,
      "ĠĠĠĠĠĠĠĠĠĠĠĠĠĠĠĠĠĠĠĠĠĠĠĠĠĠĠĠĠĠĠĠĠĠĠ": 8254,
      "Ġscan": 8255,
      "Ġfiber": 8256,
      "Ġsensitivity": 8257,
      "Ġsubstit": 8258,
      "ĠWay": 8259,
      "rowth": 8260,
      "legal": 8261,
      "ecess": 8262,
      "ĠSar": 8263,
      "Ġholid": 8264,
      "Ġmarks": 8265,
      "Ġpretty": 8266,
      "ĠBefore": 8267,
      "Ġdischarge": 8268,
      "Ġinspection": 8269,
      "otype": 8270,
      "while": 8271,
      "Ġgluc": 8272,
      "Ġtells": 8273,
      "MI": 8274,
      "Ġcards": 8275,
      "ĠVan": 8276,
      "Ġpron": 8277,
      "ĠLess": 8278,
      "Ġinequ": 8279,
      "ĠArts": 8280,
      "ĠWall": 8281,
      "outs": 8282,
      "Ġrecover": 8283,
      "eut": 8284,
      "opyright": 8285,
      "Ġentities": 8286,
      "fish": 8287,
      "ĠZealand": 8288,
      "aturday": 8289,
      "--------|": 8290,
      "Ġboost": 8291,
      "aped": 8292,
      "Ġrely": 8293,
      "Ġfly": 8294,
      "hire": 8295,
      "Ġasking": 8296,
      "azine": 8297,
      "haust": 8298,
      "Ġbread": 8299,
      "Ġes": 8300,
      "Ġdealing": 8301,
      "oves": 8302,
      "Ġvector": 8303,
      "ĠRepresent": 8304,
      "Ġhistoric": 8305,
      "ĠSS": 8306,
      "DI": 8307,
      "Ġpra": 8308,
      "ĠLib": 8309,
      "Ġacids": 8310,
      "Ġsubstances": 8311,
      "Ġ68": 8312,
      "igate": 8313,
      "ANT": 8314,
      "Ġqualified": 8315,
      "Ġdaughter": 8316,
      "ĠSW": 8317,
      "ĠFace": 8318,
      "Ġtempor": 8319,
      "levision": 8320,
      "Ġadoption": 8321,
      "Ġ2024": 8322,
      "aming": 8323,
      "Spec": 8324,
      "Ġdifficulties": 8325,
      "Ġmolecular": 8326,
      "ĠBig": 8327,
      "Ġspatial": 8328,
      "Ġtube": 8329,
      "Ġbiod": 8330,
      "Ġsplit": 8331,
      "Ġquantity": 8332,
      "ilation": 8333,
      "sq": 8334,
      "ĠRegist": 8335,
      "Ġslowly": 8336,
      "Ġmountain": 8337,
      "Ġknows": 8338,
      "Ġdisabilities": 8339,
      "ĠĠĠĠĠĠĠĠĠĠĠĠĠĠĠĠĠĠĠĠĠĠĠĠĠĠĠĠĠĠĠĠĠĠĠĠ": 8340,
      "Ġantibiot": 8341,
      "ĠMarket": 8342,
      "Ġvertical": 8343,
      "Ġestate": 8344,
      "Ġacute": 8345,
      "ĠTom": 8346,
      "Ġcos": 8347,
      "anches": 8348,
      "Ġscript": 8349,
      "ĠKen": 8350,
      "Ġtheories": 8351,
      "Ġmaxim": 8352,
      "Ġfocuses": 8353,
      "Ġdoctors": 8354,
      "Ġnucle": 8355,
      "Ġregardless": 8356,
      "ĠOwn": 8357,
      "ĠBureau": 8358,
      "gener": 8359,
      "iological": 8360,
      "sem": 8361,
      "Ġuniverse": 8362,
      "ĠCustom": 8363,
      "ourage": 8364,
      "ĠMath": 8365,
      "ba": 8366,
      "ĠPrim": 8367,
      "ĠOl": 8368,
      "æľ": 8369,
      "Ġthermal": 8370,
      "wing": 8371,
      "Ġordinary": 8372,
      "ifier": 8373,
      "rity": 8374,
      "Ġastron": 8375,
      "ĠSite": 8376,
      "Aut": 8377,
      "ĠMs": 8378,
      "Ġexpertise": 8379,
      "Ġliabilities": 8380,
      "icious": 8381,
      "Ġemphasis": 8382,
      "Ġturns": 8383,
      "ĠConstruction": 8384,
      "Ġinitially": 8385,
      "Ġestablishment": 8386,
      "Ġstrengthen": 8387,
      "Ġscene": 8388,
      "ĠLike": 8389,
      "Ġcorrelation": 8390,
      "Ġroads": 8391,
      "Ġinvestigate": 8392,
      "Ġobserve": 8393,
      "Ġsweet": 8394,
      "Ġfung": 8395,
      "Ġdevelopments": 8396,
      "acco": 8397,
      "Ġveloc": 8398,
      "GR": 8399,
      "olester": 8400,
      "Ġfunded": 8401,
      "Ġcraft": 8402,
      "aning": 8403,
      "Ġfacing": 8404,
      "ented": 8405,
      "Ġkg": 8406,
      "Ġfer": 8407,
      "ĠOhio": 8408,
      "Ġmanaging": 8409,
      "ĠDoes": 8410,
      "ĠÂ·": 8411,
      "Trans": 8412,
      "Ġunion": 8413,
      "Ġneur": 8414,
      "Ġdated": 8415,
      "ĠConc": 8416,
      "eller": 8417,
      "ĠBY": 8418,
      "Ġsomewhat": 8419,
      "Ġbrings": 8420,
      "Ġacknowled": 8421,
      "Ġconfiguration": 8422,
      "ĠISBN": 8423,
      "ĠZh": 8424,
      "Os": 8425,
      "ĠFull": 8426,
      "Ġanalyzed": 8427,
      "ĠDown": 8428,
      "ĠOnline": 8429,
      "Ġwait": 8430,
      "Ġcomplexity": 8431,
      "fty": 8432,
      "Ġprinted": 8433,
      "General": 8434,
      "Ġtub": 8435,
      "Ġ\\(\\": 8436,
      "Ġpreferred": 8437,
      "ĠPresent": 8438,
      "Ġagreements": 8439,
      "ĠWed": 8440,
      "IDS": 8441,
      "isp": 8442,
      "enger": 8443,
      "Ġrising": 8444,
      "irds": 8445,
      "soft": 8446,
      "Ġemotions": 8447,
      "Ġarrived": 8448,
      "Ġflag": 8449,
      "ĠÏ": 8450,
      "Ġmanip": 8451,
      "ĠSwed": 8452,
      "Ġflav": 8453,
      "====": 8454,
      "Ġunus": 8455,
      "ĠConservation": 8456,
      "Ġpackage": 8457,
      "Ġsurvive": 8458,
      "Ġlock": 8459,
      "Ġdefense": 8460,
      "Ġdisplayed": 8461,
      "Ġperceived": 8462,
      "ĠPH": 8463,
      "Ġcovering": 8464,
      "Ġtheoretical": 8465,
      "ĠColumbia": 8466,
      "itely": 8467,
      "ĠES": 8468,
      "Ġdimensions": 8469,
      "Ġlaunched": 8470,
      "ĠWord": 8471,
      "Ġcopies": 8472,
      "Ð¾Ð": 8473,
      "ĠAddress": 8474,
      "Ġ1960": 8475,
      "Ġcomposed": 8476,
      "Ġmodule": 8477,
      "ĠEPA": 8478,
      "Ġmigration": 8479,
      "ĠTechnical": 8480,
      "Ġinfluenced": 8481,
      "Ġ1989": 8482,
      "Ġlie": 8483,
      "Ġtransferred": 8484,
      "called": 8485,
      "Ġcleaning": 8486,
      "Act": 8487,
      "Ġhandling": 8488,
      "Ġmanagers": 8489,
      "eness": 8490,
      "Ġrequiring": 8491,
      "ĠBenef": 8492,
      ".'": 8493,
      "ĠJac": 8494,
      "Ġartificial": 8495,
      "2001": 8496,
      "Ġsimult": 8497,
      "orted": 8498,
      "Ġcapabilities": 8499,
      "Ġimpair": 8500,
      "Ġappointment": 8501,
      "ĠDigital": 8502,
      "FS": 8503,
      "arding": 8504,
      "aneously": 8505,
      "box": 8506,
      "Ġarbit": 8507,
      "achers": 8508,
      "ĠTrade": 8509,
      "Ġsew": 8510,
      "Ġcorn": 8511,
      "ĠAPP": 8512,
      "à®": 8513,
      "Ġpurchased": 8514,
      "Lear": 8515,
      "mediate": 8516,
      "ĠAB": 8517,
      "zer": 8518,
      "play": 8519,
      "Ġrobust": 8520,
      "oul": 8521,
      "Ġtheme": 8522,
      "Ġtranslation": 8523,
      "Ġcontributed": 8524,
      "Ġintention": 8525,
      "Ġthereby": 8526,
      "ĠShare": 8527,
      "Ġtick": 8528,
      "Ġadopt": 8529,
      "Ġassumptions": 8530,
      "Ġinitiative": 8531,
      "Ġmild": 8532,
      "ĠSpirit": 8533,
      "Ġstead": 8534,
      "ĠEL": 8535,
      "ĠConvention": 8536,
      "ĠWorking": 8537,
      "UND": 8538,
      "Ġhole": 8539,
      "rovers": 8540,
      "ials": 8541,
      "Ġrepresentatives": 8542,
      "ĠPak": 8543,
      "Ġrestricted": 8544,
      "mathbf": 8545,
      "Ġtexts": 8546,
      "Ġlowest": 8547,
      "Ġhardware": 8548,
      "Ġchannels": 8549,
      "Ġplayer": 8550,
      "Ġassessments": 8551,
      "chi": 8552,
      "umps": 8553,
      "Ġacceptable": 8554,
      "Ġoperator": 8555,
      "duction": 8556,
      "ĺĲ": 8557,
      "Ġtransaction": 8558,
      "Ġ110": 8559,
      "Ġnewly": 8560,
      "olesterol": 8561,
      "Ġrepresenting": 8562,
      "reprene": 8563,
      "Ġequally": 8564,
      "Ġscheduled": 8565,
      "ĠHor": 8566,
      "Ġancest": 8567,
      "fortunately": 8568,
      "ĠMach": 8569,
      "ĠBab": 8570,
      "Ġcharacterized": 8571,
      "Sm": 8572,
      "ĠWho": 8573,
      "Def": 8574,
      "ursday": 8575,
      "2002": 8576,
      "Ġreceipt": 8577,
      "Ġattempts": 8578,
      "ĠStock": 8579,
      "Ġ77": 8580,
      "ĠHa": 8581,
      "Yes": 8582,
      "Ġthy": 8583,
      "Ġcontemporary": 8584,
      "Ġforg": 8585,
      "Ġsectors": 8586,
      "ĠFil": 8587,
      "ĠMid": 8588,
      "Ġdesigns": 8589,
      "arters": 8590,
      "Ġ(\\": 8591,
      "ĠProm": 8592,
      "abeth": 8593,
      "Ġcoffee": 8594,
      "Ġbranch": 8595,
      "ĠLiter": 8596,
      "type": 8597,
      "Ġmunicipal": 8598,
      "Pub": 8599,
      "Ġrecon": 8600,
      "Ġcurve": 8601,
      "ĠHon": 8602,
      "Ġshock": 8603,
      "Ġ97": 8604,
      "'d": 8605,
      "hyd": 8606,
      "ĠBlue": 8607,
      "ĠCompl": 8608,
      "Ġordered": 8609,
      "Ġsizes": 8610,
      "State": 8611,
      "Ġwithdraw": 8612,
      "amination": 8613,
      "oting": 8614,
      "riend": 8615,
      "Ġboundaries": 8616,
      "Under": 8617,
      "Ġmeasuring": 8618,
      "ocket": 8619,
      "Ġ~": 8620,
      "Ġgraduate": 8621,
      "ĠRen": 8622,
      "ymph": 8623,
      "nu": 8624,
      "Ġoverview": 8625,
      "har": 8626,
      "ounter": 8627,
      "Ġprescribed": 8628,
      "Ġ69": 8629,
      "ĠStation": 8630,
      "nex": 8631,
      "ady": 8632,
      "Ġspin": 8633,
      "Ġconcl": 8634,
      "ĠAvenue": 8635,
      "Ġintroduce": 8636,
      "ĠTheory": 8637,
      "Ġscenario": 8638,
      "Ġcoastal": 8639,
      "oston": 8640,
      "Ġauthent": 8641,
      "estions": 8642,
      "ĠWil": 8643,
      "Ġbiggest": 8644,
      "ĠItalian": 8645,
      "ĠValue": 8646,
      "Ac": 8647,
      "ðĿ": 8648,
      "ĠNever": 8649,
      "ĠTake": 8650,
      "lete": 8651,
      "Ġgrew": 8652,
      "ori": 8653,
      "Ġimplementing": 8654,
      "gression": 8655,
      "Ġarts": 8656,
      "ĠMonday": 8657,
      "Ġsimulation": 8658,
      "}(\\": 8659,
      ".),": 8660,
      "Ġarrangements": 8661,
      "Ġfinance": 8662,
      "wan": 8663,
      "Ġamaz": 8664,
      "Ġadvantages": 8665,
      "HD": 8666,
      "ĠSoft": 8667,
      "Ġvisitors": 8668,
      "ĠJeff": 8669,
      "ibration": 8670,
      "ĠProp": 8671,
      "Ġachievement": 8672,
      "Ġcurrency": 8673,
      "uts": 8674,
      "ĊĊĠĠ": 8675,
      "Ġhospit": 8676,
      "Mod": 8677,
      "Ġmic": 8678,
      "Ġproved": 8679,
      "Ġ600": 8680,
      "Name": 8681,
      "ude": 8682,
      "Ġ]": 8683,
      "Ġdatas": 8684,
      "Ġconversation": 8685,
      "Ġemerging": 8686,
      "ĠEp": 8687,
      "Ġswim": 8688,
      "Ġplane": 8689,
      "ĠSym": 8690,
      "ogether": 8691,
      "ĠMur": 8692,
      "Ġwriter": 8693,
      "Ġbringing": 8694,
      "Key": 8695,
      "Ġdynamics": 8696,
      "Ġexercises": 8697,
      "ĠAmong": 8698,
      "Ġaged": 8699,
      "Ġincorporated": 8700,
      "Ġmetabol": 8701,
      "oving": 8702,
      "Ġtot": 8703,
      "Ġheating": 8704,
      "Ġuniversal": 8705,
      "ati": 8706,
      "Ġgovernance": 8707,
      "onym": 8708,
      "Ġmerely": 8709,
      "IB": 8710,
      "Ġindicators": 8711,
      "Ġparticipating": 8712,
      "Ġ$(": 8713,
      "lvan": 8714,
      "lines": 8715,
      "Ġenables": 8716,
      "erred": 8717,
      "Ġaffecting": 8718,
      "Ġputting": 8719,
      "Ġlisten": 8720,
      "Eng": 8721,
      "ĠGar": 8722,
      "ĠProperty": 8723,
      "Ġannually": 8724,
      "Gu": 8725,
      "Ġusual": 8726,
      "She": 8727,
      "Ġcable": 8728,
      "Ġalgorithms": 8729,
      "Ġdeemed": 8730,
      "oz": 8731,
      "ĠDIS": 8732,
      "Ġoutstanding": 8733,
      "Ġaband": 8734,
      "Ġdestroyed": 8735,
      "inated": 8736,
      "you": 8737,
      "Ġwarming": 8738,
      "ĠCast": 8739,
      "Ġsmoke": 8740,
      "Ġrenewable": 8741,
      "Ġdiffer": 8742,
      "Ġaddresses": 8743,
      "agon": 8744,
      "Ġ;": 8745,
      "ĠÂ°": 8746,
      "Ġhusband": 8747,
      "omach": 8748,
      "Ġshot": 8749,
      "Ġcontents": 8750,
      "yth": 8751,
      "commun": 8752,
      "ĠObs": 8753,
      "Ġpassing": 8754,
      "Ġlip": 8755,
      "hma": 8756,
      "LS": 8757,
      "omatic": 8758,
      "izational": 8759,
      "Ġmeal": 8760,
      "ĠRome": 8761,
      ")**": 8762,
      "ushed": 8763,
      "Ġlifestyle": 8764,
      "Ġfemales": 8765,
      "Ġacres": 8766,
      "rox": 8767,
      "Ġgrounds": 8768,
      "onald": 8769,
      "Ġnumer": 8770,
      "Ag": 8771,
      "ĠREP": 8772,
      "Ġperception": 8773,
      "Ġinstitutional": 8774,
      "ĠHence": 8775,
      "grade": 8776,
      "real": 8777,
      "Ġproven": 8778,
      "Ġconsultation": 8779,
      "Ġsky": 8780,
      "sts": 8781,
      "Ġagenda": 8782,
      "ĠUnivers": 8783,
      "Ġhem": 8784,
      "rt": 8785,
      "Ġexecution": 8786,
      "Ġaimed": 8787,
      "gers": 8788,
      "Ġease": 8789,
      "heric": 8790,
      "Ġpolar": 8791,
      "ĠNone": 8792,
      "Ġthesis": 8793,
      "ĠCOMM": 8794,
      "Ġmales": 8795,
      "Ġcampus": 8796,
      "ictionary": 8797,
      "ĠNeed": 8798,
      "Ġorganisation": 8799,
      "airy": 8800,
      "Ġeastern": 8801,
      "Ġcab": 8802,
      "nesday": 8803,
      "ĠHim": 8804,
      "ĠIncome": 8805,
      "BT": 8806,
      "iral": 8807,
      "Ġtur": 8808,
      "Ġfossil": 8809,
      "Ġminute": 8810,
      "Ġadjacent": 8811,
      "Ġuncertainty": 8812,
      "ued": 8813,
      "Ġfasc": 8814,
      "urred": 8815,
      "Ġisolated": 8816,
      "Ġhypothesis": 8817,
      "uesday": 8818,
      "INT": 8819,
      "bed": 8820,
      "foot": 8821,
      "Ġ78": 8822,
      "Ġmedic": 8823,
      "Ġphoto": 8824,
      "LIC": 8825,
      "Ġfinished": 8826,
      "Ġsupposed": 8827,
      "ĠInsurance": 8828,
      "aired": 8829,
      "ĠpH": 8830,
      "Ġdamaged": 8831,
      "ĠReading": 8832,
      "Ġphysics": 8833,
      "PD": 8834,
      "ĠImprove": 8835,
      "Ġpin": 8836,
      "Ġcollective": 8837,
      "Ġreviews": 8838,
      "Ġfashion": 8839,
      "ĠFather": 8840,
      "Ġsport": 8841,
      "Ġ74": 8842,
      "asma": 8843,
      "esides": 8844,
      "ASE": 8845,
      "Ġfairly": 8846,
      "KS": 8847,
      "Ġassembly": 8848,
      "Ġbarriers": 8849,
      "Ms": 8850,
      "ĠDar": 8851,
      "Ġphysician": 8852,
      "ĠDrug": 8853,
      "Ġmetric": 8854,
      "Ġ73": 8855,
      "âĦ": 8856,
      "------------------|": 8857,
      "Ġchlor": 8858,
      "Ġsho": 8859,
      "Ġ76": 8860,
      "Ġorganisations": 8861,
      "words": 8862,
      "ĠMichigan": 8863,
      "Ġclaimed": 8864,
      "Ġopposed": 8865,
      "kg": 8866,
      "pass": 8867,
      "ĠMedia": 8868,
      "espread": 8869,
      "Ġseemed": 8870,
      "brane": 8871,
      "ĠPolice": 8872,
      "Ġmoisture": 8873,
      "Ġboys": 8874,
      "Ġfounded": 8875,
      "Ġbelieves": 8876,
      "Ġempt": 8877,
      "Ġnode": 8878,
      "Ġlists": 8879,
      "Ġjurisdiction": 8880,
      "Ġinclusion": 8881,
      "Ġmoon": 8882,
      "Ġbinding": 8883,
      "Bo": 8884,
      "ĠAst": 8885,
      "ĠLLC": 8886,
      "Ġmeters": 8887,
      "ABLE": 8888,
      "Ġunp": 8889,
      "ald": 8890,
      "isted": 8891,
      "Ġcust": 8892,
      "Ġsuit": 8893,
      "Ġstronger": 8894,
      "ansas": 8895,
      "etime": 8896,
      "Ġprivacy": 8897,
      "Ġ96": 8898,
      "opes": 8899,
      "ĠDue": 8900,
      "Ġgenerations": 8901,
      "ĠLA": 8902,
      "------|------|": 8903,
      "Ġhonor": 8904,
      "Ġdisaster": 8905,
      "Ġprocessed": 8906,
      "apse": 8907,
      "Ġmoderate": 8908,
      "Ġbones": 8909,
      "ĠSustain": 8910,
      "ĠAltern": 8911,
      "Ġdent": 8912,
      "Ġmathematics": 8913,
      "ĠĠĠĠĠĠĠĠĠĠĠĠĠĠĠĠĠĠĠĠĠĠĠĠĠĠĠĠĠĠĠĠĠĠĠĠĠĠĠ": 8914,
      "ĠRam": 8915,
      "Ġacting": 8916,
      "DUC": 8917,
      "Ġeditor": 8918,
      "Ġdys": 8919,
      "ĠMah": 8920,
      "sylvan": 8921,
      "Ġcalendar": 8922,
      "anger": 8923,
      "Ġburden": 8924,
      "economic": 8925,
      "150": 8926,
      "Ġreward": 8927,
      "inois": 8928,
      "Ġtargeted": 8929,
      "iments": 8930,
      "ĠOk": 8931,
      "ĠAssembly": 8932,
      "ĠConsider": 8933,
      "Ġfed": 8934,
      "ounded": 8935,
      "Sign": 8936,
      "oken": 8937,
      "ĠPed": 8938,
      "ighter": 8939,
      "ographical": 8940,
      "Ġguarantee": 8941,
      "Ġfraction": 8942,
      "ĠConsult": 8943,
      "Ġdanger": 8944,
      "Ġcorrectly": 8945,
      "Ġwider": 8946,
      "ĠAtlantic": 8947,
      "orrect": 8948,
      "PH": 8949,
      "UE": 8950,
      "Ġmoves": 8951,
      "Ġanalyze": 8952,
      "ĠFed": 8953,
      "ĠChristmas": 8954,
      "ceedings": 8955,
      "ĠRules": 8956,
      "Ġ98": 8957,
      "Ġoccurring": 8958,
      "Ġbonds": 8959,
      "secut": 8960,
      "Ġorganisms": 8961,
      "EEE": 8962,
      "sk": 8963,
      "Ġtu": 8964,
      "Ġft": 8965,
      "Ġdistricts": 8966,
      "FORM": 8967,
      "Ġvolunteers": 8968,
      "Ġru": 8969,
      "ĠNative": 8970,
      "Ġ1988": 8971,
      "ĠPeriod": 8972,
      "Ġtrading": 8973,
      "ĠParliament": 8974,
      "Ġmixture": 8975,
      "Ġcertificate": 8976,
      "ĠSelect": 8977,
      "Ġprotective": 8978,
      "Ġemployer": 8979,
      "Ġ................................................": 8980,
      "Ġbath": 8981,
      "anned": 8982,
      "250": 8983,
      "lights": 8984,
      "Ġton": 8985,
      "ĠFar": 8986,
      "Ġnom": 8987,
      "istically": 8988,
      "amine": 8989,
      "Ġphenomenon": 8990,
      "etics": 8991,
      "ĠFram": 8992,
      "ĠLast": 8993,
      "ĠMonitor": 8994,
      "Sim": 8995,
      "izabeth": 8996,
      "Ġmineral": 8997,
      "Ġcrow": 8998,
      "ĠWeek": 8999,
      "Ġsup": 9000,
      "icular": 9001,
      "Ġterror": 9002,
      "Ġneck": 9003,
      "Ġfishing": 9004,
      "Gl": 9005,
      "iler": 9006,
      "nab": 9007,
      "Ġbias": 9008,
      "iginal": 9009,
      "Ġwasn": 9010,
      "Ġflexible": 9011,
      "Ġhabits": 9012,
      "mented": 9013,
      "Ġarray": 9014,
      "Ġconstraints": 9015,
      "Ġhero": 9016,
      "Ġtransmit": 9017,
      "Ġnearby": 9018,
      "ĠObject": 9019,
      "uct": 9020,
      "Ġvariations": 9021,
      "Ġbot": 9022,
      "ĠPrevention": 9023,
      "ĠHousing": 9024,
      "ĠIL": 9025,
      "ĠFind": 9026,
      "FP": 9027,
      "Ġcup": 9028,
      "ĊĊ": 9029,
      "Ġcircle": 9030,
      "PER": 9031,
      "Ġ102": 9032,
      "Ġpromoting": 9033,
      "Supp": 9034,
      "ĠGree": 9035,
      "Ġrecording": 9036,
      "oln": 9037,
      "Ġfinds": 9038,
      "dep": 9039,
      "ĠUpd": 9040,
      "Ġequations": 9041,
      "ĠOcc": 9042,
      "ĠSummary": 9043,
      "ĠIrish": 9044,
      "rium": 9045,
      "Ġdirections": 9046,
      "Ġprogrammes": 9047,
      "Ġentering": 9048,
      "ensing": 9049,
      "Ġessentially": 9050,
      "Ġboy": 9051,
      "Ġstrain": 9052,
      "Ġyes": 9053,
      "this": 9054,
      "Ġcharacteristic": 9055,
      "Ġfalls": 9056,
      "Ġcalcium": 9057,
      "Ġembed": 9058,
      "à¥ĩ": 9059,
      "Ġtroops": 9060,
      "Ġnodes": 9061,
      "}$,": 9062,
      "Ġfighting": 9063,
      "Ġchem": 9064,
      "Ġviewed": 9065,
      "ĠView": 9066,
      "Net": 9067,
      "Ġexpanded": 9068,
      "Ġeveryday": 9069,
      "Ġreferences": 9070,
      "Add": 9071,
      "Ġpeer": 9072,
      "sylvania": 9073,
      "ĠClinical": 9074,
      "Ġconversion": 9075,
      "Ge": 9076,
      "etal": 9077,
      "opt": 9078,
      "ĠDam": 9079,
      "employment": 9080,
      "geq": 9081,
      "Ġ71": 9082,
      "etts": 9083,
      "person": 9084,
      "ĠGre": 9085,
      "ĠJr": 9086,
      "ĠLine": 9087,
      "Ġrespiratory": 9088,
      "Î±": 9089,
      "ĠSus": 9090,
      "Ġtiny": 9091,
      "Ġdegrad": 9092,
      "Step": 9093,
      "advant": 9094,
      "Ġobesity": 9095,
      "ĠDespite": 9096,
      "ASS": 9097,
      "ĠAgriculture": 9098,
      "Ġblow": 9099,
      "ogene": 9100,
      "Ġpartial": 9101,
      "ĠTreatment": 9102,
      "eld": 9103,
      "ĠEC": 9104,
      "ĠViet": 9105,
      "Ġeliminate": 9106,
      "Ġturning": 9107,
      "Ġdestruction": 9108,
      "IAL": 9109,
      "ishop": 9110,
      "Ġinstances": 9111,
      "ĠPerm": 9112,
      "Ġpilot": 9113,
      "Ġderiv": 9114,
      "ilson": 9115,
      "ĠRight": 9116,
      "Ġlaid": 9117,
      "Ġtut": 9118,
      "cap": 9119,
      "PRO": 9120,
      "Ġremind": 9121,
      "Ġorg": 9122,
      "ĠBooks": 9123,
      "Ġgard": 9124,
      "ITH": 9125,
      "Of": 9126,
      "ĠRevolution": 9127,
      "Ġtons": 9128,
      "ĠRelations": 9129,
      "Ø§ÙĦ": 9130,
      "Ġreflected": 9131,
      "Ġinspect": 9132,
      "ogram": 9133,
      "MO": 9134,
      "Ġcareful": 9135,
      "Ġgained": 9136,
      "Ġfaced": 9137,
      "iro": 9138,
      "Ġdiagnosed": 9139,
      "Ġtall": 9140,
      "Ġclothing": 9141,
      "Ne": 9142,
      "ĠHom": 9143,
      "abulary": 9144,
      "infty": 9145,
      "circ": 9146,
      "Ġwaiting": 9147,
      "ĠProced": 9148,
      "utation": 9149,
      "ĠPakistan": 9150,
      "begin": 9151,
      "Ġwidespread": 9152,
      "NO": 9153,
      "ĠAward": 9154,
      "Ġcaptured": 9155,
      "hyth": 9156,
      "neys": 9157,
      "rif": 9158,
      "aked": 9159,
      "worth": 9160,
      "Ġexcessive": 9161,
      "Ġapprove": 9162,
      "Ġalarm": 9163,
      "elihood": 9164,
      "Ġvoting": 9165,
      "Ġrealize": 9166,
      "quiry": 9167,
      "Ġawarded": 9168,
      "MT": 9169,
      "Ġarguments": 9170,
      "Ġexhaust": 9171,
      "Ġhereby": 9172,
      "ĠHyd": 9173,
      "alm": 9174,
      "Ġchick": 9175,
      "irth": 9176,
      "opl": 9177,
      "ĠHig": 9178,
      "Ġabstract": 9179,
      "ila": 9180,
      "Ġpropag": 9181,
      "Ġblind": 9182,
      "MD": 9183,
      "|---|---|---|---|": 9184,
      "Ġcomputing": 9185,
      "Ġ\\{": 9186,
      "Ġprivile": 9187,
      "Ġseparated": 9188,
      "Ġtea": 9189,
      "GA": 9190,
      "Ġclot": 9191,
      "Ġtechnological": 9192,
      "ften": 9193,
      "Ġsharp": 9194,
      "ĠPrior": 9195,
      "utory": 9196,
      "Ġresil": 9197,
      "Ġaudio": 9198,
      "cycl": 9199,
      "Ġhybrid": 9200,
      "Ġrice": 9201,
      "ĠGeorgia": 9202,
      "Ġgreenhouse": 9203,
      "Ġcalling": 9204,
      "Ġsurveys": 9205,
      "ĠKh": 9206,
      "Ġbreathing": 9207,
      "ema": 9208,
      "ibl": 9209,
      "ĠIndex": 9210,
      "Ġartists": 9211,
      "Ġpreventing": 9212,
      "Ġbreeding": 9213,
      "ona": 9214,
      "Ġethical": 9215,
      "Ġsystematic": 9216,
      "ranch": 9217,
      "Ġloved": 9218,
      "Ġnitrogen": 9219,
      "was": 9220,
      "Ġenhanced": 9221,
      "Ġcrew": 9222,
      "ĠCC": 9223,
      "ĠImpact": 9224,
      "Ġindicating": 9225,
      "ĠPhysical": 9226,
      "vol": 9227,
      "ï¬Ģ": 9228,
      "rus": 9229,
      "ĠSchools": 9230,
      "Ġ88": 9231,
      "Ġouter": 9232,
      "Ġcodes": 9233,
      "ĠAgain": 9234,
      "Ġinsects": 9235,
      "Ġpit": 9236,
      "ulates": 9237,
      "Ġworship": 9238,
      "Ġoutbre": 9239,
      "Ġ84": 9240,
      "artic": 9241,
      "Ġevening": 9242,
      "Ġgrants": 9243,
      "Once": 9244,
      "IES": 9245,
      "Ġstores": 9246,
      "Ġnerve": 9247,
      "ĠCat": 9248,
      "ĠNeg": 9249,
      "otton": 9250,
      "gent": 9251,
      "äº": 9252,
      "Ġdioxide": 9253,
      "Ġmethodology": 9254,
[...]
