{
  "version": "1.0",
  "truncation": null,
  "padding": null,
  "added_tokens": [
    {
      "id": 0,
      "content": "<|begin_of_text|>",
      "single_word": false,
      "lstrip": false,
      "rstrip": false,
      "normalized": false,
      "special": true
    },
    {
      "id": 1,
      "content": "<|end_of_text|>",
      "single_word": false,
      "lstrip": false,
      "rstrip": false,
      "normalized": false,
      "special": true
    },
    {
      "id": 2,
      "content": "<|im_start|>",
      "single_word": false,
      "lstrip": false,
      "rstrip": false,
      "normalized": false,
      "special": true
    },
    {
      "id": 3,
      "content": "<|im_end|>",
      "single_word": false,
      "lstrip": false,
      "rstrip": false,
      "normalized": false,
      "special": true
    }
  ],
  "normalizer": null,
  "pre_tokenizer": {
    "type": "ByteLevel",
    "add_prefix_space": false,
    "trim_offsets": true,
    "use_regex": true
  },
  "post_processor": null,
  "decoder": {
    "type": "ByteLevel",
    "add_prefix_space": true,
    "trim_offsets": true,
    "use_regex": true
  },
  "model": {
    "type": "BPE",
    "dropout": null,
    "unk_token": null,
    "continuing_subword_prefix": null,
    "end_of_word_suffix": null,
    "fuse_unk": false,
    "byte_fallback": false,
    "ignore_merges": false,
    "vocab": {
      "<|begin_of_text|>": 0,
      "<|end_of_text|>": 1,
      "<|im_start|>": 2,
      "<|im_end|>": 3,
      "!": 4,
      "\"": 5,
      "#": 6,
      "$": 7,
      "%": 8,
      "&": 9,
      "'": 10,
      "(": 11,
      ")": 12,
      "*": 13,
      "+": 14,
      ",": 15,
      "-": 16,
      ".": 17,
      "/": 18,
      "0": 19,
      "1": 20,
      "2": 21,
      "3": 22,
      "4": 23,
      "5": 24,
      "6": 25,
      "7": 26,
      "8": 27,
      "9": 28,
      ":": 29,
      ";": 30,
      "<": 31,
      "=": 32,
      ">": 33,
      "?": 34,
      "@": 35,
      "A": 36,
      "B": 37,
      "C": 38,
      "D": 39,
      "E": 40,
      "F": 41,
      "G": 42,
      "H": 43,
      "I": 44,
      "J": 45,
      "K": 46,
      "L": 47,
      "M": 48,
      "N": 49,
      "O": 50,
      "P": 51,
      "Q": 52,
      "R": 53,
      "S": 54,
      "T": 55,
      "U": 56,
      "V": 57,
      "W": 58,
      "X": 59,
      "Y": 60,
      "Z": 61,
      "[": 62,
      "\\": 63,
      "]": 64,
      "^": 65,
      "_": 66,
      "`": 67,
      "a": 68,
      "b": 69,
      "c": 70,
      "d": 71,
      "e": 72,
      "f": 73,
      "g": 74,
      "h": 75,
      "i": 76,
      "j": 77,
      "k": 78,
      "l": 79,
      "m": 80,
      "n": 81,
      "o": 82,
      "p": 83,
      "q": 84,
      "r": 85,
      "s": 86,
      "t": 87,
      "u": 88,
      "v": 89,
      "w": 90,
      "x": 91,
      "y": 92,
      "z": 93,
      "{": 94,
      "|": 95,
      "}": 96,
      "~": 97,
      "¡": 98,
      "¢": 99,
      "£": 100,
      "¤": 101,
      "¥": 102,
      "¦": 103,
      "§": 104,
      "¨": 105,
      "©": 106,
      "ª": 107,
      "«": 108,
      "¬": 109,
      "®": 110,
      "¯": 111,
      "°": 112,
      "±": 113,
      "²": 114,
      "³": 115,
      "´": 116,
      "µ": 117,
      "¶": 118,
      "·": 119,
      "¸": 120,
      "¹": 121,
      "º": 122,
      "»": 123,
      "¼": 124,
      "½": 125,
      "¾": 126,
      "¿": 127,
      "À": 128,
      "Á": 129,
      "Â": 130,
      "Ã": 131,
      "Ä": 132,
      "Å": 133,
      "Æ": 134,
      "Ç": 135,
      "È": 136,
      "É": 137,
      "Ê": 138,
      "Ë": 139,
      "Ì": 140,
      "Í": 141,
      "Î": 142,
      "Ï": 143,
      "Ð": 144,
      "Ñ": 145,
      "Ò": 146,
      "Ó": 147,
      "Ô": 148,
      "Õ": 149,
      "Ö": 150,
      "×": 151,
      "Ø": 152,
      "Ù": 153,
      "Ú": 154,
      "Û": 155,
      "Ü": 156,
      "Ý": 157,
      "Þ": 158,
      "ß": 159,
      "à": 160,
      "á": 161,
      "â": 162,
      "ã": 163,
      "ä": 164,
      "å": 165,
      "æ": 166,
      "ç": 167,
      "è": 168,
      "é": 169,
      "ê": 170,
      "ë": 171,
      "ì": 172,
      "í": 173,
      "î": 174,
      "ï": 175,
      "ð": 176,
      "ñ": 177,
      "ò": 178,
      "ó": 179,
      "ô": 180,
      "õ": 181,
      "ö": 182,
      "÷": 183,
      "ø": 184,
      "ù": 185,
      "ú": 186,
      "û": 187,
      "ü": 188,
      "ý": 189,
      "þ": 190,
      "ÿ": 191,
      "Ā": 192,
      "ā": 193,
      "Ă": 194,
      "ă": 195,
      "Ą": 196,
      "ą": 197,
      "Ć": 198,
      "ć": 199,
      "Ĉ": 200,
      "ĉ": 201,
      "Ċ": 202,
      "ċ": 203,
      "Č": 204,
      "č": 205,
      "Ď": 206,
      "ď": 207,
      "Đ": 208,
      "đ": 209,
      "Ē": 210,
      "ē": 211,
      "Ĕ": 212,
      "ĕ": 213,
      "Ė": 214,
      "ė": 215,
      "Ę": 216,
      "ę": 217,
      "Ě": 218,
      "ě": 219,
      "Ĝ": 220,
      "ĝ": 221,
      "Ğ": 222,
      "ğ": 223,
      "Ġ": 224,
      "ġ": 225,
      "Ģ": 226,
      "ģ": 227,
      "Ĥ": 228,
      "ĥ": 229,
      "Ħ": 230,
      "ħ": 231,
      "Ĩ": 232,
      "ĩ": 233,
      "Ī": 234,
      "ī": 235,
      "Ĭ": 236,
      "ĭ": 237,
      "Į": 238,
      "į": 239,
      "İ": 240,
      "ı": 241,
      "Ĳ": 242,
      "ĳ": 243,
      "Ĵ": 244,
      "ĵ": 245,
      "Ķ": 246,
      "ķ": 247,
      "ĸ": 248,
      "Ĺ": 249,
      "ĺ": 250,
      "Ļ": 251,
      "ļ": 252,
      "Ľ": 253,
      "ľ": 254,
      "Ŀ": 255,
      "ŀ": 256,
      "Ł": 257,
      "ł": 258,
      "Ń": 259,
      "ĠĠ": 260,
      "ĠĠĠĠ": 261,
      "Ġt": 262,
      "Ġa": 263,
      "in": 264,
      "he": 265,
      "re": 266,
      "on": 267,
      "Ġthe": 268,
      "er": 269,
      "at": 270,
      "ĠĠĠĠĠĠĠĠ": 271,
      "Ġo": 272,
      "Ġs": 273,
      "en": 274,
      "es": 275,
      "Ġc": 276,
      "or": 277,
      "it": 278,
      "nd": 279,
      "is": 280,
      "Ġw": 281,
      "--": 282,
      "al": 283,
      "ed": 284,
      "Ġp": 285,
      "an": 286,
      "Ġof": 287,
      "Ġf": 288,
      "ing": 289,
      "Ġb": 290,
      "ar": 291,
      "ion": 292,
      "Ġin": 293,
      "ic": 294,
      "ou": 295,
      "Ġand": 296,
      "Ġm": 297,
      "Ġ|": 298,
      "Ġto": 299,
      "Ġd": 300,
      "le": 301,
      "ro": 302,
      "ent": 303,
      "as": 304,
      "ĠĠĠĠĠĠĠĠĠĠĠĠĠĠĠĠ": 305,
      "ct": 306,
      "Ġth": 307,
      "Ġh": 308,
      "Ġre": 309,
      "----": 310,
      "Ġe": 311,
      "il": 312,
      "om": 313,
      "st": 314,
      "ve": 315,
      "Ġn": 316,
      "ĠT": 317,
      "ĠS": 318,
      "Ġl": 319,
      "ation": 320,
      "et": 321,
      "ĠA": 322,
      "ĠC": 323,
      "ly": 324,
      "ol": 325,
      "ce": 326,
      "im": 327,
      "Ġ1": 328,
      "id": 329,
      "Ġis": 330,
      "ot": 331,
      "ra": 332,
      "..": 333,
      "Ġbe": 334,
      "se": 335,
      "ut": 336,
      "Ġg": 337,
      "ĠI": 338,
      "Ġfor": 339,
      "ur": 340,
      "ch": 341,
      "ig": 342,
      "Ġ(": 343,
      "ow": 344,
      "âĢ": 345,
      "Ġu": 346,
      "Ġon": 347,
      "ĠM": 348,
      "ĠP": 349,
      "ver": 350,
      "am": 351,
      "Ġ2": 352,
      "Ġthat": 353,
      "Ġst": 354,
      "el": 355,
      "ul": 356,
      "ir": 357,
      "ay": 358,
      "ith": 359,
      "ment": 360,
      "Ġcon": 361,
      "Ġpro": 362,
      "Ġas": 363,
      "ad": 364,
      "--------": 365,
      "ĠB": 366,
      "if": 367,
      "Ġwith": 368,
      "her": 369,
      "Ġy": 370,
      "ter": 371,
      "Ġan": 372,
      "ĠR": 373,
      "ate": 374,
      "ĠD": 375,
      "ĠĠĠĠĠĠĠĠĠĠĠĠĠĠĠĠĠĠĠĠĠĠĠĠĠĠĠĠĠĠĠĠ": 376,
      "Ġor": 377,
      "00": 378,
      "ge": 379,
      "od": 380,
      "Ġal": 381,
      "ĠThe": 382,
      "ĠF": 383,
      "Ġwh": 384,
      "ab": 385,
      "ist": 386,
      "ers": 387,
      "ĠH": 388,
      "Ġit": 389,
      "ri": 390,
      "Ġare": 391,
      "ity": 392,
      "ect": 393,
      "ĠE": 394,
      "em": 395,
      "qu": 396,
      "pp": 397,
      "res": 398,
      "Ġex": 399,
      "ess": 400,
      "th": 401,
      "um": 402,
      "ĠW": 403,
      "Ġcom": 404,
      "ĠN": 405,
      "us": 406,
      "ill": 407,
      "est": 408,
      "ere": 409,
      "ĠL": 410,
      "Ġde": 411,
      "ies": 412,
      "op": 413,
      "Ġyou": 414,
      "os": 415,
      "ac": 416,
      "Ġv": 417,
      "Ġby": 418,
      "Ġsu": 419,
      "and": 420,
      "__": 421,
      "nt": 422,
      "ive": 423,
      "....": 424,
      "ĠG": 425,
      "Ġat": 426,
      "Ġhe": 427,
      "ore": 428,
      "oc": 429,
      "ant": 430,
      "ld": 431,
      "ain": 432,
      "rom": 433,
      "iv": 434,
      "ort": 435,
      "ud": 436,
      "ĠĠĠ": 437,
      "igh": 438,
      "Ġwas": 439,
      "un": 440,
      "ke": 441,
      "ure": 442,
      "ial": 443,
      "ec": 444,
      "art": 445,
      "ĠO": 446,
      "Ġr": 447,
      "Ġfrom": 448,
      "Ġnot": 449,
      "Ġha": 450,
      "ew": 451,
      "Ġch": 452,
      "Ġsh": 453,
      "pt": 454,
      "end": 455,
      "ions": 456,
      "ical": 457,
      "all": 458,
      "ĠJ": 459,
      "'s": 460,
      "Ġthis": 461,
      "pl": 462,
      "Ġle": 463,
      "ard": 464,
      "Ġ3": 465,
      "our": 466,
      "og": 467,
      "ust": 468,
      "ear": 469,
      "ated": 470,
      "ight": 471,
      "Ġhave": 472,
      "per": 473,
      "ĠU": 474,
      "rou": 475,
      "ĠâĢ": 476,
      "ff": 477,
      "ag": 478,
      "Ġcan": 479,
      "ther": 480,
      "ould": 481,
      "Ġsp": 482,
      "Ġse": 483,
      "ich": 484,
      "Ġwe": 485,
      "age": 486,
      "ine": 487,
      "ĠIn": 488,
      "01": 489,
      "are": 490,
      "ations": 491,
      "Ġab": 492,
      "ost": 493,
      "gh": 494,
      "act": 495,
      "iz": 496,
      "ans": 497,
      "Ġint": 498,
      "ip": 499,
      "Ġ\\": 500,
      "du": 501,
      "orm": 502,
      "Ġres": 503,
      "Ġen": 504,
      "Ġim": 505,
      "The": 506,
      "Ġad": 507,
      "Ġus": 508,
      "out": 509,
      "Ġwor": 510,
      "ire": 511,
      "Ġcont": 512,
      "ome": 513,
      "Ġpl": 514,
      "ary": 515,
      "ult": 516,
      "Ġcomp": 517,
      "ber": 518,
      "----------------": 519,
      "ast": 520,
      "ell": 521,
      "ance": 522,
      "Ġ\"": 523,
      "able": 524,
      "ap": 525,
      "Ġ19": 526,
      "cc": 527,
      "Âł": 528,
      "ak": 529,
      "ru": 530,
      "âĢĻ": 531,
      "Ġinc": 532,
      "Ġall": 533,
      "ĠSt": 534,
      "ĠĠĠĠĠĠĠĠĠĠĠĠ": 535,
      "Ġ-": 536,
      "Ġwhe": 537,
      "ous": 538,
      "ide": 539,
      "Ġwill": 540,
      "Ġwhich": 541,
      "____": 542,
      "Ġ4": 543,
      "ib": 544,
      "Ġ$": 545,
      "Ġapp": 546,
      "Ġk": 547,
      "Ġ0": 548,
      "........": 549,
      "Ġtheir": 550,
      "vel": 551,
      "ction": 552,
      "Ġme": 553,
      "ong": 554,
      "ĠĠĠĠĠĠĠĠĠĠĠĠĠĠĠĠĠĠĠĠĠĠĠĠĠĠĠĠĠĠĠĠĠĠĠĠĠĠĠĠĠĠĠĠĠĠĠĠĠĠĠĠĠĠĠĠĠĠĠĠĠĠĠĠ": 555,
      "ep": 556,
      "**": 557,
      "ia": 558,
      ").": 559,
      "ice": 560,
      "Ġper": 561,
      "ign": 562,
      "Ġdis": 563,
      "ĠK": 564,
      "ual": 565,
      "ĠTh": 566,
      "ence": 567,
      "Ġhas": 568,
      "Ġdo": 569,
      "ex": 570,
      "Ġcl": 571,
      "Ġ5": 572,
      "Ġthey": 573,
      "ks": 574,
      "ach": 575,
      "ition": 576,
      "ub": 577,
      "ase": 578,
      "ry": 579,
      "ue": 580,
      "form": 581,
      "Ġother": 582,
      "ĠV": 583,
      "ass": 584,
      "ame": 585,
      "Ġun": 586,
      "Ġwere": 587,
      "ount": 588,
      "Ġbut": 589,
      "Ġj": 590,
      "ater": 591,
      "ind": 592,
      "ress": 593,
      "ood": 594,
      "ents": 595,
      "ord": 596,
      "ime": 597,
      "ens": 598,
      "Ġmore": 599,
      "Ġman": 600,
      "ose": 601,
      "Ġpart": 602,
      "Ġne": 603,
      "so": 604,
      "Ġimp": 605,
      "Ġone": 606,
      "av": 607,
      "one": 608,
      "erv": 609,
      "Ġout": 610,
      "ail": 611,
      "ĠCh": 612,
      "ack": 613,
      "ors": 614,
      "Ġpre": 615,
      "ree": 616,
      "Ġyour": 617,
      "low": 618,
      "au": 619,
      "ace": 620,
      "ments": 621,
      "ory": 622,
      "Ġ201": 623,
      "ang": 624,
      "ric": 625,
      "Ġev": 626,
      "ces": 627,
      "ie": 628,
      "Ġ6": 629,
      "lic": 630,
      "Ġar": 631,
      "nder": 632,
      "ite": 633,
      "ild": 634,
      "ok": 635,
      "Ġqu": 636,
      "Ġhis": 637,
      "Ġso": 638,
      "ond": 639,
      "ph": 640,
      "Ġcomm": 641,
      "ake": 642,
      "Ġsc": 643,
      "int": 644,
      "ates": 645,
      "),": 646,
      "very": 647,
      "fere": 648,
      "Ġup": 649,
      "ll": 650,
      "ish": 651,
      "ile": 652,
      "Ġag": 653,
      "ĠY": 654,
      "Ġalso": 655,
      "Ġwho": 656,
      "Ġabout": 657,
      "Ġrec": 658,
      "ons": 659,
      "ific": 660,
      "ject": 661,
      "ike": 662,
      "ities": 663,
      "vers": 664,
      "Ġ200": 665,
      "Ġany": 666,
      "ings": 667,
      "ĠĠĠĠĠ": 668,
      "ound": 669,
      "Ġte": 670,
      "own": 671,
      "ian": 672,
      "Ġind": 673,
      "lud": 674,
      "Ġstud": 675,
      "Ġsy": 676,
      "Ġthere": 677,
      "Ġmay": 678,
      "Ġrep": 679,
      "olog": 680,
      "reat": 681,
      "ram": 682,
      "erm": 683,
      "Ġthan": 684,
      "lect": 685,
      "Ġcons": 686,
      "Ġyear": 687,
      "Ġacc": 688,
      "te": 689,
      "tern": 690,
      "Ġunder": 691,
      "Ġbeen": 692,
      "Ġ7": 693,
      "Ġits": 694,
      "##": 695,
      "Ġgo": 696,
      "Ġtime": 697,
      "ational": 698,
      "ays": 699,
      "Ġem": 700,
      "Ġtra": 701,
      "ys": 702,
      "Ġwould": 703,
      "Ġprov": 704,
      "Ġwork": 705,
      "ĠIt": 706,
      "ove": 707,
      "Ġinto": 708,
      "Ġass": 709,
      "red": 710,
      "Ġthem": 711,
      "Ġtr": 712,
      "we": 713,
      "Ġbec": 714,
      "Ġif": 715,
      "Ġdes": 716,
      "ĠĠĠĠĠĠ": 717,
      "Ġover": 718,
      "Ġwhen": 719,
      "amp": 720,
      "rough": 721,
      "rit": 722,
      "ov": 723,
      "Ġact": 724,
      "ext": 725,
      "ative": 726,
      "Ġbet": 727,
      "ath": 728,
      "ally": 729,
      "ĠCom": 730,
      "irst": 731,
      "Ġpe": 732,
      "Ġhad": 733,
      "Ġrel": 734,
      "âĢĿ": 735,
      "Ġkn": 736,
      "ark": 737,
      "Ġro": 738,
      "rib": 739,
      "Ġsome": 740,
      "Ġthese": 741,
      "ĠRe": 742,
      "ough": 743,
      "ob": 744,
      "old": 745,
      "ility": 746,
      "ĠUn": 747,
      "Ġtw": 748,
      "Ġ8": 749,
      "ating": 750,
      "Ġreg": 751,
      "Ġam": 752,
      "ĠThis": 753,
      "stem": 754,
      "Ġsub": 755,
      "Ġdif": 756,
      "ning": 757,
      "Ġinclud": 758,
      "iss": 759,
      "Ġsuch": 760,
      "les": 761,
      "ĠĠĠĠĠĠĠ": 762,
      "ced": 763,
      "02": 764,
      "ious": 765,
      "ied": 766,
      "Ġno": 767,
      "Ġour": 768,
      "aw": 769,
      "Ġra": 770,
      "Ġexp": 771,
      "velop": 772,
      "ener": 773,
      "Ġlike": 774,
      "Ġco": 775,
      "Ġuse": 776,
      "mer": 777,
      "ĠâĢĵ": 778,
      "hed": 779,
      "Ġ9": 780,
      "Ġnew": 781,
      "ĠPro": 782,
      "ics": 783,
      "Ġoff": 784,
      "Ġhow": 785,
      "Ġob": 786,
      "ren": 787,
      "âĢĵ": 788,
      "ract": 789,
      "ont": 790,
      "Ġ=": 791,
      "row": 792,
      "Ġeff": 793,
      "ft": 794,
      ".,": 795,
      "19": 796,
      "ople": 797,
      "ause": 798,
      "Ġpo": 799,
      "Ġspec": 800,
      "ased": 801,
      "Ġcol": 802,
      "ss": 803,
      "________": 804,
      "ĠâĢľ": 805,
      "ient": 806,
      "cy": 807,
      "ook": 808,
      "Ġonly": 809,
      "ĠHe": 810,
      "yp": 811,
      "Ġmod": 812,
      "ne": 813,
      "ution": 814,
      "ures": 815,
      "................": 816,
      "Ġtwo": 817,
      "ise": 818,
      "uring": 819,
      "Ġinv": 820,
      "Ġadd": 821,
      "fter": 822,
      "eth": 823,
      "Ġ10": 824,
      "ular": 825,
      "10": 826,
      "Ġfirst": 827,
      "Ġsa": 828,
      "Ġac": 829,
      "Ġthrough": 830,
      "Ġrequ": 831,
      "ange": 832,
      "oy": 833,
      "Ġwhat": 834,
      "ert": 835,
      "Ġneed": 836,
      "Ġpos": 837,
      "ĊĊ": 838,
      "ata": 839,
      "als": 840,
      "Ġfe": 841,
      "ident": 842,
      "Ġtrans": 843,
      "Ġdec": 844,
      "ible": 845,
      "ink": 846,
      "rop": 847,
      "Ġpeople": 848,
      "Ġsupp": 849,
      "ĠĠĠĠĠĠĠĠĠ": 850,
      "ool": 851,
      "In": 852,
      "Ġsystem": 853,
      "Ġph": 854,
      "ween": 855,
      "'t": 856,
      "Ġinter": 857,
      "oth": 858,
      "Ġatt": 859,
      "uc": 860,
      "its": 861,
      "Ġprodu": 862,
      "Ġused": 863,
      "Ġform": 864,
      "round": 865,
      "000": 866,
      "formation": 867,
      "iew": 868,
      "alth": 869,
      "Ġdevelop": 870,
      "Ġnum": 871,
      "Ġbl": 872,
      "hen": 873,
      "Ġ[": 874,
      "ollow": 875,
      "resent": 876,
      "Ġinst": 877,
      "Ġ18": 878,
      "Ġdiffere": 879,
      "Ġpr": 880,
      "Ġbetween": 881,
      "Ġresp": 882,
      "fore": 883,
      "ited": 884,
      "ful": 885,
      "Ġmost": 886,
      "ection": 887,
      "Ġher": 888,
      "ble": 889,
      "ng": 890,
      "Ġrem": 891,
      "ower": 892,
      "Ġdisc": 893,
      "Ġshould": 894,
      "Ġwhere": 895,
      "und": 896,
      "ade": 897,
      "cess": 898,
      "cept": 899,
      "-|": 900,
      "Ġval": 901,
      "ax": 902,
      "ices": 903,
      "Ġ&": 904,
      "Ġpol": 905,
      "up": 906,
      "ĠĠĠĠĠĠĠĠĠĠĠĠĠĠĠĠĠĠĠĠĠĠĠĠĠĠĠĠĠĠĠĠĠĠĠĠĠĠĠĠĠĠĠĠĠĠĠĠĠĠĠĠĠĠĠĠĠĠĠĠĠĠĠĠĠĠĠĠĠĠĠĠĠĠĠĠĠĠĠĠĠĠĠĠĠĠĠĠĠĠĠĠĠĠĠĠĠĠĠĠĠĠĠĠĠĠĠĠĠĠĠĠĠĠĠĠĠĠĠĠĠĠĠĠĠĠĠĠ": 907,
      "Ġset": 908,
      "Ġdet": 909,
      "gan": 910,
      "Ġfollow": 911,
      "gram": 912,
      "urn": 913,
      "ick": 914,
      "oci": 915,
      "sel": 916,
      "ered": 917,
      "wn": 918,
      "eg": 919,
      "ict": 920,
      "Ġsur": 921,
      "itt": 922,
      "ĠĠĠĠĠĠĠĠĠĠ": 923,
      "Ġmy": 924,
      "ublic": 925,
      "Ġpers": 926,
      "roup": 927,
      "à¤": 928,
      "ues": 929,
      "chool": 930,
      "ER": 931,
      "12": 932,
      "ork": 933,
      "Ġcould": 934,
      "hes": 935,
      "ef": 936,
      "hip": 937,
      "Ġeach": 938,
      "Ġsec": 939,
      "ivers": 940,
      "ari": 941,
      "Ġsign": 942,
      "Ġ12": 943,
      "Ġdef": 944,
      "chn": 945,
      "ĠWe": 946,
      "arch": 947,
      "get": 948,
      "ĠAn": 949,
      "Ġthen": 950,
      "ten": 951,
      "--------------------------------": 952,
      "ily": 953,
      "ism": 954,
      "ĠĠĠĠĠĠĠĠĠĠĠ": 955,
      "Ġwell": 956,
      "ruct": 957,
      "Ġserv": 958,
      "Ġyears": 959,
      "Ġloc": 960,
      "ward": 961,
      "Ġknow": 962,
      "ĠAl": 963,
      "ample": 964,
      "ever": 965,
      "Ġdist": 966,
      "Ġgener": 967,
      "erg": 968,
      "Ġjust": 969,
      "ts": 970,
      "Ġresult": 971,
      "Ġsim": 972,
      "Ġfl": 973,
      "Ġmany": 974,
      "ON": 975,
      "ology": 976,
      "ural": 977,
      "land": 978,
      "anc": 979,
      "ife": 980,
      "Ġent": 981,
      "ix": 982,
      "ines": 983,
      "Ġafter": 984,
      "irect": 985,
      "ature": 986,
      "ants": 987,
      "Ġhel": 988,
      "the": 989,
      "Ġbu": 990,
      "Ġget": 991,
      "Ġinformation": 992,
      "11": 993,
      "Ġinf": 994,
      "Ġdata": 995,
      "uch": 996,
      "Ġsm": 997,
      "Ġhigh": 998,
      "Ġpartic": 999,
      "Ġchild": 1000,
      "ty": 1001,
      "ience": 1002,
      "ved": 1003,
      "any": 1004,
      "ives": 1005,
      "led": 1006,
      "ck": 1007,
      "Ġhelp": 1008,
      "Ġeffect": 1009,
      "com": 1010,
      "iel": 1011,
      "Ġshe": 1012,
      "vern": 1013,
      "air": 1014,
      "ized": 1015,
      "Ġed": 1016,
      "ĠFor": 1017,
      "ĠSp": 1018,
      "Ġsee": 1019,
      "ĠWh": 1020,
      "ee": 1021,
      "Ġfin": 1022,
      "Ġexper": 1023,
      "Ġequ": 1024,
      ".\"": 1025,
      "Ġthose": 1026,
      "Ġext": 1027,
      "Ġ*": 1028,
      "ins": 1029,
      "Ġdifferent": 1030,
      "nce": 1031,
      "uth": 1032,
      "ĠDe": 1033,
      "ined": 1034,
      "Ġincre": 1035,
      "ically": 1036,
      "ock": 1037,
      "pos": 1038,
      "Th": 1039,
      "Ġcur": 1040,
      "Ġbecause": 1041,
      "ĠAr": 1042,
      "Ġcomple": 1043,
      "other": 1044,
      "ness": 1045,
      "con": 1046,
      "Ġprovid": 1047,
      "Ġcor": 1048,
      "Ġrequire": 1049,
      "Ġ15": 1050,
      "Ġ199": 1051,
      "Ġcommun": 1052,
      "vent": 1053,
      "Ġcall": 1054,
      "Ġprocess": 1055,
      "Ġmem": 1056,
      "aking": 1057,
      "Ġstate": 1058,
      "Ġmake": 1059,
      "ists": 1060,
      "io": 1061,
      "Ġmon": 1062,
      "Ġgra": 1063,
      "ĠAs": 1064,
      "meric": 1065,
      "ision": 1066,
      "Ġconc": 1067,
      "ven": 1068,
      "arm": 1069,
      "Ġcount": 1070,
      "Ġright": 1071,
      "IN": 1072,
      "Ġend": 1073,
      "ĠEx": 1074,
      "ize": 1075,
      "Ġnumber": 1076,
      "Ġmin": 1077,
      "imes": 1078,
      "Ġduring": 1079,
      "Ġfun": 1080,
      "Ġevery": 1081,
      "Ġear": 1082,
      "Ġcar": 1083,
      "der": 1084,
      "ĠSc": 1085,
      "Ġappro": 1086,
      "Ġlong": 1087,
      "Ġprogram": 1088,
      "tt": 1089,
      "ale": 1090,
      "AT": 1091,
      "Ġeven": 1092,
      "Ġins": 1093,
      "Ġbeing": 1094,
      "Ġsaid": 1095,
      "ĠĠĠĠĠĠĠĠĠĠĠĠĠĠ": 1096,
      "15": 1097,
      "Ġusing": 1098,
      "Ġfact": 1099,
      "Ġ20": 1100,
      "Ġdoes": 1101,
      "Ġsame": 1102,
      "Ġreport": 1103,
      "ages": 1104,
      "Ġmade": 1105,
      "Ġstr": 1106,
      "Ġke": 1107,
      "ES": 1108,
      "ĠAd": 1109,
      "Ġtyp": 1110,
      "rent": 1111,
      "Ġest": 1112,
      "Ġlar": 1113,
      "ute": 1114,
      "ually": 1115,
      "ield": 1116,
      "ĠComm": 1117,
      "Ġmed": 1118,
      "Ġref": 1119,
      "ank": 1120,
      "Ġexpl": 1121,
      "Ġcent": 1122,
      "ety": 1123,
      "Ġwater": 1124,
      "Ġgroup": 1125,
      "ency": 1126,
      "Ġboth": 1127,
      "ĠNew": 1128,
      "ĠIf": 1129,
      "Ġrese": 1130,
      "ĠĠĠĠĠĠĠĠĠĠĠĠĠ": 1131,
      "rol": 1132,
      "Ġav": 1133,
      "Ġway": 1134,
      "Ġvery": 1135,
      "_{": 1136,
      "ases": 1137,
      "Ġchar": 1138,
      "ivid": 1139,
      "iversity": 1140,
      "Ġfound": 1141,
      "oun": 1142,
      "Ġpat": 1143,
      "Ġown": 1144,
      "Ġshow": 1145,
      "Ġimport": 1146,
      "hem": 1147,
      "ional": 1148,
      "ĠAmeric": 1149,
      "Ġback": 1150,
      "iron": 1151,
      "Ġpoint": 1152,
      "ting": 1153,
      "ern": 1154,
      "13": 1155,
      "blem": 1156,
      "20": 1157,
      "Ġsupport": 1158,
      "ather": 1159,
      "Ġperson": 1160,
      "Ġmust": 1161,
      "Ġhim": 1162,
      "Ġ'": 1163,
      "ĠCon": 1164,
      "Ġagain": 1165,
      "ving": 1166,
      "uss": 1167,
      "Ġcre": 1168,
      "Ġlevel": 1169,
      "ince": 1170,
      "stand": 1171,
      "ah": 1172,
      "Ġdi": 1173,
      "Ġret": 1174,
      "Ġdep": 1175,
      "Ġmat": 1176,
      "ier": 1177,
      "Ġtechn": 1178,
      "view": 1179,
      "ality": 1180,
      "ĠInd": 1181,
      "bers": 1182,
      "Ġ.": 1183,
      "ug": 1184,
      "18": 1185,
      "Ġconst": 1186,
      "Ġbefore": 1187,
      "Ġconsid": 1188,
      "Ġhealth": 1189,
      "ential": 1190,
      "oh": 1191,
      "ets": 1192,
      "itions": 1193,
      "EN": 1194,
      "Ġsol": 1195,
      "ĠRes": 1196,
      "Ġ**": 1197,
      "50": 1198,
      "inc": 1199,
      "ability": 1200,
      "ĠQ": 1201,
      "lement": 1202,
      "ash": 1203,
      "Ġmain": 1204,
      "ral": 1205,
      "man": 1206,
      "Ġtest": 1207,
      "ital": 1208,
      "Ġ202": 1209,
      "ave": 1210,
      "30": 1211,
      "Ġworld": 1212,
      "AR": 1213,
      "Ġwithin": 1214,
      "201": 1215,
      "Ġ+": 1216,
      "ĠCl": 1217,
      "Ġdid": 1218,
      "ization": 1219,
      "iqu": 1220,
      "ulation": 1221,
      "Ġoper": 1222,
      "âĢĶ": 1223,
      "ĠSh": 1224,
      "eng": 1225,
      "ption": 1226,
      "Ġlear": 1227,
      "14": 1228,
      "Ġgu": 1229,
      "Ġfind": 1230,
      "Ġ16": 1231,
      "Ġbo": 1232,
      "...": 1233,
      "ull": 1234,
      "ected": 1235,
      "Ġwhile": 1236,
      "Ġlead": 1237,
      "ĠHow": 1238,
      "ars": 1239,
      "Ġfam": 1240,
      "ĠĠĠĠĠĠĠĠĠĠĠĠĠĠĠ": 1241,
      "16": 1242,
      "Ġproblem": 1243,
      "ission": 1244,
      "Ġread": 1245,
      "ified": 1246,
      "Ġmuch": 1247,
      "Ġet": 1248,
      "Ġdesign": 1249,
      "Ġschool": 1250,
      "ron": 1251,
      "viron": 1252,
      "ploy": 1253,
      "Ġart": 1254,
      "AN": 1255,
      "Ġgood": 1256,
      "Ġ14": 1257,
      "ĠPl": 1258,
      "cl": 1259,
      "Ġhum": 1260,
      "Ġclass": 1261,
      "ters": 1262,
      "Ġ17": 1263,
      "ished": 1264,
      "ason": 1265,
      "Ġpur": 1266,
      "Ġterm": 1267,
      "Ġplan": 1268,
      "Ġcour": 1269,
      "Ġpublic": 1270,
      "pr": 1271,
      "erest": 1272,
      "Ġposs": 1273,
      "ross": 1274,
      "------": 1275,
      "ared": 1276,
      "imate": 1277,
      "ration": 1278,
      "Ġnow": 1279,
      "Ġconf": 1280,
      "OR": 1281,
      "inal": 1282,
      "ner": 1283,
      "Ġstudy": 1284,
      "Ġcontin": 1285,
      "Ġthree": 1286,
      "dition": 1287,
      "way": 1288,
      "Ġ13": 1289,
      "Ġiss": 1290,
      "iod": 1291,
      "iven": 1292,
      "Ġop": 1293,
      "iness": 1294,
      "ĠÂ": 1295,
      "ethod": 1296,
      "aj": 1297,
      "Ġser": 1298,
      "Ġactiv": 1299,
      "ĠZ": 1300,
      "ton": 1301,
      "200": 1302,
      "Ġlife": 1303,
      "ves": 1304,
      "ator": 1305,
      "17": 1306,
      "Ġincluding": 1307,
      "vernment": 1308,
      "de": 1309,
      "read": 1310,
      "Ġquest": 1311,
      "ote": 1312,
      "els": 1313,
      "Ġplay": 1314,
      "ouse": 1315,
      "Ġdown": 1316,
      "Ġpar": 1317,
      "gg": 1318,
      "Ġorgan": 1319,
      "ering": 1320,
      "AL": 1321,
      "Ġanal": 1322,
      "Ġsom": 1323,
      "ww": 1324,
      "ĠAnd": 1325,
      "Ġstand": 1326,
      "ining": 1327,
      "Ġfollowing": 1328,
      "Ġca": 1329,
      "cent": 1330,
      "to": 1331,
      "ĠSe": 1332,
      "ted": 1333,
      "Ġproject": 1334,
      "Ġelect": 1335,
      "ify": 1336,
      "Ġshall": 1337,
      "Ġpresent": 1338,
      "ination": 1339,
      "ocial": 1340,
      "Ġdirect": 1341,
      "Ġperform": 1342,
      "raph": 1343,
      "Ġcare": 1344,
      "ode": 1345,
      "Ġpower": 1346,
      "Ġsmall": 1347,
      "vironment": 1348,
      "text": 1349,
      "Ġhand": 1350,
      "day": 1351,
      "cri": 1352,
      "Ġhist": 1353,
      "Ġstudents": 1354,
      "Ġadv": 1355,
      "ody": 1356,
      "Ġallow": 1357,
      "tain": 1358,
      "orn": 1359,
      "ateg": 1360,
      "ĠThey": 1361,
      "Ġpri": 1362,
      "Ġocc": 1363,
      "Ġident": 1364,
      "oss": 1365,
      "Ġcap": 1366,
      "ĠComp": 1367,
      "ividual": 1368,
      "Ġthink": 1369,
      "ĠPh": 1370,
      "Ġtake": 1371,
      "conom": 1372,
      "Ġbel": 1373,
      "Ġmeas": 1374,
      "Ġprot": 1375,
      "self": 1376,
      "Ġstart": 1377,
      "Ġless": 1378,
      "ik": 1379,
      "Ġpop": 1380,
      "aterial": 1381,
      "min": 1382,
      "Ġgl": 1383,
      "por": 1384,
      "ium": 1385,
      "ense": 1386,
      "ĠNo": 1387,
      "uthor": 1388,
      "Ġgrow": 1389,
      "Ġmark": 1390,
      "ring": 1391,
      "of": 1392,
      ",\"": 1393,
      "port": 1394,
      "Ġapplic": 1395,
      "line": 1396,
      "ĠYou": 1397,
      "Ġday": 1398,
      "Ġ11": 1399,
      "omen": 1400,
      "Ġinterest": 1401,
      "agement": 1402,
      "Ġexample": 1403,
      "Ġris": 1404,
      "ergy": 1405,
      "Ġnon": 1406,
      "Ġrece": 1407,
      "akes": 1408,
      "Ġpract": 1409,
      "Ġsk": 1410,
      "az": 1411,
      "ior": 1412,
      "Ġimportant": 1413,
      "irc": 1414,
      "Ġlaw": 1415,
      "Ġcle": 1416,
      "ps": 1417,
      "ĠBut": 1418,
      "Ġlook": 1419,
      "Ġredu": 1420,
      "Ġvari": 1421,
      "Ġdem": 1422,
      "ĠUniversity": 1423,
      "Ġcost": 1424,
      "less": 1425,
      "Ġproper": 1426,
      "Ġmet": 1427,
      "ĠCol": 1428,
      "________________": 1429,
      "^{": 1430,
      "ailable": 1431,
      "Ġprof": 1432,
      "Ġsecond": 1433,
      "Ġchildren": 1434,
      "Ġdon": 1435,
      "ources": 1436,
      "ards": 1437,
      "Ġpres": 1438,
      "Ġwant": 1439,
      "25": 1440,
      "Ġthough": 1441,
      "Ġresearch": 1442,
      "ĠLe": 1443,
      "Ġland": 1444,
      "IC": 1445,
      "sp": 1446,
      "itive": 1447,
      "Ġunderstand": 1448,
      "usiness": 1449,
      "Ġaff": 1450,
      "ertain": 1451,
      "rac": 1452,
      "Ġwrit": 1453,
      "Ġ30": 1454,
      "outh": 1455,
      "lish": 1456,
      "Ġcase": 1457,
      "Ġbuild": 1458,
      "ĠEng": 1459,
      "ien": 1460,
      "ived": 1461,
      "Ġmethod": 1462,
      "IT": 1463,
      "Ġindividual": 1464,
      "ĠThere": 1465,
      "Ġdevelopment": 1466,
      "rodu": 1467,
      "Ġhere": 1468,
      "ains": 1469,
      "Ġaround": 1470,
      "Ġinvest": 1471,
      "acter": 1472,
      "Ġchang": 1473,
      "ury": 1474,
      "Ġwithout": 1475,
      "Ġcurrent": 1476,
      "ember": 1477,
      "ĠIs": 1478,
      "Ġbas": 1479,
      "ĠEn": 1480,
      "oint": 1481,
      "ann": 1482,
      "Ġplace": 1483,
      "This": 1484,
      "ĠâĢĶ": 1485,
      "sc": 1486,
      "................................": 1487,
      "ret": 1488,
      "ION": 1489,
      "alk": 1490,
      "ĠTe": 1491,
      "Ġ/": 1492,
      "Ġdel": 1493,
      "Ġbeh": 1494,
      "Ġreal": 1495,
      "Ġfac": 1496,
      "Ġproduct": 1497,
      "Ġorder": 1498,
      "orth": 1499,
      "ple": 1500,
      "Ġarea": 1501,
      "Ġlim": 1502,
      "Ġbased": 1503,
      "par": 1504,
      "Ġeng": 1505,
      "Ġperiod": 1506,
      "Ġcontrol": 1507,
      "Ġmight": 1508,
      "ccess": 1509,
      "isc": 1510,
      "ised": 1511,
      "atic": 1512,
      "Ġlarge": 1513,
      "Ġchange": 1514,
      "ries": 1515,
      "Ġaddition": 1516,
      "reen": 1517,
      "ds": 1518,
      "AS": 1519,
      "Ġpass": 1520,
      "Ġprovide": 1521,
      "here": 1522,
      "Ġleg": 1523,
      "ource": 1524,
      "ĠĠĠĠĠĠĠĠĠĠĠĠĠĠĠĠĠĠĠĠĠĠĠĠĠĠĠĠĠĠĠĠĠĠĠĠĠĠĠĠĠĠĠĠĠĠĠĠ": 1525,
      "Ġstill": 1526,
      "ended": 1527,
      "ĠOr": 1528,
      "Ġfunction": 1529,
      "rid": 1530,
      "Ġx": 1531,
      "IS": 1532,
      "40": 1533,
      "put": 1534,
      "Ġve": 1535,
      "Ġmaterial": 1536,
      "Ġâ": 1537,
      "}$": 1538,
      "Ġvalue": 1539,
      "Ġvis": 1540,
      "Ġcalled": 1541,
      "omm": 1542,
      "val": 1543,
      "ger": 1544,
      "Ġsignific": 1545,
      "oad": 1546,
      "iving": 1547,
      "St": 1548,
      "Ġopp": 1549,
      "mber": 1550,
      "Ġavailable": 1551,
      "Ġtreat": 1552,
      "me": 1553,
      "Ġeduc": 1554,
      "ane": 1555,
      "ffic": 1556,
      "Ġagainst": 1557,
      "Ġrest": 1558,
      "Ġcell": 1559,
      "22": 1560,
      "urther": 1561,
      "Ġfil": 1562,
      "Ġpot": 1563,
      "Ġoften": 1564,
      "ially": 1565,
      "Ġimpro": 1566,
      "ĠRep": 1567,
      "Wh": 1568,
      "fer": 1569,
      "Ġlist": 1570,
      "bs": 1571,
      "ĠTr": 1572,
      "right": 1573,
      "Ġ198": 1574,
      "ĠThese": 1575,
      "Ġ$\\": 1576,
      "ples": 1577,
      "Ġben": 1578,
      "Ġel": 1579,
      "Ġhuman": 1580,
      "Ġanother": 1581,
      "ĠTo": 1582,
      "med": 1583,
      "ification": 1584,
      "Ġsl": 1585,
      "ĠMan": 1586,
      "illion": 1587,
      "crib": 1588,
      "over": 1589,
      "ĠX": 1590,
      "Ġ25": 1591,
      "Ġgiven": 1592,
      "ances": 1593,
      "ames": 1594,
      "ED": 1595,
      "Ġinclude": 1596,
      "ajor": 1597,
      "arent": 1598,
      "ĠAll": 1599,
      "Ġemploy": 1600,
      "//": 1601,
      "ĊĠ": 1602,
      "be": 1603,
      "ording": 1604,
      "Ġgreat": 1605,
      "ling": 1606,
      "ilities": 1607,
      "Ġdeterm": 1608,
      "Ġtem": 1609,
      "Ġcal": 1610,
      "ma": 1611,
      "earch": 1612,
      "ently": 1613,
      "Ġinvol": 1614,
      "att": 1615,
      "Ġmeet": 1616,
      "iver": 1617,
      "Ġlast": 1618,
      "ference": 1619,
      "for": 1620,
      "Ġfund": 1621,
      "app": 1622,
      "Ġeconom": 1623,
      "rist": 1624,
      "Ġsay": 1625,
      "rict": 1626,
      "hers": 1627,
      "###": 1628,
      "ĠCont": 1629,
      "ĠBo": 1630,
      "Ġopen": 1631,
      "Ġmult": 1632,
      "Ġ--": 1633,
      "ysis": 1634,
      "ina": 1635,
      "Ġmodel": 1636,
      "Ġenvironment": 1637,
      "ological": 1638,
      "Ã©": 1639,
      "ĠUnited": 1640,
      "ots": 1641,
      "eed": 1642,
      "âĢ¢": 1643,
      "Ġrele": 1644,
      "ention": 1645,
      "Ġmean": 1646,
      "ĠState": 1647,
      "ilar": 1648,
      "ĠAss": 1649,
      "Ġlocal": 1650,
      "mb": 1651,
      "Ġsocial": 1652,
      "icle": 1653,
      "ĠĠĠĠĠĠĠĠĠĠĠĠĠĠĠĠĠ": 1654,
      "idence": 1655,
      "Ġide": 1656,
      "ĠAmerican": 1657,
      "lection": 1658,
      "Ġaccess": 1659,
      "ĠCent": 1660,
      "ends": 1661,
      "ograph": 1662,
      "lished": 1663,
      "Ġparticular": 1664,
      "Ġfood": 1665,
      "ĠUS": 1666,
      "Ġconn": 1667,
      "Ġbelie": 1668,
      "ribut": 1669,
      "ternational": 1670,
      "angu": 1671,
      "Ġsince": 1672,
      "Ġsit": 1673,
      "une": 1674,
      "agn": 1675,
      "Ġlet": 1676,
      "erc": 1677,
      "Ġvol": 1678,
      "Ġobject": 1679,
      "esp": 1680,
      "osed": 1681,
      "icy": 1682,
      "Ġgovernment": 1683,
      "Ġgen": 1684,
      "ĠApp": 1685,
      "Ġcult": 1686,
      "EC": 1687,
      "lu": 1688,
      "}{": 1689,
      "24": 1690,
      "Ġche": 1691,
      "://": 1692,
      "Ġcommon": 1693,
      "ories": 1694,
      "ware": 1695,
      "sw": 1696,
      "Ġpay": 1697,
      "Ġrun": 1698,
      "ients": 1699,
      "Ġunt": 1700,
      "Ġstruct": 1701,
      "ole": 1702,
      "ways": 1703,
      "Ġfore": 1704,
      "pect": 1705,
      "60": 1706,
      "Ġ\\(": 1707,
      "23": 1708,
      "Ġenergy": 1709,
      "Ġknown": 1710,
      "Ġvar": 1711,
      "Ġsignificant": 1712,
      "ĠĠĠĠĠĠĠĠĠĠĠĠĠĠĠĠĠĠĠĠĠĠĠĠĠĠĠĠĠĠĠĠĠĠĠĠĠĠĠĠĠĠĠĠĠĠĠĠĠĠĠĠĠĠĠĠĠĠĠĠĠĠĠĠĠĠĠĠĠĠĠĠĠĠĠĠĠĠĠĠĠĠĠĠĠĠĠĠĠĠĠĠĠĠĠĠĠĠĠĠĠĠĠĠĠĠĠĠĠĠĠĠĠĠĠĠĠĠĠĠĠĠĠĠĠĠĠĠĠĠĠĠĠĠĠĠĠĠĠĠĠĠĠĠĠĠĠĠĠĠĠĠĠĠĠĠĠĠĠĠĠĠĠĠĠĠĠĠĠĠĠĠĠĠĠĠĠĠĠĠĠĠĠĠĠĠĠĠĠĠĠĠĠĠĠĠĠĠĠĠĠĠĠĠĠĠĠĠĠĠĠĠĠĠĠĠĠĠĠĠĠĠĠĠĠĠĠĠĠĠĠĠĠĠĠĠĠĠĠĠĠĠĠĠĠĠĠĠĠĠĠĠĠĠĠĠ": 1713,
      "Ġresults": 1714,
      "ĠHowever": 1715,
      "ocu": 1716,
      "abor": 1717,
      "by": 1718,
      "Ġauthor": 1719,
      "Ġfew": 1720,
      "ĠAct": 1721,
      "ohn": 1722,
      "Ġmonth": 1723,
      "Ġpost": 1724,
      "Ġrepresent": 1725,
      "duct": 1726,
      "Ġdue": 1727,
      "Ġtop": 1728,
      "org": 1729,
      "olution": 1730,
      "ogn": 1731,
      "Ġfield": 1732,
      "gin": 1733,
      "igure": 1734,
      "AC": 1735,
      "eb": 1736,
      "Ġsever": 1737,
      "ats": 1738,
      "Ġphys": 1739,
      "Ġbusiness": 1740,
      "Ġz": 1741,
      "vious": 1742,
      "ead": 1743,
      "Ġtri": 1744,
      "ecess": 1745,
      "Ġ24": 1746,
      "Ġpossible": 1747,
      "Ġlow": 1748,
      "Ġhig": 1749,
      "ĠSy": 1750,
      "ĠOn": 1751,
      "ruction": 1752,
      "Ġname": 1753,
      "Ġbetter": 1754,
      "Ġrecord": 1755,
      "---|": 1756,
      "artment": 1757,
      "Ġlight": 1758,
      "Ġdiscuss": 1759,
      "Ġcond": 1760,
      "ek": 1761,
      "ris": 1762,
      "ancial": 1763,
      "ĠMay": 1764,
      "):": 1765,
      "Ġorig": 1766,
      "Ġfour": 1767,
      "ĠMar": 1768,
      "Ġdra": 1769,
      "ental": 1770,
      "sy": 1771,
      "ĠAg": 1772,
      "ĠAt": 1773,
      "Ġeas": 1774,
      "ither": 1775,
      "Ġmeans": 1776,
      "Ġmar": 1777,
      "Ġpercent": 1778,
      ".âĢĿ": 1779,
      "work": 1780,
      "Ġprom": 1781,
      "Ġtoo": 1782,
      "Ġbest": 1783,
      "ued": 1784,
      "Ġbre": 1785,
      "Ġabove": 1786,
      "stit": 1787,
      "ĠStates": 1788,
      "Ġexam": 1789,
      "Ġrisk": 1790,
      "Ġdev": 1791,
      "$$": 1792,
      "Ġnet": 1793,
      "math": 1794,
      "Ġpa": 1795,
      "Ġamong": 1796,
      "oid": 1797,
      "Ġi": 1798,
      "elf": 1799,
      "Ġamount": 1800,
      "Ġsing": 1801,
      "ope": 1802,
      "Ġindic": 1803,
      "ably": 1804,
      "Ġrequired": 1805,
      "eter": 1806,
      "osp": 1807,
      "ĠGo": 1808,
      "70": 1809,
      "ained": 1810,
      "Ġbro": 1811,
      "Ġold": 1812,
      "Ġexist": 1813,
      "Ġview": 1814,
      "Ġcrit": 1815,
      "Ġseveral": 1816,
      "Ġmajor": 1817,
      "ĠBe": 1818,
      "not": 1819,
      "Ġfre": 1820,
      "urop": 1821,
      "It": 1822,
      "Ġfamily": 1823,
      "|--------": 1824,
      "ley": 1825,
      "Ġassoci": 1826,
      "ĠNational": 1827,
      "ittle": 1828,
      "Ġaccount": 1829,
      "ills": 1830,
      "ĠBl": 1831,
      "Ġmembers": 1832,
      "ending": 1833,
      "Ġservices": 1834,
      "ĠDep": 1835,
      "ively": 1836,
      "Ġobs": 1837,
      "Ġrespons": 1838,
      "ĠSo": 1839,
      "sh": 1840,
      "Ġ100": 1841,
      "à¦": 1842,
      "Ġwar": 1843,
      "itor": 1844,
      "let": 1845,
      "ray": 1846,
      "ĠMed": 1847,
      "Ġbody": 1848,
      "ĠSu": 1849,
      "uture": 1850,
      "Ġbenef": 1851,
      "Ġline": 1852,
      "ians": 1853,
      "pro": 1854,
      "used": 1855,
      "atory": 1856,
      "ird": 1857,
      "Ġareas": 1858,
      "Ġcommunity": 1859,
      "Ġhead": 1860,
      "ĠCo": 1861,
      "Ġmove": 1862,
      "Ġsaf": 1863,
      "Ġoccur": 1864,
      "aff": 1865,
      "ĠIm": 1866,
      "ething": 1867,
      "Ġhome": 1868,
      "Ġtre": 1869,
      "aim": 1870,
      "ortun": 1871,
      "ober": 1872,
      "ĠFr": 1873,
      "Ġnear": 1874,
      "eral": 1875,
      "ured": 1876,
      "Ġparticip": 1877,
      "atural": 1878,
      "Ġpotential": 1879,
      "ours": 1880,
      "Ġuntil": 1881,
      "ĠReg": 1882,
      "Ġcertain": 1883,
      "Ġconsider": 1884,
      "Ġhapp": 1885,
      "ourn": 1886,
      "33": 1887,
      "ems": 1888,
      "frac": 1889,
      "ĠWhen": 1890,
      "Ġgr": 1891,
      "ler": 1892,
      "Ġimpact": 1893,
      "45": 1894,
      "Ġwomen": 1895,
      "Ġsuccess": 1896,
      "face": 1897,
      "use": 1898,
      "Ġestab": 1899,
      "Ġant": 1900,
      "We": 1901,
      "Ġmus": 1902,
      "Ġstat": 1903,
      "Ġthings": 1904,
      "ired": 1905,
      "Ġtot": 1906,
      "ĠPart": 1907,
      "Ġmil": 1908,
      "Ġopt": 1909,
      "Ġdescrib": 1910,
      "Ġteam": 1911,
      "yn": 1912,
      "ledge": 1913,
      "orts": 1914,
      "ately": 1915,
      "Ġlearn": 1916,
      "28": 1917,
      "err": 1918,
      "Ġcharacter": 1919,
      "ression": 1920,
      "verage": 1921,
      "ged": 1922,
      "Ġcomput": 1923,
      "26": 1924,
      "Ġgeneral": 1925,
      "Ġnecess": 1926,
      "ta": 1927,
      "ibility": 1928,
      "oot": 1929,
      "ators": 1930,
      "aken": 1931,
      "cer": 1932,
      "Ġtype": 1933,
      "ĠJohn": 1934,
      "Ġtimes": 1935,
      "Ġdays": 1936,
      "Ch": 1937,
      "Ġpolit": 1938,
      "uation": 1939,
      "oms": 1940,
      "urope": 1941,
      "Ġcourse": 1942,
      "Ġask": 1943,
      "cil": 1944,
      "Ġ23": 1945,
      "Ġspecific": 1946,
      "Ġcirc": 1947,
      "Ġbecome": 1948,
      "Ġdise": 1949,
      "itte": 1950,
      "cul": 1951,
      "ĠĠĠĠĠĠĠĠĠĠĠĠĠĠĠĠĠĠ": 1952,
      "Ġair": 1953,
      "Ġann": 1954,
      "Ġquestion": 1955,
      "aster": 1956,
      "Ġsystems": 1957,
      "27": 1958,
      "ĠShe": 1959,
      "Ġsomething": 1960,
      "Ġprovided": 1961,
      "Ġfoc": 1962,
      "Ġothers": 1963,
      "Ġearly": 1964,
      "cing": 1965,
      "Ġsubject": 1966,
      "ĠMe": 1967,
      "Ġinit": 1968,
      "Ġrespect": 1969,
      "Ġcomb": 1970,
      "ales": 1971,
      "rap": 1972,
      "Ġturn": 1973,
      "29": 1974,
      "ĠAm": 1975,
      "ĠCar": 1976,
      "Ġalong": 1977,
      "Ġmov": 1978,
      "ĠGod": 1979,
      "oks": 1980,
      "af": 1981,
      "ĠWor": 1982,
      "As": 1983,
      "though": 1984,
      "ication": 1985,
      "Ġkeep": 1986,
      "ĠCan": 1987,
      "ĠPol": 1988,
      "ms": 1989,
      "Ġlangu": 1990,
      "ĠBy": 1991,
      "cript": 1992,
      "Ġsimilar": 1993,
      "hold": 1994,
      "Ġdri": 1995,
      "Ġnext": 1996,
      "Ġvarious": 1997,
      "Ġspecial": 1998,
      "Ġleast": 1999,
      "Ġaddress": 2000,
      "ID": 2001,
      "Ġcho": 2002,
      "RO": 2003,
      "ĠChrist": 2004,
      "Ġrad": 2005,
      "ĠCO": 2006,
      "Ġservice": 2007,
      "Ġreturn": 2008,
      "Ġconditions": 2009,
      "iation": 2010,
      "Ġsugg": 2011,
      "Ġfree": 2012,
      "Ġsuggest": 2013,
      "80": 2014,
      "Ġfurther": 2015,
      "Ġlater": 2016,
      "Ġcome": 2017,
      "Ġput": 2018,
      "RE": 2019,
      "21": 2020,
      "Ġrate": 2021,
      "Ġmen": 2022,
      "Ġsum": 2023,
      "enn": 2024,
      "Ġhistory": 2025,
      "Ġenc": 2026,
      "rain": 2027,
      "ĠCount": 2028,
      "Ġreview": 2029,
      "ĠSec": 2030,
      "idd": 2031,
      "35": 2032,
      "Ġgoing": 2033,
      "Ġclear": 2034,
      "Ġ50": 2035,
      "rim": 2036,
      "Ġens": 2037,
      "ique": 2038,
      "wards": 2039,
      "Ġrelations": 2040,
      "iter": 2041,
      "imum": 2042,
      "Ġmot": 2043,
      "75": 2044,
      "Ġupon": 2045,
      "ges": 2046,
      "Ġable": 2047,
      "Ġwhether": 2048,
      "Ġtax": 2049,
      "ĠEurope": 2050,
      "ule": 2051,
      "ables": 2052,
      "Ġbi": 2053,
      "99": 2054,
      "Ġfuture": 2055,
      "ott": 2056,
      "Ġdocu": 2057,
      "Ġpress": 2058,
      "ape": 2059,
      "Ġ<": 2060,
      "ST": 2061,
      "itted": 2062,
      "aps": 2063,
      "ĠWhat": 2064,
      "Ġoffic": 2065,
      "ored": 2066,
      "Ġreason": 2067,
      "{\\": 2068,
      "Ġsays": 2069,
      "atch": 2070,
      "Ġspace": 2071,
      "âĢ¦": 2072,
      "ĠServ": 2073,
      "Ġlittle": 2074,
      "Ġchanges": 2075,
      "Ġhard": 2076,
      "Ġfeel": 2077,
      "ox": 2078,
      "Ġpropos": 2079,
      "An": 2080,
      "Ġshort": 2081,
      "reg": 2082,
      "Ġappear": 2083,
      "Ġmarket": 2084,
      "Ġdiff": 2085,
      "Ġanalysis": 2086,
      "|----------------": 2087,
      "Ġsw": 2088,
      "Ġcountry": 2089,
      "ĠStud": 2090,
      "alf": 2091,
      "minist": 2092,
      "ĠĠĠĠĠĠĠĠĠĠĠĠĠĠĠĠĠĠĠĠ": 2093,
      "Ġindust": 2094,
      "roll": 2095,
      "Ġfull": 2096,
      "ropri": 2097,
      "ids": 2098,
      "ĠĠĠĠĠĠĠĠĠĠĠĠĠĠĠĠĠĠĠ": 2099,
      "Ġaut": 2100,
      "iol": 2101,
      "rel": 2102,
      "Ġ21": 2103,
      "gether": 2104,
      "Ġmaking": 2105,
      "Ġtogether": 2106,
      "ĠThat": 2107,
      "oph": 2108,
      "II": 2109,
      "ush": 2110,
      ".)": 2111,
      "Ġbook": 2112,
      "Ġmanagement": 2113,
      "ides": 2114,
      "Ġmillion": 2115,
      "Ġprob": 2116,
      "Ġhold": 2117,
      "asing": 2118,
      "Ġleft": 2119,
      "Ġtotal": 2120,
      "apt": 2121,
      "ĠâĢĺ": 2122,
      "Ġincrease": 2123,
      "ittee": 2124,
      "'re": 2125,
      "ĠGu": 2126,
      "ING": 2127,
      "ume": 2128,
      "Ġcomplete": 2129,
      "ĠMin": 2130,
      "Ġalways": 2131,
      "ream": 2132,
      "iting": 2133,
      "Ġtru": 2134,
      "iam": 2135,
      "ĠJan": 2136,
      "Ġansw": 2137,
      "urity": 2138,
      "istic": 2139,
      "AM": 2140,
      "HE": 2141,
      "aces": 2142,
      "thing": 2143,
      "Ġlo": 2144,
      "Ġlearning": 2145,
      "ung": 2146,
      "Ġtry": 2147,
      "ĠCity": 2148,
      "Ġ26": 2149,
      "ĠCal": 2150,
      "amb": 2151,
      "Ġacross": 2152,
      "Ġdetail": 2153,
      "Ġhigher": 2154,
      "ĠGe": 2155,
      "36": 2156,
      "Ġflow": 2157,
      "Ġprofess": 2158,
      "utions": 2159,
      "Ġtext": 2160,
      "Ġgive": 2161,
      "oney": 2162,
      "ENT": 2163,
      "Ġage": 2164,
      "obal": 2165,
      "ones": 2166,
      "Ġà¤": 2167,
      "side": 2168,
      "urch": 2169,
      "Ġactivities": 2170,
      "Ġnever": 2171,
      "Ġkey": 2172,
      "Ġworking": 2173,
      "yl": 2174,
      "Ġhaving": 2175,
      "ribution": 2176,
      "ND": 2177,
      "Ġspecies": 2178,
      "rad": 2179,
      "usion": 2180,
      "Ġgre": 2181,
      "Ġreally": 2182,
      "Ġeducation": 2183,
      "Ġwhy": 2184,
      "ET": 2185,
      "||": 2186,
      "ĠNot": 2187,
      "Ġ28": 2188,
      "Ġpast": 2189,
      "Ġobserv": 2190,
      "ĠSchool": 2191,
      "epend": 2192,
      "Ġanim": 2193,
      "ires": 2194,
      "Ġprim": 2195,
      "Ġstrong": 2196,
      "ibr": 2197,
      "lease": 2198,
      "chie": 2199,
      "à¥": 2200,
      "ouncil": 2201,
      ");": 2202,
      "Ġsingle": 2203,
      "If": 2204,
      "ceed": 2205,
      "Ġregard": 2206,
      "Ġinteg": 2207,
      "iple": 2208,
      "Ġproblems": 2209,
      "Ġfinancial": 2210,
      "\".": 2211,
      "ivity": 2212,
      "90": 2213,
      "ociety": 2214,
      "Ġevent": 2215,
      "Ġneeds": 2216,
      "Ġ:": 2217,
      "Ġchall": 2218,
      "ĠEm": 2219,
      "}\\": 2220,
      "unt": 2221,
      "Ġfri": 2222,
      "34": 2223,
      "Ġele": 2224,
      "ĠâĢ¢": 2225,
      "Ġeither": 2226,
      "ĠAf": 2227,
      "ĠHealth": 2228,
      "Ġimplement": 2229,
      "Ġ22": 2230,
      "ĠPer": 2231,
      "ĠAb": 2232,
      "Ġassess": 2233,
      "Ġbehav": 2234,
      "onst": 2235,
      "ĠInt": 2236,
      "Ġlevels": 2237,
      "Ġnorm": 2238,
      "Ġstep": 2239,
      "Ġworks": 2240,
      "ternal": 2241,
      "ctions": 2242,
      "Ġpred": 2243,
      "ising": 2244,
      "aring": 2245,
      "78": 2246,
      "ipp": 2247,
      "Ġrelated": 2248,
      "Ġstrateg": 2249,
      "ĠOne": 2250,
      "son": 2251,
      "Ġsite": 2252,
      "etic": 2253,
      "Ġside": 2254,
      "For": 2255,
      "uses": 2256,
      "ĠOF": 2257,
      "Ġscient": 2258,
      "Ġimprove": 2259,
      "ister": 2260,
      "ĠĠĠĠĠĠĠĠĠĠĠĠĠĠĠĠĠĠĠĠĠ": 2261,
      "Ġver": 2262,
      "ney": 2263,
      "Ġtreatment": 2264,
      "Ġsection": 2265,
      "Ġhy": 2266,
      "Ġexperience": 2267,
      "action": 2268,
      "ules": 2269,
      "ery": 2270,
      "Ġhowever": 2271,
      "ask": 2272,
      "arc": 2273,
      "Ġfar": 2274,
      "ights": 2275,
      "eneral": 2276,
      "Ġterms": 2277,
      "Ġhtt": 2278,
      "icult": 2279,
      "ran": 2280,
      "Ġbelow": 2281,
      "lected": 2282,
      "Ġrole": 2283,
      "Ġgroups": 2284,
      "Ġcomplex": 2285,
      "ÂłÂł": 2286,
      "ene": 2287,
      ",âĢĿ": 2288,
      "38": 2289,
      "ĠRec": 2290,
      "Ġrecogn": 2291,
      "ĠQu": 2292,
      "ĠCons": 2293,
      "icro": 2294,
      "Ġ2012": 2295,
      "ournal": 2296,
      "Ġdeg": 2297,
      "ony": 2298,
      "ai": 2299,
      "Ġcreate": 2300,
      "sequ": 2301,
      "ison": 2302,
      "Ġnational": 2303,
      "EL": 2304,
      "ols": 2305,
      "Ġport": 2306,
      "Ġyoung": 2307,
      "Ġdom": 2308,
      "apter": 2309,
      "Ġill": 2310,
      "Ġkind": 2311,
      "Ġnatural": 2312,
      "go": 2313,
      "Ġneg": 2314,
      "Ġfail": 2315,
      "ĠWith": 2316,
      "now": 2317,
      "aining": 2318,
      "Ġvers": 2319,
      "atures": 2320,
      "Ġperformance": 2321,
      "ĠTrans": 2322,
      "urs": 2323,
      "Ġ40": 2324,
      "Ġhouse": 2325,
      "Ġ27": 2326,
      "Ġcreat": 2327,
      "Ġpain": 2328,
      "-----|": 2329,
      "Ġpopulation": 2330,
      "Ġissues": 2331,
      "Ġparent": 2332,
      "Ġcases": 2333,
      "44": 2334,
      "play": 2335,
      "UR": 2336,
      "Ġarg": 2337,
      "Ġapproach": 2338,
      "Ġconduct": 2339,
      "ulations": 2340,
      "acy": 2341,
      "39": 2342,
      "nces": 2343,
      "Ġpolicy": 2344,
      "Ġknowledge": 2345,
      "Ġprevent": 2346,
      "rect": 2347,
      "ĠSouth": 2348,
      "Ġground": 2349,
      "plic": 2350,
      "ĠYork": 2351,
      "Ġmeasure": 2352,
      "Ġsize": 2353,
      "Ġpub": 2354,
      "Ġcause": 2355,
      "isions": 2356,
      "ĠJu": 2357,
      "ĠInc": 2358,
      "65": 2359,
      "inary": 2360,
      "Ġprevious": 2361,
      "Ġappropri": 2362,
      "Ġbegin": 2363,
      "Ġlanguage": 2364,
      "ĠPr": 2365,
      "Ġvalues": 2366,
      "rated": 2367,
      "Ġresources": 2368,
      "wh": 2369,
      "OT": 2370,
      "hib": 2371,
      "ĠWorld": 2372,
      "Ġclaim": 2373,
      "IL": 2374,
      "ĠNorth": 2375,
      "Ġrange": 2376,
      "Ġrecomm": 2377,
      "uary": 2378,
      "Ġ29": 2379,
      "chan": 2380,
      "Ġposition": 2381,
      "Ġopportun": 2382,
      "Ġtaken": 2383,
      "Ġtemper": 2384,
      "ĠMarch": 2385,
      "Ġself": 2386,
      "ĠWar": 2387,
      "cle": 2388,
      "Ġ2010": 2389,
      "augh": 2390,
      "Ġconsidered": 2391,
      "ĠPar": 2392,
      "otal": 2393,
      "ĠPre": 2394,
      "Ġinflu": 2395,
      "onse": 2396,
      "ready": 2397,
      "oll": 2398,
      "Ġwr": 2399,
      "Ġachie": 2400,
      "Ġaway": 2401,
      "ĠDepartment": 2402,
      "atives": 2403,
      "ĠĠĠĠĠĠĠĠĠĠĠĠĠĠĠĠĠĠĠĠĠĠĠ": 2404,
      "Ġrelationship": 2405,
      "ĠAug": 2406,
      "Ġquality": 2407,
      "Ġlikely": 2408,
      "opy": 2409,
      "ustom": 2410,
      "Ġ#": 2411,
      "Ġdisease": 2412,
      "Ġgrowth": 2413,
      "Ġprinc": 2414,
      "duc": 2415,
      "rate": 2416,
      "most": 2417,
      "rug": 2418,
      "Ġ2011": 2419,
      "Ġloss": 2420,
      "ĠOct": 2421,
      "Ġcountries": 2422,
      "ĠApr": 2423,
      "Ġcompet": 2424,
      "izing": 2425,
      "ĠCor": 2426,
      "Ġpriv": 2427,
      "ength": 2428,
      "ĠEar": 2429,
      "Ġnecessary": 2430,
      "urb": 2431,
      "Ġconcern": 2432,
      "Ġmaintain": 2433,
      "Ġevidence": 2434,
      "Ġstudies": 2435,
      "Ġaccept": 2436,
      "Ġess": 2437,
      "ival": 2438,
      "Ġblood": 2439,
      "Ġbuilding": 2440,
      "202": 2441,
      "ĠJune": 2442,
      "Ġenough": 2443,
      "ederal": 2444,
      "Ġlower": 2445,
      "Ġdone": 2446,
      "gress": 2447,
      "selves": 2448,
      "ilt": 2449,
      "iber": 2450,
      "Ġagree": 2451,
      "Ġprior": 2452,
      "arget": 2453,
      "48": 2454,
      "Ġclose": 2455,
      "ĠFl": 2456,
      "oura": 2457,
      "oman": 2458,
      "www": 2459,
      "Ġ31": 2460,
      "05": 2461,
      "Ġdeb": 2462,
      "lex": 2463,
      "ĠGerm": 2464,
      "Ġsuper": 2465,
      "37": 2466,
      "Ġabs": 2467,
      "âĢľ": 2468,
      "Ġconcept": 2469,
      "Ġdam": 2470,
      "ried": 2471,
      "utes": 2472,
      "ĠCounty": 2473,
      "ĠTra": 2474,
      "Ġrather": 2475,
      "Ġquestions": 2476,
      "uck": 2477,
      "cember": 2478,
      "Ġaction": 2479,
      "Ġeffects": 2480,
      "Ġdeath": 2481,
      "ands": 2482,
      "ĠFin": 2483,
      "verse": 2484,
      "erson": 2485,
      "lege": 2486,
      "ae": 2487,
      "Ġassociated": 2488,
      "part": 2489,
      "----------------------------------------------------------------": 2490,
      "Ġsens": 2491,
      "gen": 2492,
      "ĠIN": 2493,
      "ĠDes": 2494,
      "Ġalready": 2495,
      "IV": 2496,
      "Ġsat": 2497,
      "Ġobtain": 2498,
      "Ġdifficult": 2499,
      "itud": 2500,
      "rand": 2501,
      "EM": 2502,
      "my": 2503,
      "omes": 2504,
      "Ġfrequ": 2505,
      "CH": 2506,
      "Ġcompany": 2507,
      "pose": 2508,
      "ees": 2509,
      "Ġsent": 2510,
      "Ġfive": 2511,
      "Ġshare": 2512,
      "Ġwords": 2513,
      "aging": 2514,
      "aries": 2515,
      "ĠAust": 2516,
      "aged": 2517,
      "Ġcity": 2518,
      "Ġbig": 2519,
      "istics": 2520,
      "95": 2521,
      "Ġteac": 2522,
      "Ġreported": 2523,
      "Ġcoll": 2524,
      "sych": 2525,
      "vey": 2526,
      "ctor": 2527,
      "Ġeval": 2528,
      "Ġstandard": 2529,
      "Ġwind": 2530,
      "cription": 2531,
      "omet": 2532,
      "empt": 2533,
      "Ġproduction": 2534,
      "ĠSept": 2535,
      "iences": 2536,
      "ecially": 2537,
      "adem": 2538,
      "Ġconsum": 2539,
      "itation": 2540,
      "lying": 2541,
      "Ġtechnology": 2542,
      "Ġpatients": 2543,
      "ĠAfric": 2544,
      "Ġrights": 2545,
      "To": 2546,
      "Ġintrodu": 2547,
      "Ġprovides": 2548,
      "Ġdr": 2549,
      "ners": 2550,
      "Al": 2551,
      "ĠBrit": 2552,
      "Ġsepar": 2553,
      "aced": 2554,
      "Ġcells": 2555,
      "Ġtoday": 2556,
      "illed": 2557,
      "Ġstudent": 2558,
      "iction": 2559,
      "Ġcontract": 2560,
      "Ġaccording": 2561,
      "Ġvir": 2562,
      "Ġmakes": 2563,
      "yle": 2564,
      "Ġpolitical": 2565,
      "31": 2566,
      "Ġimm": 2567,
      "32": 2568,
      "ĊĠĠĠ": 2569,
      "ĠBoard": 2570,
      "Ġcannot": 2571,
      "overed": 2572,
      "aching": 2573,
      "Â°": 2574,
      "oring": 2575,
      "ĠDo": 2576,
      "Ġrepl": 2577,
      "Ġcy": 2578,
      "Ġapplication": 2579,
      "ditional": 2580,
      "Ġdate": 2581,
      "Ġpoints": 2582,
      "ĠĠĠĠĠĠĠĠĠĠĠĠĠĠĠĠĠĠĠĠĠĠ": 2583,
      "Ġunderstanding": 2584,
      "Ġpaper": 2585,
      "fact": 2586,
      "What": 2587,
      "Ġweek": 2588,
      "Ġbecame": 2589,
      "istance": 2590,
      "Ġseen": 2591,
      "Ġeconomic": 2592,
      "Ġtraining": 2593,
      "Ġ,": 2594,
      "Ġadditional": 2595,
      "Ġ2009": 2596,
      "iate": 2597,
      "55": 2598,
      "Ġla": 2599,
      "Ġestim": 2600,
      "46": 2601,
      "Ġ2013": 2602,
      "Ġrequest": 2603,
      "ront": 2604,
      "ev": 2605,
      "Ġ2008": 2606,
      "Ġincluded": 2607,
      "Ġsure": 2608,
      "Ġtell": 2609,
      "Ġmass": 2610,
      "Ex": 2611,
      "ension": 2612,
      "There": 2613,
      "especially": 2614,
      "Ġplant": 2615,
      "}}": 2616,
      "AP": 2617,
      "Ġmonths": 2618,
      "anced": 2619,
      "47": 2620,
      "\",": 2621,
      "Ġcontact": 2622,
      "Ġlog": 2623,
      "Ġproperty": 2624,
      "ĠCouncil": 2625,
      "Ġsurface": 2626,
      "Ġneeded": 2627,
      "mit": 2628,
      "Ġlot": 2629,
      "Ġheld": 2630,
      "ĠDecember": 2631,
      "Ġheart": 2632,
      "Ġmoney": 2633,
      "Ġhours": 2634,
      "Ġshown": 2635,
      "Ġgame": 2636,
      "uel": 2637,
      "ches": 2638,
      "ĠAcc": 2639,
      "Ġjob": 2640,
      "ĠGeneral": 2641,
      "Ġonce": 2642,
      "ivil": 2643,
      "ii": 2644,
      "ections": 2645,
      "Ġreceived": 2646,
      "ĠPres": 2647,
      "based": 2648,
      "ĠMr": 2649,
      "Ġever": 2650,
      "Ġey": 2651,
      "Ġactivity": 2652,
      "ĠMc": 2653,
      "Ġsource": 2654,
      "ties": 2655,
      "Ġincreased": 2656,
      "ze": 2657,
      "Ġphot": 2658,
      "igation": 2659,
      "co": 2660,
      "].": 2661,
      "US": 2662,
      "Ġthought": 2663,
      "ites": 2664,
      "bo": 2665,
      "ĠWill": 2666,
      "Ġbar": 2667,
      "Ġdeveloped": 2668,
      "Ġcred": 2669,
      "Ġproducts": 2670,
      "Ġcompon": 2671,
      "ĠEnglish": 2672,
      "ĠApril": 2673,
      "ĠJuly": 2674,
      "Ġproced": 2675,
      "ĠDirect": 2676,
      "Ġconsist": 2677,
      "Ġstructure": 2678,
      "ĠEd": 2679,
      "Ġ197": 2680,
      "Ġhistor": 2681,
      "inter": 2682,
      "Ġtypes": 2683,
      "atter": 2684,
      "Ġaverage": 2685,
      "Ġwhole": 2686,
      "ĠEduc": 2687,
      "ĠPlan": 2688,
      "Ġpersonal": 2689,
      "Ġcr": 2690,
      "(\\": 2691,
      "49": 2692,
      "Ġusually": 2693,
      "Ġcame": 2694,
      "Ġways": 2695,
      "ĠDr": 2696,
      "Ġfall": 2697,
      "ences": 2698,
      "Ġeffic": 2699,
      "Ġut": 2700,
      "Ġpractice": 2701,
      "ump": 2702,
      "ĠSome": 2703,
      "ows": 2704,
      "Ġphysical": 2705,
      "ATION": 2706,
      "ĠHar": 2707,
      "``": 2708,
      "ĠCompany": 2709,
      "Ġstory": 2710,
      "Ġseries": 2711,
      "ĠResearch": 2712,
      "Ġlay": 2713,
      "Ġdocument": 2714,
      "Ġengine": 2715,
      "ened": 2716,
      "na": 2717,
      "ĊĊĠĠĠ": 2718,
      "ĠFeb": 2719,
      "Pro": 2720,
      "Ġstates": 2721,
      "Ġissue": 2722,
      "ĠJanuary": 2723,
      "ype": 2724,
      "Ġprograms": 2725,
      "-------|": 2726,
      "Ġsym": 2727,
      "'m": 2728,
      "Ġsubst": 2729,
      "66": 2730,
      "Ġnature": 2731,
      "ĠSeptember": 2732,
      "Ġlab": 2733,
      "Ġentire": 2734,
      "Ġpath": 2735,
      "ault": 2736,
      "Ġshows": 2737,
      "itary": 2738,
      "Ġcamp": 2739,
      "Ġsound": 2740,
      "Ġge": 2741,
      "mission": 2742,
      "Ġespecially": 2743,
      "name": 2744,
      "irm": 2745,
      "vant": 2746,
      "ille": 2747,
      "Ġblack": 2748,
      "ĠAc": 2749,
      "ĠEl": 2750,
      "ĠDist": 2751,
      "umb": 2752,
      ")$": 2753,
      "eak": 2754,
      ":**": 2755,
      "Ġwritten": 2756,
      "acks": 2757,
      "Ġyet": 2758,
      "mitted": 2759,
      "Ġappl": 2760,
      "OL": 2761,
      "iment": 2762,
      "iff": 2763,
      "Ġadj": 2764,
      "eal": 2765,
      "Ġtarget": 2766,
      "Ġevents": 2767,
      "raft": 2768,
      "ster": 2769,
      "ĠHist": 2770,
      "imately": 2771,
      "ĠAugust": 2772,
      "Ġmess": 2773,
      "AD": 2774,
      "fully": 2775,
      "ores": 2776,
      "ched": 2777,
      "Ġfocus": 2778,
      "Ġsix": 2779,
      "ises": 2780,
      "Ġviol": 2781,
      "aves": 2782,
      "Ġmind": 2783,
      "ĠAfter": 2784,
      "erve": 2785,
      "Ġeffective": 2786,
      "Ġcosts": 2787,
      "Ġrev": 2788,
      "ĠOther": 2789,
      "Ġexc": 2790,
      "reet": 2791,
      "Ġfactors": 2792,
      "Ġdig": 2793,
      "Ġcalcul": 2794,
      "Ġchem": 2795,
      "ief": 2796,
      "equ": 2797,
      "ada": 2798,
      "Ġpositive": 2799,
      "Ġpage": 2800,
      "Ġtalk": 2801,
      "Ġsoft": 2802,
      "ĠBar": 2803,
      "Ġtook": 2804,
      "su": 2805,
      "Ġaud": 2806,
      "ĠII": 2807,
      "Ġresponse": 2808,
      "Ġcentury": 2809,
      "Ġmethods": 2810,
      "Ġrequirements": 2811,
      "ovember": 2812,
      "ender": 2813,
      "ging": 2814,
      "ĠVal": 2815,
      "Ġindividuals": 2816,
      "rown": 2817,
      "68": 2818,
      "Ġred": 2819,
      "ĠSch": 2820,
      "Ġcut": 2821,
      "cies": 2822,
      "oor": 2823,
      "Ġensure": 2824,
      "Ġactually": 2825,
      "icip": 2826,
      "Ġmaterials": 2827,
      "Ġhalf": 2828,
      "ĠHis": 2829,
      "Ġstaff": 2830,
      "set": 2831,
      "Ġliter": 2832,
      "Ġ2007": 2833,
      "Ġwhite": 2834,
      "lin": 2835,
      "icles": 2836,
      "Ġlive": 2837,
      "Ġinstit": 2838,
      "Ġfamil": 2839,
      "ĠCommun": 2840,
      "ĠDevelop": 2841,
      "Ġcheck": 2842,
      "Ġetc": 2843,
      "Ġmor": 2844,
      "Ġmeeting": 2845,
      "Ġsett": 2846,
      "Ġder": 2847,
      "ĠÂ·": 2848,
      "Ġrelig": 2849,
      "ĠChar": 2850,
      "ington": 2851,
      "Ġappropriate": 2852,
      "itle": 2853,
      "ĠProgram": 2854,
      "ĠInternational": 2855,
      "oon": 2856,
      "ached": 2857,
      "ĠPa": 2858,
      "ĠOctober": 2859,
      "iddle": 2860,
      "Ġscience": 2861,
      "wise": 2862,
      "ops": 2863,
      "Ġ60": 2864,
      "Ġsex": 2865,
      "'ve": 2866,
      "ĠInstit": 2867,
      "Ġexpress": 2868,
      "pper": 2869,
      "ĠAmerica": 2870,
      "Ġword": 2871,
      "Ġmechan": 2872,
      "*,": 2873,
      "Ġmatter": 2874,
      "ĠGl": 2875,
      "Ġnetwork": 2876,
      "Ġtrue": 2877,
      "Ġsimple": 2878,
      "Ġmedical": 2879,
      "sup": 2880,
      "ĠĠĠĠĠĠĠĠĠĠĠĠĠĠĠĠĠĠĠĠĠĠĠĠĠ": 2881,
      "ï¬": 2882,
      "98": 2883,
      "Ġaffect": 2884,
      "Ġincludes": 2885,
      "43": 2886,
      "rast": 2887,
      "ĠArt": 2888,
      "Ġcode": 2889,
      "Ġpattern": 2890,
      "Ġprotect": 2891,
      "like": 2892,
      "aut": 2893,
      "ey": 2894,
      "100": 2895,
      "iet": 2896,
      "UT": 2897,
      "resp": 2898,
      "Ġmax": 2899,
      "see": 2900,
      "ĠOff": 2901,
      "Ġflu": 2902,
      "bon": 2903,
      "67": 2904,
      "ĠCour": 2905,
      "Ġcustom": 2906,
      "Ġfram": 2907,
      "Ġoriginal": 2908,
      "Ġrelative": 2909,
      "ift": 2910,
      "Ġmember": 2911,
      "Ġthing": 2912,
      "ĠST": 2913,
      "Ġregion": 2914,
      "uk": 2915,
      "arily": 2916,
      "ĠSystem": 2917,
      "lt": 2918,
      "hing": 2919,
      "08": 2920,
      "mon": 2921,
      "Ġanswer": 2922,
      "You": 2923,
      "Ġfinal": 2924,
      "Ġdest": 2925,
      "Ġglobal": 2926,
      "Ġthemselves": 2927,
      "ĠSub": 2928,
      "Ġseem": 2929,
      "Ġcreated": 2930,
      "LE": 2931,
      "Ġunit": 2932,
      "ips": 2933,
      "amed": 2934,
      "Ġitself": 2935,
      "Ġexcept": 2936,
      "Ġsal": 2937,
      "Ġdecision": 2938,
      "hel": 2939,
      "Ġ\\)": 2940,
      "Ġchalleng": 2941,
      "ening": 2942,
      "Ġemerg": 2943,
      "hood": 2944,
      "Ġgot": 2945,
      "Ġemb": 2946,
      "Ġcancer": 2947,
      "ĠCenter": 2948,
      "ector": 2949,
      "Ġlink": 2950,
      "Ġcondition": 2951,
      "reme": 2952,
      "How": 2953,
      "On": 2954,
      "bb": 2955,
      "Ġonline": 2956,
      "ĠSm": 2957,
      "Ġbir": 2958,
      "ipment": 2959,
      "Ġrefer": 2960,
      "Ġindepend": 2961,
      "ground": 2962,
      "Ġliving": 2963,
      "ixed": 2964,
      "Ġadminist": 2965,
      "Ġ$$": 2966,
      "rew": 2967,
      "ĠĠĠĠĠĠĠĠĠĠĠĠĠĠĠĠĠĠĠĠĠĠĠĠ": 2968,
      "Ġmusic": 2969,
      "ĊĠĠ": 2970,
      "ĠCommittee": 2971,
      "ĠMod": 2972,
      "Ġgas": 2973,
      "Ġ2018": 2974,
      "Ġthroughout": 2975,
      "Ġskills": 2976,
      "Ġprec": 2977,
      "ided": 2978,
      "Ġinternational": 2979,
      "anks": 2980,
      "apan": 2981,
      "ĠFund": 2982,
      "Ġnumbers": 2983,
      "reng": 2984,
      "Ġidea": 2985,
      "ana": 2986,
      "inated": 2987,
      "Ġessential": 2988,
      "Ġdrug": 2989,
      "Ġdefin": 2990,
      "Ġthird": 2991,
      "ensive": 2992,
      "'ll": 2993,
      "ruary": 2994,
      "Ġoil": 2995,
      "ĠAssoci": 2996,
      "ares": 2997,
      "Ġerr": 2998,
      "vest": 2999,
      "ĠGroup": 3000,
      "Ġfile": 3001,
      "off": 3002,
      "rec": 3003,
      "ecut": 3004,
      "Ġarch": 3005,
      "Ġdemonst": 3006,
      "Ġcorrect": 3007,
      "---|---|": 3008,
      "oper": 3009,
      "Ġsqu": 3010,
      "Ġtheory": 3011,
      "ply": 3012,
      "ĠNovember": 3013,
      "ĠMon": 3014,
      "58": 3015,
      "Ġbasis": 3016,
      "Ġenvironmental": 3017,
      "Ġwide": 3018,
      "anies": 3019,
      "Ġtaking": 3020,
      "Ġcontinue": 3021,
      "Ġpublished": 3022,
      "ĠHigh": 3023,
      "Ġbr": 3024,
      "CC": 3025,
      "ura": 3026,
      "Ġ2020": 3027,
      "estern": 3028,
      "gest": 3029,
      "Ġsense": 3030,
      "Ġresearc": 3031,
      "Ġ{": 3032,
      "Ġcapital": 3033,
      "fficient": 3034,
      "Ġinvolved": 3035,
      "Ġdescribed": 3036,
      "left": 3037,
      "Ġbegan": 3038,
      "Ġdeal": 3039,
      "Ġgreater": 3040,
      "ym": 3041,
      "Ġability": 3042,
      "Ġdoing": 3043,
      "ham": 3044,
      "Ġbound": 3045,
      "Ġcollect": 3046,
      "ĠInter": 3047,
      "urg": 3048,
      "ĠWest": 3049,
      "ĠTHE": 3050,
      "Ġalmost": 3051,
      "ĠSw": 3052,
      "OS": 3053,
      "Ġord": 3054,
      "ĠTechn": 3055,
      "07": 3056,
      "Ġproposed": 3057,
      "Ġri": 3058,
      "Ġ2006": 3059,
      "Ġbal": 3060,
      "Ġincreasing": 3061,
      "ĠCommission": 3062,
      "Ġwa": 3063,
      "Ġparam": 3064,
      "Ġpressure": 3065,
      "42": 3066,
      "ino": 3067,
      "ivision": 3068,
      "Ġhttp": 3069,
      "Ġjud": 3070,
      "Ġ2017": 3071,
      "Ġsafety": 3072,
      "Ġcontent": 3073,
      "Ġlove": 3074,
      "Ġ2015": 3075,
      "Ġcompl": 3076,
      "Ġseason": 3077,
      "ider": 3078,
      "NA": 3079,
      "41": 3080,
      "ĠEducation": 3081,
      "Ġquant": 3082,
      "Ġparts": 3083,
      "Ġindustry": 3084,
      "Ġ35": 3085,
      "cal": 3086,
      "Ġmodern": 3087,
      "Ġlength": 3088,
      "come": 3089,
      "Ġbelieve": 3090,
      "Ġcross": 3091,
      "Ġfire": 3092,
      "bl": 3093,
      "ĠSpec": 3094,
      "Ġlimited": 3095,
      "97": 3096,
      "ĠDav": 3097,
      "Ġcontribut": 3098,
      "ĠScience": 3099,
      "Ġtravel": 3100,
      "ĠPe": 3101,
      "IP": 3102,
      "EP": 3103,
      "96": 3104,
      "Ġrecent": 3105,
      "Ġforce": 3106,
      "ĠFirst": 3107,
      "ĠAustral": 3108,
      "osure": 3109,
      "Ġarticle": 3110,
      "Ġ2016": 3111,
      "het": 3112,
      "itch": 3113,
      "ĠIS": 3114,
      "ĠDis": 3115,
      "ĠUs": 3116,
      "Ġregular": 3117,
      "aly": 3118,
      "Ġaltern": 3119,
      "Ġdou": 3120,
      "06": 3121,
      "rial": 3122,
      "Ġoutside": 3123,
      "ĠMore": 3124,
      "ese": 3125,
      "iance": 3126,
      "ĠĠĠĠĠĠĠĠĠĠĠĠĠĠĠĠĠĠĠĠĠĠĠĠĠĠ": 3127,
      "Ġtemperature": 3128,
      "Ġinstead": 3129,
      "udget": 3130,
      "Ġcontext": 3131,
      "aches": 3132,
      "Ġestablished": 3133,
      "ĠMy": 3134,
      "Ġweight": 3135,
      "ha": 3136,
      "ĠAND": 3137,
      "cell": 3138,
      "Ġlin": 3139,
      "Ġadop": 3140,
      "MS": 3141,
      "aving": 3142,
      "Ġ>": 3143,
      "Ġcomputer": 3144,
      "urance": 3145,
      "Ġdesigned": 3146,
      "Ġfarm": 3147,
      "elling": 3148,
      "Ġdefined": 3149,
      "Ġmultiple": 3150,
      "ager": 3151,
      "Ġbreak": 3152,
      "Ġep": 3153,
      "nov": 3154,
      "issions": 3155,
      "imal": 3156,
      "Ġnormal": 3157,
      "Ġanaly": 3158,
      "Ġapprox": 3159,
      "Ġquick": 3160,
      "Ġmach": 3161,
      "Ġtable": 3162,
      "ervation": 3163,
      "Ġremov": 3164,
      "ĠPublic": 3165,
      "Ġface": 3166,
      "03": 3167,
      "Ġful": 3168,
      "ĠLaw": 3169,
      "Ġdistribution": 3170,
      "Ġinstall": 3171,
      "Ġ2014": 3172,
      "Ġprep": 3173,
      "Ġbroad": 3174,
      "ĠLet": 3175,
      "Ġidentify": 3176,
      "Ġfeed": 3177,
      "Ġsomeone": 3178,
      "ĠReport": 3179,
      "$,": 3180,
      "ĠPark": 3181,
      "Ġreduce": 3182,
      "lear": 3183,
      "vention": 3184,
      "dom": 3185,
      "lation": 3186,
      "ufact": 3187,
      "ming": 3188,
      "ography": 3189,
      "Ġcomes": 3190,
      "ĠSim": 3191,
      "Ġattempt": 3192,
      "ricult": 3193,
      "Ġcover": 3194,
      "Ġincome": 3195,
      "Ġdoesn": 3196,
      "Ġtowards": 3197,
      "ĠKing": 3198,
      "Ġimage": 3199,
      "Ġbring": 3200,
      "Ġuses": 3201,
      "asc": 3202,
      "Ġcoun": 3203,
      "ned": 3204,
      "iques": 3205,
      "Ġcompared": 3206,
      "Ġsust": 3207,
      "den": 3208,
      "Ġden": 3209,
      "bor": 3210,
      "where": 3211,
      "ĠFebruary": 3212,
      "ĠÃ": 3213,
      "88": 3214,
      "acc": 3215,
      "When": 3216,
      "acity": 3217,
      "Ġrates": 3218,
      "ĠInst": 3219,
      "Ġbehavior": 3220,
      "Ġmom": 3221,
      "Ġpack": 3222,
      "ĠSee": 3223,
      "Ġmodels": 3224,
      "Ġencoura": 3225,
      "ronic": 3226,
      "ults": 3227,
      "Ġassum": 3228,
      "ĠJapan": 3229,
      "back": 3230,
      "Ġpurpose": 3231,
      "Ġlonger": 3232,
      "istry": 3233,
      "57": 3234,
      "ibrary": 3235,
      "IR": 3236,
      "Ġsecurity": 3237,
      "Ġ2019": 3238,
      "Ġunique": 3239,
      "Ġfav": 3240,
      "ĠĠĠĠĠĠĠĠĠĠĠĠĠĠĠĠĠĠĠĠĠĠĠĠĠĠĠĠ": 3241,
      "encies": 3242,
      "oly": 3243,
      "itude": 3244,
      "Ġavoid": 3245,
      "Ġsolution": 3246,
      "ĠEuropean": 3247,
      "respond": 3248,
      "umber": 3249,
      "astic": 3250,
      "Ġbit": 3251,
      "Ġ...": 3252,
      "Ġstreng": 3253,
      "Ġelements": 3254,
      "example": 3255,
      "osis": 3256,
      "CT": 3257,
      "Ġexisting": 3258,
      "Ġ2005": 3259,
      "Ġmeaning": 3260,
      "Ġdraw": 3261,
      "ridge": 3262,
      "Ġdeep": 3263,
      "He": 3264,
      "lands": 3265,
      "Ġexpected": 3266,
      "rix": 3267,
      "Ġpp": 3268,
      "time": 3269,
      "rant": 3270,
      "Ġheav": 3271,
      "Ġvide": 3272,
      "vere": 3273,
      "Ġsequ": 3274,
      "Ġbase": 3275,
      "Ġbenefits": 3276,
      "Ġlegal": 3277,
      "Ġtherefore": 3278,
      "09": 3279,
      "ĠPress": 3280,
      "Ġmicro": 3281,
      "ĠJew": 3282,
      "Ad": 3283,
      "sec": 3284,
      "Ġinterp": 3285,
      "ero": 3286,
      "ipl": 3287,
      "ĠWhile": 3288,
      "Ġparents": 3289,
      "Ġsomet": 3290,
      "year": 3291,
      "actions": 3292,
      "Ġ2021": 3293,
      "Ġtransport": 3294,
      "Ġce": 3295,
      "Ġaspect": 3296,
      "ls": 3297,
      "Ġago": 3298,
      "CO": 3299,
      "ĠSection": 3300,
      "lam": 3301,
      "ĠRet": 3302,
      "Ġthus": 3303,
      "pped": 3304,
      "olic": 3305,
      "Ġexerc": 3306,
      "iforn": 3307,
      "Ġprojects": 3308,
      "light": 3309,
      "Ġschools": 3310,
      "hemat": 3311,
      "rie": 3312,
      "oles": 3313,
      "ĠPresident": 3314,
      "Ġestablish": 3315,
      "Ġprivate": 3316,
      "Ġang": 3317,
      "Ġparticularly": 3318,
      "ynam": 3319,
      "Ġdirectly": 3320,
      "Ġinput": 3321,
      "Ġdetermine": 3322,
      "Ġexpect": 3323,
      "Ġwriting": 3324,
      "MP": 3325,
      "Ġroad": 3326,
      "Ġadded": 3327,
      "ĠBu": 3328,
      "Ġsociety": 3329,
      "Ġdifference": 3330,
      "Ġsources": 3331,
      "ĠNe": 3332,
      "Ġveh": 3333,
      "era": 3334,
      "56": 3335,
      "$.": 3336,
      "Ġgenerally": 3337,
      "rs": 3338,
      "But": 3339,
      "Ġimmed": 3340,
      "\\(": 3341,
      "Ġwebs": 3342,
      "ĠNet": 3343,
      "rench": 3344,
      "Ġofficial": 3345,
      "airs": 3346,
      "erous": 3347,
      "otes": 3348,
      "izations": 3349,
      "Ġguid": 3350,
      "osing": 3351,
      "mar": 3352,
      "Ġasked": 3353,
      "Ġbur": 3354,
      "head": 3355,
      "ĠĠĠĠĠĠĠĠĠĠĠĠĠĠĠĠĠĠĠĠĠĠĠĠĠĠĠĠĠĠĠĠĠĠĠĠĠĠĠĠĠĠĠĠĠĠĠĠĠĠĠĠĠĠĠĠĠĠĠĠĠĠĠĠĠĠĠĠĠĠĠĠĠĠĠĠĠĠĠĠĠĠĠĠĠĠĠĠĠĠĠĠĠĠĠĠĠĠĠĠĠĠĠĠĠĠĠĠĠĠĠĠĠĠĠĠĠĠĠĠĠĠĠĠĠĠĠĠĠĠĠĠĠĠĠĠĠĠĠĠĠĠĠĠĠĠĠĠĠĠĠĠĠĠĠĠĠĠĠĠĠĠĠĠĠĠĠĠĠĠĠĠĠĠĠĠĠĠĠĠĠĠĠĠĠĠĠĠĠĠĠĠĠĠĠĠĠĠĠĠĠĠĠĠĠĠĠĠĠĠĠĠĠĠĠĠĠĠĠĠĠĠĠĠĠĠĠĠĠĠĠĠĠĠĠĠĠĠĠĠĠĠĠĠĠĠĠĠĠĠĠĠĠĠĠĠĠĠĠĠĠĠĠĠĠĠĠĠĠĠĠĠĠĠĠĠĠĠĠĠĠĠĠĠĠĠĠĠĠĠĠĠĠĠĠĠĠĠĠĠĠĠĠĠĠĠĠĠĠĠĠĠĠĠĠĠĠĠĠĠĠĠĠĠĠĠĠĠĠĠĠĠĠĠĠĠĠĠĠĠĠĠĠĠĠĠĠĠĠĠĠĠĠĠĠĠĠĠĠĠĠĠĠĠĠĠĠĠĠĠĠĠĠĠĠĠĠĠĠĠĠĠĠĠĠĠĠĠĠĠĠĠĠĠĠĠĠĠĠĠĠĠĠĠĠĠĠĠĠĠĠĠĠĠĠĠĠĠĠĠĠĠĠĠĠĠĠĠĠĠĠĠĠĠĠĠĠĠĠĠĠĠĠĠĠĠĠĠĠĠĠĠĠĠĠĠĠĠĠĠĠĠĠĠĠĠĠĠĠĠĠĠĠĠĠĠĠĠĠĠĠĠĠĠĠĠĠĠĠĠĠĠĠĠĠĠĠĠĠĠĠĠĠĠĠĠĠĠĠĠĠĠ": 3356,
      "omp": 3357,
      "Ġjo": 3358,
      "ĠYear": 3359,
      "ĠTw": 3360,
      "ama": 3361,
      "Ġclimate": 3362,
      "Ġmagn": 3363,
      "Ġcontinu": 3364,
      "ĠMat": 3365,
      "Ġforms": 3366,
      "Ġconstruction": 3367,
      "Ġconcent": 3368,
      "Ġcourt": 3369,
      "cont": 3370,
      "ĠProject": 3371,
      "Ġoffer": 3372,
      "Ġbuilt": 3373,
      "Ġcapt": 3374,
      "Ġrespond": 3375,
      "rought": 3376,
      "Ġbrain": 3377,
      "Ġstarted": 3378,
      "attle": 3379,
      "ession": 3380,
      "ĠDevelopment": 3381,
      "ifornia": 3382,
      "order": 3383,
      "Ġfunctions": 3384,
      "Ġsimply": 3385,
      "UN": 3386,
      "irit": 3387,
      "Ġprice": 3388,
      "che": 3389,
      "Ġtransfer": 3390,
      "04": 3391,
      "Ġprobably": 3392,
      "Ġcateg": 3393,
      "Ġled": 3394,
      "Ġinform": 3395,
      "rm": 3396,
      "AB": 3397,
      "IG": 3398,
      "Ġrat": 3399,
      "Ġprimary": 3400,
      "Ġwent": 3401,
      "Ġqual": 3402,
      "osition": 3403,
      "abilities": 3404,
      "Ġplants": 3405,
      "ils": 3406,
      "Ġ2000": 3407,
      "elt": 3408,
      "ĠEarth": 3409,
      "Ġfront": 3410,
      "lim": 3411,
      "vert": 3412,
      "ford": 3413,
      "Ġfeatures": 3414,
      "ĠBritish": 3415,
      "Ġrules": 3416,
      "Ġcompanies": 3417,
      "gor": 3418,
      "Ġsometimes": 3419,
      "eters": 3420,
      "ĪĴ": 3421,
      "itting": 3422,
      "Ġprogress": 3423,
      "lier": 3424,
      "Ġlate": 3425,
      "Ġleaders": 3426,
      "term": 3427,
      "igned": 3428,
      "iency": 3429,
      "Ġpict": 3430,
      "ball": 3431,
      "________________________________": 3432,
      "br": 3433,
      "77": 3434,
      "Ġlocated": 3435,
      "Ġcontain": 3436,
      "64": 3437,
      "Ġtown": 3438,
      "ĠAre": 3439,
      "aily": 3440,
      "ulated": 3441,
      "Ġmedia": 3442,
      "Ã¡": 3443,
      "Ġsus": 3444,
      "Ġrout": 3445,
      "Ġspeed": 3446,
      "Ġpurch": 3447,
      "ĠRed": 3448,
      "Ġsam": 3449,
      "abit": 3450,
      "Ġelse": 3451,
      "Ġcommunities": 3452,
      "Ġgovern": 3453,
      "ĠFrom": 3454,
      "bit": 3455,
      "Ġuser": 3456,
      "overy": 3457,
      "And": 3458,
      "ĠDec": 3459,
      "ĠManagement": 3460,
      "Ġste": 3461,
      "Ġfoot": 3462,
      "Ġequipment": 3463,
      "ĠTotal": 3464,
      "Ġund": 3465,
      "change": 3466,
      "Ġcritical": 3467,
      "ĠĠĠĠĠĠĠĠĠĠĠĠĠĠĠĠĠĠĠĠĠĠĠĠĠĠĠ": 3468,
      "ius": 3469,
      "Ġallows": 3470,
      "ĠMark": 3471,
      "Ġinj": 3472,
      "wor": 3473,
      "erscript": 3474,
      "uman": 3475,
      "hens": 3476,
      "pha": 3477,
      "Ġbasic": 3478,
      "Ġwhose": 3479,
      "Ġfish": 3480,
      "Ġargu": 3481,
      "Ġdecl": 3482,
      "ĠSupp": 3483,
      "Ġreading": 3484,
      "Ġemail": 3485,
      "Ġfem": 3486,
      "Ġsearch": 3487,
      "ãģ": 3488,
      "Ġfriends": 3489,
      "ĠÎ": 3490,
      "ula": 3491,
      "ĠProf": 3492,
      "ĠFree": 3493,
      "Ġfair": 3494,
      "ĠJournal": 3495,
      "superscript": 3496,
      "ĠWilliam": 3497,
      "textsuperscript": 3498,
      "Re": 3499,
      "Ġ................................": 3500,
      "ĠService": 3501,
      "Ġpredict": 3502,
      "Ġoffice": 3503,
      "Ġdidn": 3504,
      "Ġeth": 3505,
      "Ġdecre": 3506,
      "Ġstri": 3507,
      "Ġlimit": 3508,
      "ica": 3509,
      "fect": 3510,
      "Ġlines": 3511,
      "iles": 3512,
      "Ġtakes": 3513,
      "Ġwon": 3514,
      "eta": 3515,
      "ensity": 3516,
      "li": 3517,
      "aint": 3518,
      "69": 3519,
      "ĠPat": 3520,
      "Ph": 3521,
      "Ġpresented": 3522,
      "ĠGovernment": 3523,
      "Ġculture": 3524,
      "Ġproduce": 3525,
      "Ġapplications": 3526,
      "odes": 3527,
      "Ġcou": 3528,
      "ĠInstitute": 3529,
      "yond": 3530,
      "Ġseems": 3531,
      "Ġexact": 3532,
      "Ġconstit": 3533,
      "Ġnight": 3534,
      "Ġvia": 3535,
      "ĠCalifornia": 3536,
      "ĠSer": 3537,
      "Ġacqu": 3538,
      "more": 3539,
      "52": 3540,
      "Ġclean": 3541,
      "da": 3542,
      "Ġreflect": 3543,
      "olid": 3544,
      "Ġfeet": 3545,
      "Ġpopular": 3546,
      "Ġmeasures": 3547,
      "vis": 3548,
      "umn": 3549,
      "ĠVol": 3550,
      "Ġattention": 3551,
      "Ġaim": 3552,
      "Ġgraph": 3553,
      "59": 3554,
      "inate": 3555,
      "ancy": 3556,
      "Ġdat": 3557,
      "Ġachieve": 3558,
      "500": 3559,
      "Ġ2004": 3560,
      "asons": 3561,
      "arter": 3562,
      "==": 3563,
      "cial": 3564,
      "Ġlack": 3565,
      "Ġthreat": 3566,
      "Ġlooking": 3567,
      "ĠCourt": 3568,
      "âĢ¦âĢ¦": 3569,
      "Ġrequires": 3570,
      "Ġcorrespond": 3571,
      "force": 3572,
      "CE": 3573,
      "Ġtools": 3574,
      "Ġresearchers": 3575,
      "ara": 3576,
      "Ġprote": 3577,
      "icies": 3578,
      "Ġstandards": 3579,
      "Ġregarding": 3580,
      "Ġvisit": 3581,
      "Ġanimals": 3582,
      "Ġparty": 3583,
      "Ġpractices": 3584,
      "Ġminutes": 3585,
      "Ġslow": 3586,
      "ĠHouse": 3587,
      "ĠHer": 3588,
      "Ġsafe": 3589,
      "Ġversion": 3590,
      "uration": 3591,
      "Ġenh": 3592,
      "raw": 3593,
      "Ġsem": 3594,
      "ashington": 3595,
      "Ġrelevant": 3596,
      "Ġlives": 3597,
      "Ġsuff": 3598,
      "ĠIndia": 3599,
      "ĠSur": 3600,
      "gorith": 3601,
      "Ġoperations": 3602,
      "irection": 3603,
      "iples": 3604,
      "Ġevalu": 3605,
      "------|": 3606,
      "Ġapply": 3607,
      "ĠDef": 3608,
      "Ġprocesses": 3609,
      "Ġhost": 3610,
      "Ġreceive": 3611,
      "Ġupd": 3612,
      "imens": 3613,
      "Ġpsych": 3614,
      "itiz": 3615,
      "ĠChina": 3616,
      "Ġter": 3617,
      "ades": 3618,
      "ĠUnder": 3619,
      "Ġsurv": 3620,
      "------------------------": 3621,
      "venue": 3622,
      "Ġmention": 3623,
      "Ġequal": 3624,
      "Ġproviding": 3625,
      "ocr": 3626,
      "ĠAnt": 3627,
      "ĠMus": 3628,
      "Ġoutput": 3629,
      "load": 3630,
      "ĠSan": 3631,
      "Ġinitial": 3632,
      "\\)": 3633,
      "Ġmonitor": 3634,
      "ding": 3635,
      "Ġquite": 3636,
      "Ġharm": 3637,
      "Ġlabor": 3638,
      "Ġactive": 3639,
      "andid": 3640,
      "Ġresponsible": 3641,
      "orpor": 3642,
      "ĠServices": 3643,
      "Ġsun": 3644,
      "IM": 3645,
      "Ġsil": 3646,
      "HO": 3647,
      "Ġgreen": 3648,
      "ĠDistrict": 3649,
      "Ġir": 3650,
      "ĠAnn": 3651,
      "So": 3652,
      "ribute": 3653,
      "ĠWork": 3654,
      "Ġreve": 3655,
      "Un": 3656,
      "Ġmanufact": 3657,
      "Ġrecommend": 3658,
      "urrent": 3659,
      "},": 3660,
      "Ġdemand": 3661,
      "Ġcommand": 3662,
      "arr": 3663,
      "ologies": 3664,
      "Ġproduced": 3665,
      "Ġlarger": 3666,
      "ĠDem": 3667,
      "Ġsold": 3668,
      "Ġfra": 3669,
      "ĠJust": 3670,
      "Ġheat": 3671,
      "ĠĠĠĠĠĠĠĠĠĠĠĠĠĠĠĠĠĠĠĠĠĠĠĠĠĠĠĠĠĠ": 3672,
      "Ġfederal": 3673,
      "icine": 3674,
      "Ġhous": 3675,
      "Ġbehind": 3676,
      "Ġremain": 3677,
      "ĠChe": 3678,
      "Ġnegative": 3679,
      "Ġextra": 3680,
      "Ġidentified": 3681,
      "Ġgetting": 3682,
      "Ġoverall": 3683,
      "Ġeasy": 3684,
      "Ġnote": 3685,
      "Ġhyd": 3686,
      "AG": 3687,
      "ï¬ģ": 3688,
      "haps": 3689,
      "Ġefforts": 3690,
      "Ġcolor": 3691,
      "Ġstress": 3692,
      "Ġstatus": 3693,
      "Ġaware": 3694,
      "Ġsympt": 3695,
      "Ġcompar": 3696,
      "Ġload": 3697,
      "Ġformer": 3698,
      "Ġ--------": 3699,
      "Ġroom": 3700,
      "ospital": 3701,
      "ously": 3702,
      "UL": 3703,
      "ĠCollege": 3704,
      "Ġcat": 3705,
      "Ġmilitary": 3706,
      "Ġcivil": 3707,
      "ondon": 3708,
      "ternet": 3709,
      "idents": 3710,
      "Con": 3711,
      "Ġsupply": 3712,
      "ecause": 3713,
      "53": 3714,
      "Ġanything": 3715,
      "Ġinsp": 3716,
      "Ġsoftware": 3717,
      "Ġreference": 3718,
      "Ġdegree": 3719,
      "Ġhor": 3720,
      "SS": 3721,
      "Ġapplied": 3722,
      "ying": 3723,
      "63": 3724,
      "izes": 3725,
      "Ġten": 3726,
      "ĠThen": 3727,
      "Ġprint": 3728,
      "Ġfollows": 3729,
      "Ġrule": 3730,
      "Figure": 3731,
      "Ġchemical": 3732,
      "Ġtechniques": 3733,
      "pe": 3734,
      "iring": 3735,
      "ĠAssociation": 3736,
      "Ġgrant": 3737,
      "Ġcopy": 3738,
      "Ġalthough": 3739,
      "0000": 3740,
      "ĠRel": 3741,
      "Ġcomment": 3742,
      "joy": 3743,
      "Ġlocation": 3744,
      "Ġcommunication": 3745,
      "standing": 3746,
      "Ġtraditional": 3747,
      "ĠInformation": 3748,
      "Ġdetails": 3749,
      "54": 3750,
      "Ġinvestig": 3751,
      "htt": 3752,
      "reed": 3753,
      "Ġanc": 3754,
      "ky": 3755,
      "Ġbooks": 3756,
      "ĠEast": 3757,
      "Ġ]": 3758,
      "porary": 3759,
      "cast": 3760,
      "Ġlic": 3761,
      "Ġtherap": 3762,
      "Ġcaused": 3763,
      "Ġorigin": 3764,
      "Ġdepend": 3765,
      "isf": 3766,
      "ett": 3767,
      "Ġfilm": 3768,
      "Ġcredit": 3769,
      "Ġbad": 3770,
      ")(": 3771,
      "Ġcard": 3772,
      "new": 3773,
      "illing": 3774,
      "Ġclin": 3775,
      "ĠPhil": 3776,
      "with": 3777,
      "Ġautom": 3778,
      "Ġwin": 3779,
      "Ġ32": 3780,
      "Ġ2003": 3781,
      "Ġprotection": 3782,
      "Ġinstru": 3783,
      "Ġgradu": 3784,
      "ĠLa": 3785,
      "Ġcapacity": 3786,
      "arrow": 3787,
      "Ġprofessional": 3788,
      "uge": 3789,
      "Ġmovement": 3790,
      "unch": 3791,
      "Ġmother": 3792,
      "Ġdeveloping": 3793,
      "uff": 3794,
      "Ġspeak": 3795,
      "ferences": 3796,
      "51": 3797,
      "Ġsustain": 3798,
      "oe": 3799,
      "Ġpoor": 3800,
      "Ġnut": 3801,
      "oted": 3802,
      "Ġforward": 3803,
      "Ġprop": 3804,
      "Ġsituation": 3805,
      "nes": 3806,
      "ĠIndian": 3807,
      "rig": 3808,
      "Ġserious": 3809,
      "nown": 3810,
      "Ġwalk": 3811,
      "Ġeveryone": 3812,
      "rest": 3813,
      "Ġleading": 3814,
      "gment": 3815,
      "leg": 3816,
      "Ġsample": 3817,
      "62": 3818,
      "Ġearth": 3819,
      "Ġattack": 3820,
      "ĠMich": 3821,
      "ĠWater": 3822,
      "Ġcultural": 3823,
      "ĠÐ": 3824,
      "PA": 3825,
      "Ġsoon": 3826,
      "Ġelectric": 3827,
      "itect": 3828,
      "Ġsites": 3829,
      "61": 3830,
      "ĠRiver": 3831,
      "Ġpoly": 3832,
      "book": 3833,
      "itable": 3834,
      "do": 3835,
      "Ġwall": 3836,
      "Ġplanning": 3837,
      "Ġinstance": 3838,
      "Ġcentral": 3839,
      "rt": 3840,
      "Ġbeyond": 3841,
      "Ġtrade": 3842,
      "king": 3843,
      "oke": 3844,
      "Ġproperties": 3845,
      "room": 3846,
      "Ġ38": 3847,
      "Ġnothing": 3848,
      "Ġcarry": 3849,
      "thern": 3850,
      "Ġconstruct": 3851,
      "isms": 3852,
      "Ġinside": 3853,
      "ĠOver": 3854,
      "PS": 3855,
      "ĠWashington": 3856,
      "ĠRuss": 3857,
      "Ġcurrently": 3858,
      "ĠCong": 3859,
      "Ġdamage": 3860,
      "Ġforest": 3861,
      "OC": 3862,
      "Ġpatient": 3863,
      ".;": 3864,
      "Ġdisplay": 3865,
      "ĠSen": 3866,
      "TS": 3867,
      "ĠOffice": 3868,
      "Ġfamilies": 3869,
      "ague": 3870,
      "Ġpolicies": 3871,
      "ĠBi": 3872,
      "By": 3873,
      "Ġboard": 3874,
      "ocal": 3875,
      "ework": 3876,
      "ĠYour": 3877,
      "ĠFrench": 3878,
      "Ġhom": 3879,
      "Ġconstant": 3880,
      "ications": 3881,
      "Ġallowed": 3882,
      "semb": 3883,
      "vision": 3884,
      "Ġunits": 3885,
      "ĠOut": 3886,
      "One": 3887,
      "lor": 3888,
      "unction": 3889,
      "Ġbeginning": 3890,
      "ĠCode": 3891,
      "Ġimag": 3892,
      "],": 3893,
      "Ġtrying": 3894,
      "Ġdiagn": 3895,
      "pd": 3896,
      "Ġmis": 3897,
      "Ġcontains": 3898,
      "Ġhimself": 3899,
      "Ġ48": 3900,
      "omb": 3901,
      "ĠChild": 3902,
      "Ġsou": 3903,
      "Ġpen": 3904,
      "Sp": 3905,
      "Ġbott": 3906,
      "ellow": 3907,
      "Ġadapt": 3908,
      "Cl": 3909,
      "Ġassessment": 3910,
      "Ġcontroll": 3911,
      "ocks": 3912,
      "RA": 3913,
      "ĠClass": 3914,
      "))": 3915,
      "Ġspread": 3916,
      "Ġlost": 3917,
      "ĠGra": 3918,
      "Ġopportunities": 3919,
      "Ġitems": 3920,
      "Ġstay": 3921,
      "Ġwebsite": 3922,
      "Ġcert": 3923,
      "Ġwrite": 3924,
      "Ġneigh": 3925,
      "ĠOb": 3926,
      "Ġcontinued": 3927,
      "Ġoperation": 3928,
      "Ġinfluence": 3929,
      "Ġfactor": 3930,
      "Ġannual": 3931,
      "ĠChurch": 3932,
      "Ġworkers": 3933,
      "Ġtele": 3934,
      "Ġ%": 3935,
      "Ġinvestment": 3936,
      "Ġgoal": 3937,
      "ĠBro": 3938,
      "annel": 3939,
      "inct": 3940,
      "Ġball": 3941,
      "Ġdetermined": 3942,
      "Ġadjust": 3943,
      "Ġtold": 3944,
      "ĠCanada": 3945,
      "gy": 3946,
      "eks": 3947,
      "ĠAir": 3948,
      "Ġblock": 3949,
      "Ġunc": 3950,
      "eds": 3951,
      "Ġorganization": 3952,
      "ounds": 3953,
      "Ġselect": 3954,
      "ĠHistory": 3955,
      "ĠMor": 3956,
      "Ġnuc": 3957,
      "Ġec": 3958,
      "ĠProt": 3959,
      "ffect": 3960,
      "Ġemot": 3961,
      "Ġ37": 3962,
      "ructure": 3963,
      "Sh": 3964,
      "ico": 3965,
      "Ġlaws": 3966,
      "ademic": 3967,
      "water": 3968,
      "esc": 3969,
      "Ġwild": 3970,
      "Ġ2002": 3971,
      "oice": 3972,
      "estic": 3973,
      "DA": 3974,
      "ij": 3975,
      "Ġenter": 3976,
      "Ġstatement": 3977,
      "pid": 3978,
      "Ġscreen": 3979,
      "ĠTO": 3980,
      "leep": 3981,
      "Ġobserved": 3982,
      "Ġplans": 3983,
      "Ġuseful": 3984,
      "ĠName": 3985,
      "At": 3986,
      "hern": 3987,
      "Ġfollowed": 3988,
      "Ġvideo": 3989,
      "ords": 3990,
      "rans": 3991,
      "Ġcommerc": 3992,
      "hat": 3993,
      "ĠData": 3994,
      "Ġcollection": 3995,
      "Ġenjoy": 3996,
      "Ġcenter": 3997,
      "ancing": 3998,
      "ĠĠĠĠĠĠĠĠĠĠĠĠĠĠĠĠĠĠĠĠĠĠĠĠĠĠĠĠĠ": 3999,
      "Ġbenefit": 4000,
      "ĠStreet": 4001,
      "Ġmiss": 4002,
      "uro": 4003,
      "Ġactions": 4004,
      "ulate": 4005,
      "ĠDel": 4006,
      "Ġsoil": 4007,
      "Ġnamed": 4008,
      "tical": 4009,
      "ĠSal": 4010,
      "Ġideas": 4011,
      "oting": 4012,
      "_{\\": 4013,
      "Ġtrack": 4014,
      "Ġones": 4015,
      "Ġreports": 4016,
      "ĠOur": 4017,
      "ĠUse": 4018,
      "Ġchallenges": 4019,
      "Ġalgorith": 4020,
      "Ġvariety": 4021,
      "Ġcomponents": 4022,
      "Ġ2001": 4023,
      "Ġcarbon": 4024,
      "Ġminimum": 4025,
      "ĠĠĠĠĠĠĠĠĠĠĠĠĠĠĠĠĠĠĠĠĠĠĠĠĠĠĠĠĠĠĠĠĠĠĠĠĠ": 4026,
      "enses": 4027,
      "IF": 4028,
      "Ġbank": 4029,
      "Ġ90": 4030,
      "ĠStand": 4031,
      "Ġimportance": 4032,
      "ĠPhys": 4033,
      "No": 4034,
      "isation": 4035,
      "met": 4036,
      "roduction": 4037,
      "ĠEnvironment": 4038,
      "Ġsymptoms": 4039,
      "EE": 4040,
      "Ġelement": 4041,
      "Ġhot": 4042,
      "iers": 4043,
      "ĠEach": 4044,
      "ĠAtt": 4045,
      "Ġdistance": 4046,
      "ĠLondon": 4047,
      "using": 4048,
      "poses": 4049,
      "Ġeverything": 4050,
      "Ġ45": 4051,
      "Ġ\\|": 4052,
      "ĠMem": 4053,
      "ĠNow": 4054,
      "---": 4055,
      "mat": 4056,
      "rices": 4057,
      "Ġdifferences": 4058,
      "ĠStat": 4059,
      "Ġsaw": 4060,
      "Ġbrought": 4061,
      "Ġbecomes": 4062,
      "Ġscientific": 4063,
      "Ġusers": 4064,
      "All": 4065,
      "oming": 4066,
      "rick": 4067,
      "Ġthous": 4068,
      "iated": 4069,
      "ecutive": 4070,
      "ĠGreen": 4071,
      "Ġmoment": 4072,
      "Ġmaximum": 4073,
      "yd": 4074,
      "Ġnorth": 4075,
      "ĠRem": 4076,
      "ĠRE": 4077,
      "Ġextreme": 4078,
      "Ġspect": 4079,
      "Ġ2022": 4080,
      "Ġremains": 4081,
      "Ġarri": 4082,
      "ECT": 4083,
      "Ġplease": 4084,
      "Ġexplore": 4085,
      "wide": 4086,
      "Ġox": 4087,
      "orge": 4088,
      "Ġleave": 4089,
      "oud": 4090,
      "Ġ80": 4091,
      "pping": 4092,
      "93": 4093,
      "aith": 4094,
      "87": 4095,
      "Ġdirection": 4096,
      "Ġnews": 4097,
      "ingu": 4098,
      "à§": 4099,
      "ĠAng": 4100,
      "Ġhope": 4101,
      "eria": 4102,
      "rab": 4103,
      "Ġteachers": 4104,
      "Ġdevice": 4105,
      "Ġsurround": 4106,
      "Ġwond": 4107,
      "Ġstage": 4108,
      "ĠOf": 4109,
      "ocation": 4110,
      "Ġopportunity": 4111,
      "reek": 4112,
      "Ġult": 4113,
      "iable": 4114,
      "94": 4115,
      "rote": 4116,
      "ĊĊĠ": 4117,
      "Ġconflic": 4118,
      "Ġobtained": 4119,
      "Ġcoord": 4120,
      "Ġvalid": 4121,
      "rehens": 4122,
      "ĠEngine": 4123,
      "ĠChristian": 4124,
      "ought": 4125,
      "?\"": 4126,
      "ĠGerman": 4127,
      "Ġperformed": 4128,
      "Ġindependent": 4129,
      "Ġmount": 4130,
      "phas": 4131,
      "range": 4132,
      "Ġappoint": 4133,
      "ĠOp": 4134,
      "Ġvict": 4135,
      "PP": 4136,
      "ĠAlthough": 4137,
      "Ġscale": 4138,
      "mark": 4139,
      "ĠRepublic": 4140,
      "place": 4141,
      "Ġgives": 4142,
      "Ġdynam": 4143,
      "key": 4144,
      "Ġpan": 4145,
      "Ġfat": 4146,
      "ĠBen": 4147,
      "char": 4148,
      "urt": 4149,
      "Ġhistorical": 4150,
      "Ġfather": 4151,
      "ĠPort": 4152,
      "Ġmix": 4153,
      "Ġhon": 4154,
      "Ġsignal": 4155,
      "que": 4156,
      "ĠMost": 4157,
      "cks": 4158,
      "ĠPM": 4159,
      "Ġbudget": 4160,
      "Ġbox": 4161,
      "Ġemp": 4162,
      "amin": 4163,
      "ĠEv": 4164,
      "ĠElect": 4165,
      "ĠBank": 4166,
      "idential": 4167,
      "ĠTest": 4168,
      "Ġmessage": 4169,
      "ux": 4170,
      "onom": 4171,
      "Ġoptions": 4172,
      "Ġhighly": 4173,
      "Ġcompleted": 4174,
      "igen": 4175,
      "Ġmemory": 4176,
      "ĠMS": 4177,
      "Ġsurvey": 4178,
      "Ġpaid": 4179,
      "eck": 4180,
      "Ġnotice": 4181,
      "field": 4182,
      "ĠĠĠĠĠĠĠĠĠĠĠĠĠĠĠĠĠĠĠĠĠĠĠĠĠĠĠĠĠĠĠ": 4183,
      "ĠDirector": 4184,
      "undred": 4185,
      "orage": 4186,
      "ĠSte": 4187,
      "Ġstop": 4188,
      "Ġcollabor": 4189,
      "ĠDay": 4190,
      "Now": 4191,
      "ĠDavid": 4192,
      "Ġdaily": 4193,
      "92": 4194,
      "Ġson": 4195,
      "alpha": 4196,
      "ĠEngland": 4197,
      "Ġ36": 4198,
      "ĠYes": 4199,
      "ĠForm": 4200,
      "Ġearlier": 4201,
      "}_": 4202,
      "Ġfigure": 4203,
      "Ġlegis": 4204,
      "Ġ`": 4205,
      "Ġsuccessful": 4206,
      "Ġfriend": 4207,
      "ament": 4208,
      "####": 4209,
      "ĠSociety": 4210,
      "ifically": 4211,
      "Ġgrowing": 4212,
      "Ġmid": 4213,
      "lo": 4214,
      "ĠReview": 4215,
      "ĠMany": 4216,
      "Ġweeks": 4217,
      "Ġreduced": 4218,
      "yth": 4219,
      "Ġhands": 4220,
      "Ġrecords": 4221,
      "enge": 4222,
      "angle": 4223,
      "Ġimages": 4224,
      "Ġtesting": 4225,
      "Ġtests": 4226,
      "Ġdiscussion": 4227,
      "|--------------------------------": 4228,
      "iar": 4229,
      "Ġassist": 4230,
      "Ġconnect": 4231,
      "elines": 4232,
      "rees": 4233,
      "orthern": 4234,
      "ĠAfrica": 4235,
      "Ġskin": 4236,
      "Ġpurposes": 4237,
      "ĠDon": 4238,
      "last": 4239,
      "Ġ33": 4240,
      "Ġscientists": 4241,
      "mary": 4242,
      "85": 4243,
      "ĠUN": 4244,
      "Ġforces": 4245,
      "ĠDate": 4246,
      "Ġoccup": 4247,
      "ĠSince": 4248,
      "Ġfully": 4249,
      "men": 4250,
      "Ġforeign": 4251,
      "Ġlif": 4252,
      "ĠPri": 4253,
      "91": 4254,
      "arian": 4255,
      "Ġeasily": 4256,
      "Ġconnection": 4257,
      "ĠSocial": 4258,
      "Ġisn": 4259,
      "Ġconsequ": 4260,
      "Ġagreement": 4261,
      "rief": 4262,
      "Ġbirth": 4263,
      "Ġregist": 4264,
      "Ġinnov": 4265,
      "ĠTable": 4266,
      "Ġassets": 4267,
      "Ġsouth": 4268,
      "CS": 4269,
      "pi": 4270,
      "Ġfeature": 4271,
      "ĠId": 4272,
      "ĠPaul": 4273,
      "Ġtrust": 4274,
      "ste": 4275,
      "Ġemployees": 4276,
      "ĠWell": 4277,
      "Ġsymb": 4278,
      "Ġrand": 4279,
      "Ġactual": 4280,
      "ĠEqu": 4281,
      "ĠJames": 4282,
      "Ġ70": 4283,
      "ĠAD": 4284,
      "Ġcreating": 4285,
      "ĠRober": 4286,
      "Ġcitiz": 4287,
      "ĠParty": 4288,
      "ael": 4289,
      "resh": 4290,
      "Ġstrategies": 4291,
      "Ġapproximately": 4292,
      "useum": 4293,
      "atur": 4294,
      "ĠUnion": 4295,
      "Ġsteps": 4296,
      "Ġfunds": 4297,
      "Ġhyp": 4298,
      "\\[": 4299,
      "cean": 4300,
      "Ġdiv": 4301,
      "ĠJes": 4302,
      "ĠCap": 4303,
      "hest": 4304,
      "Ġwarm": 4305,
      "Ġcru": 4306,
      "ĠEconom": 4307,
      "Ġhar": 4308,
      "ĠOper": 4309,
      "Ġquickly": 4310,
      "Ġcommercial": 4311,
      "Ġfast": 4312,
      "ald": 4313,
      "Ġtool": 4314,
      "Ġworked": 4315,
      "ĠRev": 4316,
      "Ġpartners": 4317,
      "'d": 4318,
      "Ġexperim": 4319,
      "omas": 4320,
      "TH": 4321,
      "ĠBlack": 4322,
      "',": 4323,
      "Ġsignificantly": 4324,
      "Ġerror": 4325,
      "Ġrandom": 4326,
      "zz": 4327,
      "Ġoperating": 4328,
      "Ġinstruct": 4329,
      "Ġopin": 4330,
      "ĠAM": 4331,
      "Ġplaced": 4332,
      "Ġinternal": 4333,
      "Table": 4334,
      "ki": 4335,
      "ĠArch": 4336,
      "Ġwood": 4337,
      "Ġreligious": 4338,
      "Ġincorpor": 4339,
      "Im": 4340,
      "Ġthinking": 4341,
      "Ġrunning": 4342,
      "Ġotherwise": 4343,
      "Ġexperiences": 4344,
      "Ġsatisf": 4345,
      "iece": 4346,
      "ĠThus": 4347,
      "nel": 4348,
      "known": 4349,
      "Ġ34": 4350,
      "Ġobjects": 4351,
      "Ġfuel": 4352,
      "Ġsea": 4353,
      "rupt": 4354,
      "gra": 4355,
      "Ġeconomy": 4356,
      "Sc": 4357,
      "rael": 4358,
      "igma": 4359,
      "oration": 4360,
      "Ġremember": 4361,
      "Ġteaching": 4362,
      "Ġillust": 4363,
      "-----": 4364,
      "works": 4365,
      "Ġtree": 4366,
      "Ġchapter": 4367,
      "Ġparticipants": 4368,
      "Ġdead": 4369,
      "Ġstructures": 4370,
      "related": 4371,
      "odies": 4372,
      "Ġded": 4373,
      "ÃŃ": 4374,
      "}^{": 4375,
      "iately": 4376,
      "Ġcauses": 4377,
      "ĠSam": 4378,
      "ĠVir": 4379,
      "Ġcool": 4380,
      "Ġreasons": 4381,
      "Ġdivid": 4382,
      "hips": 4383,
      "ĠAdd": 4384,
      "Ġfight": 4385,
      "Ġconvers": 4386,
      "Ġmotion": 4387,
      "Ġfavor": 4388,
      "Ġtend": 4389,
      "ios": 4390,
      "ĠAv": 4391,
      "ilit": 4392,
      "Ġadvant": 4393,
      "Ġdigital": 4394,
      "add": 4395,
      "ĠExp": 4396,
      "Ġaccord": 4397,
      "Ġnation": 4398,
      "Ġsetting": 4399,
      "Ġstories": 4400,
      "Ġgave": 4401,
      "Ġnoted": 4402,
      "Ġcircum": 4403,
      "Ġsch": 4404,
      "Ġorganizations": 4405,
      "Ġapproved": 4406,
      "ĠPost": 4407,
      "Ġreach": 4408,
      "gn": 4409,
      "Ġserve": 4410,
      "Ġstru": 4411,
      "Ġhelps": 4412,
      "Ġstra": 4413,
      "Ġmob": 4414,
      "ĠProv": 4415,
      "ĠRoad": 4416,
      "Ġplaces": 4417,
      "Ġmut": 4418,
      "Ġcarried": 4419,
      "Ġmole": 4420,
      "Ġconducted": 4421,
      "alle": 4422,
      "gar": 4423,
      "Ġtoward": 4424,
      "Ġborn": 4425,
      "Ġgir": 4426,
      "Ġbalance": 4427,
      "ĠCH": 4428,
      "Ġrecently": 4429,
      "Ġdog": 4430,
      "Ġvisual": 4431,
      "à¤¾": 4432,
      "Ġseparate": 4433,
      "Ġspirit": 4434,
      "fort": 4435,
      "ĠFore": 4436,
      "Ġmag": 4437,
      "ifying": 4438,
      "Ġsoci": 4439,
      "Ġgames": 4440,
      "Ġeffort": 4441,
      "ĠSol": 4442,
      "rical": 4443,
      "Ġwrong": 4444,
      "Ġprocedures": 4445,
      "%)": 4446,
      "ĠEst": 4447,
      "Ġcoming": 4448,
      "Ã³": 4449,
      "Ġconsult": 4450,
      "ruit": 4451,
      "aign": 4452,
      "Ġ)": 4453,
      "Ġauthority": 4454,
      "ĠAfrican": 4455,
      "ĠDuring": 4456,
      "Ġfacilities": 4457,
      "tion": 4458,
      "Ġimplementation": 4459,
      "Ġbeaut": 4460,
      "Ġweb": 4461,
      "atform": 4462,
      "ĠBra": 4463,
      "Ġwid": 4464,
      "Ġexpression": 4465,
      "tenance": 4466,
      "Ġrelease": 4467,
      "eting": 4468,
      "rep": 4469,
      "Ġstrength": 4470,
      "Ġexamples": 4471,
      "Ġperspect": 4472,
      "mathbb": 4473,
      "Ġsubs": 4474,
      "Ġsolutions": 4475,
      "ville": 4476,
      "oo": 4477,
      "elta": 4478,
      "Ġanimal": 4479,
      "Ġalternative": 4480,
      "}(": 4481,
      "Ġsmaller": 4482,
      "ĠRich": 4483,
      "ĠPal": 4484,
      "Ġexpand": 4485,
      "CR": 4486,
      "ellig": 4487,
      "ĠSum": 4488,
      "urban": 4489,
      "oes": 4490,
      "uit": 4491,
      "ĠDisc": 4492,
      "edia": 4493,
      "active": 4494,
      "IA": 4495,
      "Ġselected": 4496,
      "lig": 4497,
      "alysis": 4498,
      "Ġoption": 4499,
      "Ġagricult": 4500,
      "Ġvirt": 4501,
      "Ġmental": 4502,
      "Ġfunding": 4503,
      "aled": 4504,
      "MM": 4505,
      "Ġcandid": 4506,
      "Ġhundred": 4507,
      "Ġpresence": 4508,
      "TER": 4509,
      "Ġwrote": 4510,
      "mm": 4511,
      "inese": 4512,
      "86": 4513,
      "Ġrob": 4514,
      "Ġpoll": 4515,
      "ĠGreat": 4516,
      "Ġphase": 4517,
      "Ġplayed": 4518,
      "aught": 4519,
      "ĠAustralia": 4520,
      "ĠID": 4521,
      "Ġchoice": 4522,
      "life": 4523,
      "Ġdark": 4524,
      "Ġnames": 4525,
      "Ġstated": 4526,
      "CA": 4527,
      "iding": 4528,
      "Ġreleased": 4529,
      "uthors": 4530,
      "oses": 4531,
      "Ġpark": 4532,
      "TR": 4533,
      "ĠCON": 4534,
      "Ġwanted": 4535,
      "ida": 4536,
      "|------------------------": 4537,
      "Ġcharge": 4538,
      "Ġappears": 4539,
      "Ð¾": 4540,
      "Ġhealthy": 4541,
      "Ġvolume": 4542,
      "ogen": 4543,
      "Ġchanged": 4544,
      "Ġaspects": 4545,
      "Ġsn": 4546,
      "Cont": 4547,
      "Ġrapid": 4548,
      "Ġinteresting": 4549,
      "ĠFurther": 4550,
      "Ġstation": 4551,
      "Ġliterature": 4552,
      "ĠLand": 4553,
      "Ġeyes": 4554,
      "Ġexercise": 4555,
      "Ġnearly": 4556,
      "itz": 4557,
      "ĠMal": 4558,
      "Ġast": 4559,
      "Ġgoes": 4560,
      "berg": 4561,
      "Ġdang": 4562,
      "ĠCongress": 4563,
      "Ġstock": 4564,
      "iat": 4565,
      "Ġmoved": 4566,
      "Ġpatterns": 4567,
      "Ġpow": 4568,
      "Ġletter": 4569,
      "Ġgain": 4570,
      "Ġdistribut": 4571,
      "Ġdevices": 4572,
      "Ġchurch": 4573,
      "Ġwaste": 4574,
      "ĠDet": 4575,
      "Ġchoose": 4576,
      "Ġparties": 4577,
      "Ġmiddle": 4578,
      "89": 4579,
      "ĠHuman": 4580,
      "lusion": 4581,
      "ĠCare": 4582,
      "ses": 4583,
      "aters": 4584,
      "amma": 4585,
      "Ġmatch": 4586,
      "Ġdecisions": 4587,
      "anish": 4588,
      "col": 4589,
      "Ġphil": 4590,
      "CL": 4591,
      "mathcal": 4592,
      "ĠAlso": 4593,
      "Ġstream": 4594,
      "cd": 4595,
      "Ġfrequency": 4596,
      "Ġimmediately": 4597,
      "Ġmajority": 4598,
      "Ġpassed": 4599,
      "Ġsector": 4600,
      "ĠMain": 4601,
      "ĠLeg": 4602,
      "Ġbond": 4603,
      "abet": 4604,
      "la": 4605,
      "eline": 4606,
      "ĠKe": 4607,
      "Ġshowed": 4608,
      "ros": 4609,
      "Ġshape": 4610,
      "point": 4611,
      "iveness": 4612,
      "Ġresulting": 4613,
      "Ġeight": 4614,
      "ĠOrgan": 4615,
      "itness": 4616,
      "Ġlargest": 4617,
      "Ġpick": 4618,
      "Ġsong": 4619,
      "Ġemphas": 4620,
      "rogen": 4621,
      "Ġestimated": 4622,
      "Ġband": 4623,
      "Ġserved": 4624,
      "Ġprinciples": 4625,
      "Ġinterview": 4626,
      "Ġround": 4627,
      "Ġmap": 4628,
      "Ġaffected": 4629,
      "Ġexposure": 4630,
      "ĠAdminist": 4631,
      "ĠStr": 4632,
      "Ġpret": 4633,
      "76": 4634,
      "Ġstrategy": 4635,
      "ĠInf": 4636,
      "Ġalone": 4637,
      "ĠJe": 4638,
      "Ġoffers": 4639,
      "Ġrock": 4640,
      "asure": 4641,
      "Ġrepe": 4642,
      "ĠMart": 4643,
      "ĠTime": 4644,
      "Ġscen": 4645,
      "Ġefficient": 4646,
      "osoph": 4647,
      "ĠGermany": 4648,
      "Ġbab": 4649,
      "Ġtransform": 4650,
      "Ġlat": 4651,
      "sub": 4652,
      "ibly": 4653,
      "Ġperfect": 4654,
      "Ġvill": 4655,
      "Ġer": 4656,
      "ĠSecond": 4657,
      "Ġstatements": 4658,
      "Ġwoman": 4659,
      "Is": 4660,
      "wood": 4661,
      "ception": 4662,
      "Ġnovel": 4663,
      "luding": 4664,
      "aur": 4665,
      "Ġprepar": 4666,
      "ago": 4667,
      "och": 4668,
      "Ġvariable": 4669,
      "ographic": 4670,
      "SP": 4671,
      "Ġdoctor": 4672,
      "Ġdistrict": 4673,
      "ĠMet": 4674,
      "ĠIsrael": 4675,
      "With": 4676,
      "Ġhabit": 4677,
      "ĠBas": 4678,
      "Ġmiles": 4679,
      "Ġequival": 4680,
      "Ġdied": 4681,
      "ĠMary": 4682,
      "care": 4683,
      "Ġsitu": 4684,
      "Ġmachine": 4685,
      "ĠMex": 4686,
      "iability": 4687,
      "ga": 4688,
      "acing": 4689,
      "ĠFound": 4690,
      "Ġcorpor": 4691,
      "Ã¼": 4692,
      "ĠBel": 4693,
      "ĠNumber": 4694,
      "Ġgoals": 4695,
      "ĠHere": 4696,
      "Ġbehavi": 4697,
      "ĠFrance": 4698,
      "Ġpersons": 4699,
      "Ġbuy": 4700,
      "Ġproceed": 4701,
      "New": 4702,
      "ĠUK": 4703,
      "Ð°": 4704,
      "Ġ1999": 4705,
      "Ġjoint": 4706,
      "going": 4707,
      "Ġequation": 4708,
      "uty": 4709,
      "Ġacid": 4710,
      "roy": 4711,
      "Ġ65": 4712,
      "```": 4713,
      "Ġdocuments": 4714,
      "Ġutil": 4715,
      "oma": 4716,
      "Ġtim": 4717,
      "Ġfindings": 4718,
      "Ġsufficient": 4719,
      "ya": 4720,
      "Ġtou": 4721,
      "Ġbelief": 4722,
      "ests": 4723,
      "Ġaccordance": 4724,
      "Ġbackground": 4725,
      "Ġtask": 4726,
      "Ġconcerns": 4727,
      "ĠAccording": 4728,
      "Ġbillion": 4729,
      "Ġcounter": 4730,
      "erved": 4731,
      "Ġschem": 4732,
      "Äģ": 4733,
      "Ġevolution": 4734,
      "Ø§": 4735,
      "Ġconv": 4736,
      "ĠĠĠĠĠĠĠĠĠĠĠĠĠĠĠĠĠĠĠĠĠĠĠĠĠĠĠĠĠĠĠĠĠ": 4737,
      "Ġdry": 4738,
      "egin": 4739,
      "73": 4740,
      "isher": 4741,
      "Ġsevere": 4742,
      "Ġcompletely": 4743,
      "Ġbul": 4744,
      "Ġworth": 4745,
      "house": 4746,
      "ht": 4747,
      "Ġapprec": 4748,
      "Ġexhib": 4749,
      "Ġkids": 4750,
      "enty": 4751,
      "Ġolder": 4752,
      "Ġcoast": 4753,
      "BC": 4754,
      "Ġice": 4755,
      "Ġveget": 4756,
      "well": 4757,
      "down": 4758,
      "Ġresource": 4759,
      "Ġrelationships": 4760,
      "DS": 4761,
      "inating": 4762,
      "Res": 4763,
      "Ġheard": 4764,
      "Ġfields": 4765,
      "Ġhousehold": 4766,
      "ilding": 4767,
      "Ġtrees": 4768,
      "Ġarchitect": 4769,
      "Ġteacher": 4770,
      "uries": 4771,
      "mosp": 4772,
      "ĠProfess": 4773,
      "ĠBr": 4774,
      "Ġtechnical": 4775,
      "otic": 4776,
      "Ġconver": 4777,
      "ĠControl": 4778,
      "**:": 4779,
      "Ġcore": 4780,
      "Ġaccur": 4781,
      "ario": 4782,
      "Ġexactly": 4783,
      "Ġcharacteristics": 4784,
      "MENT": 4785,
      "Ġreplace": 4786,
      "ĠEven": 4787,
      "iny": 4788,
      "Ġbra": 4789,
      "Ġapplicable": 4790,
      "Ġpet": 4791,
      "tra": 4792,
      "Ġpreviously": 4793,
      "Ġanyone": 4794,
      "Ġmathemat": 4795,
      "72": 4796,
      "Ġsleep": 4797,
      "ĠWhite": 4798,
      "Ġvariables": 4799,
      "Ġsubstant": 4800,
      "ĠRead": 4801,
      "ĠFigure": 4802,
      "orial": 4803,
      "ĠJesus": 4804,
      "Ġanti": 4805,
      "Ġdecided": 4806,
      "comes": 4807,
      "Ġslight": 4808,
      "Ġyourself": 4809,
      "Ġmentioned": 4810,
      "Ġmill": 4811,
      "ĠGeorge": 4812,
      "Ġ01": 4813,
      "Ġmoving": 4814,
      "rd": 4815,
      "apers": 4816,
      "Ġprocedure": 4817,
      "OP": 4818,
      "Ġincreases": 4819,
      "Ġparameters": 4820,
      "74": 4821,
      "acters": 4822,
      "Ġsets": 4823,
      "ATE": 4824,
      "Ġliqu": 4825,
      "Ġcareer": 4826,
      "Ġ----------------": 4827,
      "Ġgiving": 4828,
      "Ġtitle": 4829,
      "Ġtrend": 4830,
      "ĠAny": 4831,
      "ĠApplic": 4832,
      "Ġvote": 4833,
      "Ġsexual": 4834,
      "ĠLear": 4835,
      "Ġyield": 4836,
      "84": 4837,
      "Ġdu": 4838,
      "Ġsummer": 4839,
      "Ġinterpret": 4840,
      "Ġfaith": 4841,
      "Ġsupported": 4842,
      "Ġextent": 4843,
      "OW": 4844,
      "Ġcovered": 4845,
      "ĠLord": 4846,
      "Ġdefinition": 4847,
      "rete": 4848,
      "Ġcolumn": 4849,
      "Ġmode": 4850,
      "Ġindex": 4851,
      "atin": 4852,
      "Ġminor": 4853,
      "Ġlisted": 4854,
      "Ġclearly": 4855,
      "Ġwatch": 4856,
      "Ġformed": 4857,
      "ĠCommunity": 4858,
      "ĠChinese": 4859,
      "Ġperhaps": 4860,
      "Ġ2023": 4861,
      "App": 4862,
      "ĠPower": 4863,
      "oday": 4864,
      "dis": 4865,
      "ams": 4866,
      "Ġexperien": 4867,
      "Ġpicture": 4868,
      "rian": 4869,
      "ĠSing": 4870,
      "Ġnor": 4871,
      "Ġhumans": 4872,
      "79": 4873,
      "Ġvolunt": 4874,
      "PR": 4875,
      "ĠCD": 4876,
      "Ġbeg": 4877,
      "Ġeducational": 4878,
      "abase": 4879,
      "SA": 4880,
      "ambda": 4881,
      "ira": 4882,
      "71": 4883,
      "ota": 4884,
      "Ġ75": 4885,
      "ĠNon": 4886,
      "Ġweak": 4887,
      "Ġadvance": 4888,
      "rence": 4889,
      "Ġprepared": 4890,
      "Ġtypically": 4891,
      "83": 4892,
      "ĠCentral": 4893,
      "Ġeye": 4894,
      "alt": 4895,
      "Ġunless": 4896,
      "ĠWeb": 4897,
      "ĠTex": 4898,
      "Ġissued": 4899,
      "ipal": 4900,
      "Ġstarting": 4901,
      "Ġinstitutions": 4902,
      "Ġrisks": 4903,
      "ERS": 4904,
      "ĠFOR": 4905,
      "Ġap": 4906,
      "Ġmission": 4907,
      "Ġinvolve": 4908,
      "Ġspecified": 4909,
      "Ġidentity": 4910,
      "Ġsusp": 4911,
      "Int": 4912,
      "Ġrot": 4913,
      "Ġhighest": 4914,
      "aling": 4915,
      "Be": 4916,
      "oking": 4917,
      "ken": 4918,
      "Ġsquare": 4919,
      "ĠPolicy": 4920,
      "Ġrare": 4921,
      "Ġshared": 4922,
      "Ġur": 4923,
      "Ġmeasured": 4924,
      "Ġsubsequ": 4925,
      "Ã¶": 4926,
      "Ġrelatively": 4927,
      "rative": 4928,
      "LC": 4929,
      "gl": 4930,
      "amily": 4931,
      "ĠWestern": 4932,
      "ĠPRO": 4933,
      "Ġrace": 4934,
      "Ġ42": 4935,
      "Ġeat": 4936,
      "ĠÂł": 4937,
      "Ġfailure": 4938,
      "Ġradio": 4939,
      "Ġregions": 4940,
      "ĠTherefore": 4941,
      "ĠLim": 4942,
      "Te": 4943,
      "Ġweather": 4944,
      "ka": 4945,
      "Ġdiet": 4946,
      "Ġcele": 4947,
      "Ġ1990": 4948,
      "coh": 4949,
      "sum": 4950,
      "Ġrespectively": 4951,
      "retary": 4952,
      "pm": 4953,
      "Ġdrive": 4954,
      "which": 4955,
      "ivery": 4956,
      "itors": 4957,
      "Ġexplain": 4958,
      "osen": 4959,
      "Ġpowerful": 4960,
      "ĠDi": 4961,
      "Ġfear": 4962,
      "Ġsurpr": 4963,
      "arant": 4964,
      "Ġprem": 4965,
      "greg": 4966,
      "Ġresponsibility": 4967,
      "ĠBay": 4968,
      "bra": 4969,
      "emporary": 4970,
      "ĠMac": 4971,
      "requ": 4972,
      "Ġwww": 4973,
      "Ġsamples": 4974,
      "Ġcomponent": 4975,
      "ube": 4976,
      "aste": 4977,
      "rier": 4978,
      "Ġ1998": 4979,
      "ĠEnergy": 4980,
      "Ġdesp": 4981,
      "OM": 4982,
      "Ġclasses": 4983,
      "inking": 4984,
      "ranch": 4985,
      "Ġdiscussed": 4986,
      "Ġclinical": 4987,
      "Ġrise": 4988,
      "rastructure": 4989,
      "Ġking": 4990,
      "ĠSuper": 4991,
      "Ġmanner": 4992,
      "ĠFederal": 4993,
      "ĠTown": 4994,
      "stitution": 4995,
      "Ġexternal": 4996,
      "Ġdrop": 4997,
      "Ġvacc": 4998,
      "ĠOR": 4999,
      "xi": 5000,
      "ĠAuthor": 5001,
      "Ġhttps": 5002,
      "}\\)": 5003,
      "81": 5004,
      "othes": 5005,
      "Ġrecorded": 5006,
      "Ġdepos": 5007,
      "ĠDesign": 5008,
      "Ġstorage": 5009,
      "Ġgold": 5010,
      "eech": 5011,
      "Ġpeace": 5012,
      "Ġconnected": 5013,
      "Ġfixed": 5014,
      "lus": 5015,
      "Ġcomprehens": 5016,
      "Ġphen": 5017,
      "otion": 5018,
      "Ġreduction": 5019,
      "Ġpul": 5020,
      "Ġcash": 5021,
      "82": 5022,
      "ml": 5023,
      "Ġmig": 5024,
      "ĠJud": 5025,
      "Ġplatform": 5026,
      "ĠGen": 5027,
      "inf": 5028,
      "*.": 5029,
      "ifications": 5030,
      "Ġcam": 5031,
      "Ġtour": 5032,
      "OD": 5033,
      "Ġintroduced": 5034,
      "section": 5035,
      "rieved": 5036,
      "Ġcommit": 5037,
      "Ġtiss": 5038,
      "Ġdisp": 5039,
      "ĠĠĠĠĠĠĠĠĠĠĠĠĠĠĠĠĠĠĠĠĠĠĠĠĠĠĠĠĠĠĠĠĠĠ": 5040,
      "olved": 5041,
      "Ġowners": 5042,
      "Ġturned": 5043,
      "ĠTechnology": 5044,
      "ĠBusiness": 5045,
      "Ġnotes": 5046,
      "Ġdoub": 5047,
      "ĠRoman": 5048,
      "Ġcry": 5049,
      "Ġlearned": 5050,
      "ny": 5051,
      "FC": 5052,
      "ESS": 5053,
      "uable": 5054,
      "can": 5055,
      "ĠUnit": 5056,
      "ĠImp": 5057,
      "Ġgeneration": 5058,
      "Ġmonitoring": 5059,
      "Ġ@": 5060,
      "za": 5061,
      "Ġcollege": 5062,
      "Ġfelt": 5063,
      "ĠMiss": 5064,
      "amm": 5065,
      "ĠInvest": 5066,
      "oyal": 5067,
      "asion": 5068,
      "Ġple": 5069,
      "ĠWind": 5070,
      "plications": 5071,
      "Ġmatrix": 5072,
      "ĠRo": 5073,
      "bre": 5074,
      "Ġprocessing": 5075,
      "that": 5076,
      "ĠOffic": 5077,
      "board": 5078,
      "ĠBecause": 5079,
      "ÂłÂłÂłÂł": 5080,
      "Ġseven": 5081,
      "antic": 5082,
      "Ġprices": 5083,
      "Ġsaying": 5084,
      "orders": 5085,
      "Ġprotein": 5086,
      "Note": 5087,
      "Ðµ": 5088,
      "Ġregulations": 5089,
      "Ġreferred": 5090,
      "ĠAS": 5091,
      "Ġcomments": 5092,
      "Ġcharacters": 5093,
      "ĠDivision": 5094,
      "Ġcommittee": 5095,
      "Ġcitizens": 5096,
      "ho": 5097,
      "ĠPeople": 5098,
      "Ġtrad": 5099,
      "Ġacademic": 5100,
      "ĠConf": 5101,
      "no": 5102,
      "Ġwhom": 5103,
      "ĠLou": 5104,
      "icate": 5105,
      "bar": 5106,
      "ĠAmericans": 5107,
      "eration": 5108,
      "Ġfig": 5109,
      "Ġoccurs": 5110,
      "iful": 5111,
      "fered": 5112,
      "Ġnav": 5113,
      "Ġinsurance": 5114,
      "Ġintended": 5115,
      "urning": 5116,
      "Section": 5117,
      "olute": 5118,
      "ĠâĪĴ": 5119,
      "Ġadults": 5120,
      "Ġ39": 5121,
      "Ġign": 5122,
      "Ġsav": 5123,
      "Ġaward": 5124,
      "Ġevaluation": 5125,
      "Ġmm": 5126,
      "Ġcolon": 5127,
      "Ġ}": 5128,
      "Ġexperiment": 5129,
      "ditionally": 5130,
      "Ġagency": 5131,
      "Ġlinear": 5132,
      "After": 5133,
      "Ġcold": 5134,
      "Ġchallenge": 5135,
      "ander": 5136,
      "ĠSmith": 5137,
      "unicip": 5138,
      "Ġinterests": 5139,
      "ipt": 5140,
      "dule": 5141,
      "Ġfine": 5142,
      "ĠSaf": 5143,
      "ĠTwo": 5144,
      "Ġsequence": 5145,
      "Ġcircumst": 5146,
      "Ġstar": 5147,
      "ĠSun": 5148,
      "Ġstore": 5149,
      "Ġvehicle": 5150,
      "Ġsort": 5151,
      "rations": 5152,
      "Ġiniti": 5153,
      "Ġattend": 5154,
      "Ġauthors": 5155,
      "Ġcampaign": 5156,
      "Ġcombination": 5157,
      "iant": 5158,
      "icit": 5159,
      "icated": 5160,
      "Ġpiece": 5161,
      "Com": 5162,
      "resents": 5163,
      "EST": 5164,
      "ĠSpecial": 5165,
      "Ġguide": 5166,
      "Ġpolice": 5167,
      "Ġregul": 5168,
      "holders": 5169,
      "ĠMil": 5170,
      "Ġurban": 5171,
      "Ġfemale": 5172,
      "times": 5173,
      "See": 5174,
      "Ð¸": 5175,
      "})": 5176,
      "omin": 5177,
      "}{\\": 5178,
      "atically": 5179,
      "Ġfinding": 5180,
      "Ġclaims": 5181,
      "ocol": 5182,
      "Ġbacter": 5183,
      "Ġfreed": 5184,
      "comp": 5185,
      "Ġancient": 5186,
      "ĠMedical": 5187,
      "Ġexchange": 5188,
      "Ġexceed": 5189,
      "Ġsolar": 5190,
      "level": 5191,
      "rition": 5192,
      "Ġhour": 5193,
      "Ġhear": 5194,
      "Ġschol": 5195,
      "Ġstyle": 5196,
      "Ġassistance": 5197,
      "reement": 5198,
      "Ġprefer": 5199,
      "BN": 5200,
      "ĠBer": 5201,
      "^{-": 5202,
      "Ġrich": 5203,
      "Ġregional": 5204,
      "Ġshap": 5205,
      "Ġattract": 5206,
      "anging": 5207,
      "ystem": 5208,
      "Ġtheore": 5209,
      "ĠHol": 5210,
      "spect": 5211,
      "ounced": 5212,
      "sembly": 5213,
      "exp": 5214,
      "Ġemployment": 5215,
      "ĠDan": 5216,
      "Ġratio": 5217,
      "ĠTheir": 5218,
      "DF": 5219,
      "rum": 5220,
      "Ġrelation": 5221,
      "BS": 5222,
      "ĠTexas": 5223,
      "ĠWhy": 5224,
      "Ġbuildings": 5225,
      "Ġgets": 5226,
      "know": 5227,
      "band": 5228,
      "AY": 5229,
      "bert": 5230,
      "ctors": 5231,
      "Ġfiles": 5232,
      "Ġoffered": 5233,
      "Ġfirm": 5234,
      "RC": 5235,
      "Ġdistinct": 5236,
      "Ġcontrast": 5237,
      "ĠRobert": 5238,
      "ĠSl": 5239,
      "hi": 5240,
      "Ġzero": 5241,
      "ĠInternet": 5242,
      "These": 5243,
      "Ġspecifically": 5244,
      "iling": 5245,
      "ĠThrough": 5246,
      "http": 5247,
      "ĠIII": 5248,
      "From": 5249,
      "Ġpursu": 5250,
      "Ġdoll": 5251,
      "Ġargument": 5252,
      "Ġclosed": 5253,
      "Ġconsistent": 5254,
      "state": 5255,
      "Ġ1997": 5256,
      "Ġunf": 5257,
      "Ġpages": 5258,
      "Ġefficiency": 5259,
      "mu": 5260,
      "Ġ\\\\": 5261,
      "Ġselection": 5262,
      "rates": 5263,
      "ĠRequ": 5264,
      "Ġswe": 5265,
      "Ġtruth": 5266,
      "ĠJer": 5267,
      "Ġ44": 5268,
      "Ġtechnologies": 5269,
      "ĠHall": 5270,
      "Ġsolid": 5271,
      "----|": 5272,
      "Ġremoved": 5273,
      "ĠAlex": 5274,
      "ns": 5275,
      "ulty": 5276,
      "Ġunivers": 5277,
      "Ġvary": 5278,
      "ĠStep": 5279,
      "bu": 5280,
      "amental": 5281,
      "bf": 5282,
      "Ġindicate": 5283,
      "theta": 5284,
      "lies": 5285,
      "ĠFranc": 5286,
      "gu": 5287,
      "ĠThomas": 5288,
      "Ġinterested": 5289,
      "asks": 5290,
      "Ġatmosp": 5291,
      "Ġrecommended": 5292,
      "arden": 5293,
      "ĠLab": 5294,
      "Ġ43": 5295,
      "Ġcycle": 5296,
      "Ġconsumption": 5297,
      "Ġ500": 5298,
      "Ġdiscovered": 5299,
      "ado": 5300,
      "iary": 5301,
      "Ġrepresents": 5302,
      "Ġdiss": 5303,
      "ĠGr": 5304,
      "Ġlandsc": 5305,
      "ĠâĨ": 5306,
      "Ġchance": 5307,
      "ĠHel": 5308,
      "Ġstrugg": 5309,
      "Ġquarter": 5310,
      "Ġ---": 5311,
      "ĠMo": 5312,
      "Ġresistance": 5313,
      "ias": 5314,
      "ĠJewish": 5315,
      "Ġroll": 5316,
      "ĠFe": 5317,
      "Ġupper": 5318,
      "Ġelim": 5319,
      "Ġbelong": 5320,
      "Ġoptim": 5321,
      "\")": 5322,
      "De": 5323,
      "Ġpromote": 5324,
      "Ġdetailed": 5325,
      "eared": 5326,
      "hedule": 5327,
      "Ġimpl": 5328,
      "anges": 5329,
      "ĠAL": 5330,
      "Ġrestrict": 5331,
      "Ġcontribute": 5332,
      "udd": 5333,
      "orrow": 5334,
      "Ġbill": 5335,
      "cious": 5336,
      "ria": 5337,
      "Ind": 5338,
      "ĠLife": 5339,
      "Ġ41": 5340,
      "Ġindustrial": 5341,
      "born": 5342,
      "That": 5343,
      "spec": 5344,
      "Ġwear": 5345,
      "Ġemissions": 5346,
      "road": 5347,
      "ĠSP": 5348,
      "Ġtreated": 5349,
      "Pl": 5350,
      "ĠSS": 5351,
      "Ġproport": 5352,
      "Ġapproaches": 5353,
      "Ġpayment": 5354,
      "luded": 5355,
      "ĠPo": 5356,
      "Ġcop": 5357,
      "Ġdepartment": 5358,
      "ĠType": 5359,
      "Ġagencies": 5360,
      "Ġaccepted": 5361,
      "ails": 5362,
      "Ġ55": 5363,
      "ician": 5364,
      "Ġfresh": 5365,
      "Ġreturned": 5366,
      "Ġsen": 5367,
      "Ġnuclear": 5368,
      "Ġcriteria": 5369,
      "Ġimproved": 5370,
      "Ġplaying": 5371,
      "Ġsales": 5372,
      "aughter": 5373,
      "ĠConst": 5374,
      "ĠĠĠĠĠĠĠĠĠĠĠĠĠĠĠĠĠĠĠĠĠĠĠĠĠĠĠĠĠĠĠĠĠĠĠ": 5375,
      "Ġ1996": 5376,
      "Ġsynt": 5377,
      "Ġspent": 5378,
      "Ġmort": 5379,
      "ishes": 5380,
      "ĠHen": 5381,
      "Ġdrugs": 5382,
      "Ġdescription": 5383,
      "Ġbottom": 5384,
      "MA": 5385,
      "ITY": 5386,
      "Ġhousing": 5387,
      "ibilities": 5388,
      "sect": 5389,
      "ĠEmploy": 5390,
      "ĠWil": 5391,
      "Ġamounts": 5392,
      "Ġmer": 5393,
      "abil": 5394,
      "Ġcrop": 5395,
      "Ġbreat": 5396,
      "ĠMass": 5397,
      "Ġdouble": 5398,
      "ĠComput": 5399,
      "stract": 5400,
      "Ġtherapy": 5401,
      "Ġbrief": 5402,
      "Ġalgorithm": 5403,
      "Ġmulti": 5404,
      "Ġassign": 5405,
      "ĠContract": 5406,
      "ript": 5407,
      "Ġcreation": 5408,
      "Ġhappen": 5409,
      "Let": 5410,
      ".**": 5411,
      "Ġreporting": 5412,
      "Ġmaintenance": 5413,
      "ĠSk": 5414,
      "under": 5415,
      "Ġinstitution": 5416,
      "Ġnumerous": 5417,
      "Ġclos": 5418,
      "onic": 5419,
      "inding": 5420,
      "ressed": 5421,
      "Ġsuggests": 5422,
      "ĠAN": 5423,
      "Ġformat": 5424,
      "bur": 5425,
      "En": 5426,
      "ags": 5427,
      "}^": 5428,
      "van": 5429,
      "ensus": 5430,
      "Ġelection": 5431,
      "Ġvaluable": 5432,
      "iform": 5433,
      "Ġexpert": 5434,
      "Ġinvolves": 5435,
      "Ġgender": 5436,
      "Ġreached": 5437,
      "Ab": 5438,
      "enth": 5439,
      "Ġframework": 5440,
      "Ġheight": 5441,
      "AA": 5442,
      "Ġdebt": 5443,
      "alse": 5444,
      "aker": 5445,
      "ĠCamp": 5446,
      "Ġlayer": 5447,
      "Ġdirector": 5448,
      ".[": 5449,
      "Ġtransl": 5450,
      "Ġviolence": 5451,
      "ĠDNA": 5452,
      "ulf": 5453,
      "ester": 5454,
      "Ġchanging": 5455,
      "cohol": 5456,
      "Ġadvanced": 5457,
      "Ġexcess": 5458,
      "ĠResp": 5459,
      "eces": 5460,
      "ĠIsland": 5461,
      "amil": 5462,
      "Ġtrial": 5463,
      "unk": 5464,
      "ĠGood": 5465,
      "Qu": 5466,
      "ĠMount": 5467,
      "Ġtraffic": 5468,
      "omy": 5469,
      "Ġhospital": 5470,
      "Ġopinion": 5471,
      "Ġoutcomes": 5472,
      "Ġimpacts": 5473,
      "ĠGold": 5474,
      "Ġdiseases": 5475,
      "PM": 5476,
      "Ġcities": 5477,
      "Ġportion": 5478,
      "Ġconcepts": 5479,
      "lick": 5480,
      "des": 5481,
      "Ġbed": 5482,
      "cular": 5483,
      "Ġpi": 5484,
      "roph": 5485,
      "Ġallowing": 5486,
      "Ġblue": 5487,
      "ĠMichael": 5488,
      "ĠRad": 5489,
      "ĠTre": 5490,
      "Ġprimarily": 5491,
      "Se": 5492,
      "Ġjournal": 5493,
      "cles": 5494,
      "Ġspl": 5495,
      "Ġcollected": 5496,
      "Ġprovisions": 5497,
      "Ġfit": 5498,
      "Ġarm": 5499,
      "Ġwave": 5500,
      "ĠStudents": 5501,
      "ĠTV": 5502,
      "Ġsend": 5503,
      "Ġdescribe": 5504,
      "Ġheavy": 5505,
      "Ġcircumstances": 5506,
      "adian": 5507,
      "Ġlibrary": 5508,
      "gery": 5509,
      "Ġmaster": 5510,
      "ĠCorpor": 5511,
      "Ġthin": 5512,
      "ĠMont": 5513,
      "Ġdial": 5514,
      "ourney": 5515,
      "Ġobvious": 5516,
      "Ġdetect": 5517,
      "astern": 5518,
      "quad": 5519,
      "lar": 5520,
      "ini": 5521,
      "Ġpretty": 5522,
      "icial": 5523,
      "Ġcontaining": 5524,
      "Ġsave": 5525,
      "phi": 5526,
      "lastname": 5527,
      "zy": 5528,
      "ĠConn": 5529,
      "Ġdensity": 5530,
      "ishing": 5531,
      "riage": 5532,
      "ĠCath": 5533,
      "Ġeventually": 5534,
      "Ġfacilit": 5535,
      "Ġprofession": 5536,
      "ĠEnvironmental": 5537,
      "Ġeffectively": 5538,
      "ca": 5539,
      "nic": 5540,
      "\\]": 5541,
      "Ġinfection": 5542,
      "Ġ1995": 5543,
      "Ġmale": 5544,
      "ifies": 5545,
      "Ġapproval": 5546,
      "Ġalt": 5547,
      "mail": 5548,
      "Ġdiverse": 5549,
      "Ġdim": 5550,
      "Ġdie": 5551,
      "Ġresolution": 5552,
      "iled": 5553,
      "Ġsyn": 5554,
      "Ġphone": 5555,
      "Us": 5556,
      "Ġfacility": 5557,
      "ĠFlor": 5558,
      "olf": 5559,
      "Ġ................................................................": 5560,
      "ĠTH": 5561,
      "Ġbus": 5562,
      "Ġadopted": 5563,
      "beta": 5564,
      "Ġpractical": 5565,
      "Ġcombined": 5566,
      "ocratic": 5567,
      "ĠConference": 5568,
      "Ġonto": 5569,
      "Ġliber": 5570,
      "Ġemergency": 5571,
      "ĠMD": 5572,
      "essel": 5573,
      "estion": 5574,
      "Ġpresident": 5575,
      "ĠAT": 5576,
      "aper": 5577,
      "abetes": 5578,
      "ĠON": 5579,
      "Ġlooked": 5580,
      "ormal": 5581,
      "bal": 5582,
      "ĠAut": 5583,
      "Ġleaves": 5584,
      "Ġready": 5585,
      "Ġbodies": 5586,
      "Ġengineering": 5587,
      "enced": 5588,
      "oster": 5589,
      "inn": 5590,
      "ĠMethod": 5591,
      "RI": 5592,
      "tage": 5593,
      "UM": 5594,
      "Ġpopulations": 5595,
      "rich": 5596,
      "\\(^{": 5597,
      "rust": 5598,
      "ĠUp": 5599,
      "Ġkept": 5600,
      "ĠRetrieved": 5601,
      "clus": 5602,
      "Ġarrange": 5603,
      "ĠOpen": 5604,
      "Ġknew": 5605,
      "Ġlived": 5606,
      "ART": 5607,
      "ĠEnd": 5608,
      "phone": 5609,
      "ĠLabor": 5610,
      "rating": 5611,
      "ston": 5612,
      "Ġriver": 5613,
      "Ġflex": 5614,
      "Ġcooper": 5615,
      "ĠFinancial": 5616,
      "Ġisol": 5617,
      "Ġequivalent": 5618,
      "Ġshowing": 5619,
      "Ġconflict": 5620,
      "()": 5621,
      "Ġplayer": 5622,
      "Ġgenerated": 5623,
      "ĠSou": 5624,
      "itis": 5625,
      "ĠSuch": 5626,
      "uled": 5627,
      "style": 5628,
      "Ġcast": 5629,
      "Ġdelivery": 5630,
      "han": 5631,
      "orb": 5632,
      "Ġcorresponding": 5633,
      "EF": 5634,
      "Ġagreed": 5635,
      "Ġpip": 5636,
      "ĠNote": 5637,
      "ĠChapter": 5638,
      "west": 5639,
      "bum": 5640,
      "Ġtransition": 5641,
      "ĠPract": 5642,
      "Ġprobability": 5643,
      "def": 5644,
      "Ġtried": 5645,
      "Ġformal": 5646,
      "gypt": 5647,
      "Ġ46": 5648,
      "ĠMiddle": 5649,
      "Ġ300": 5650,
      "Ġexplan": 5651,
      "Ð½": 5652,
      "from": 5653,
      "ded": 5654,
      "Ġbrother": 5655,
      "AND": 5656,
      "2012": 5657,
      "Ġended": 5658,
      "ooth": 5659,
      "Ġgenetic": 5660,
      "Ġprovision": 5661,
      "prove": 5662,
      "ĠIns": 5663,
      "ona": 5664,
      "Ġsell": 5665,
      "Ġminim": 5666,
      "Ġcris": 5667,
      "ãĤ": 5668,
      "Ġremaining": 5669,
      "Ġreaction": 5670,
      "Ġraised": 5671,
      "ĠNews": 5672,
      "agraph": 5673,
      "ints": 5674,
      "ĠÂ£": 5675,
      "Ġsuggested": 5676,
      "ĠOh": 5677,
      "ita": 5678,
      "Ã¤": 5679,
      "Ġing": 5680,
      "Ġ($": 5681,
      "Ġstraight": 5682,
      "ĠUSA": 5683,
      "Ġmetal": 5684,
      "Ġadequ": 5685,
      "Ġthick": 5686,
      "My": 5687,
      "ĠRob": 5688,
      "Ġliquid": 5689,
      "Ġadvantage": 5690,
      "Ġ(\"": 5691,
      "Ġhearing": 5692,
      "ĠNor": 5693,
      "ĠChem": 5694,
      "mod": 5695,
      "Ar": 5696,
      "sq": 5697,
      "ĠHIV": 5698,
      "ĠFac": 5699,
      "urities": 5700,
      "istan": 5701,
      "ĠNav": 5702,
      "Ġreality": 5703,
      "Ġplanet": 5704,
      "xic": 5705,
      "ĠFoundation": 5706,
      "bi": 5707,
      "ĠList": 5708,
      "celer": 5709,
      "ĠAgreement": 5710,
      "Ġdeliver": 5711,
      "ĠIts": 5712,
      "Ġsustainable": 5713,
      "Ġscore": 5714,
      "tes": 5715,
      "Ġglass": 5716,
      "ansion": 5717,
      "atal": 5718,
      "Ġlooks": 5719,
      "ĠQue": 5720,
      "ship": 5721,
      "ĠArmy": 5722,
      "Ġtrou": 5723,
      "SE": 5724,
      "Ġinstrument": 5725,
      "Ġsac": 5726,
      "Ġcontinues": 5727,
      "While": 5728,
      "ĠPlease": 5729,
      "Ġintellig": 5730,
      "aud": 5731,
      "Ġindicated": 5732,
      "Ġenhance": 5733,
      "Ġdespite": 5734,
      "ĠStudy": 5735,
      "Ġnetworks": 5736,
      "win": 5737,
      "Ġexplained": 5738,
      "--|": 5739,
      "Ġestimates": 5740,
      "Ġpregn": 5741,
      "lambda": 5742,
      "Ġpun": 5743,
      "Ġcustomers": 5744,
      "acific": 5745,
      "ï¼": 5746,
      "Ġremove": 5747,
      "Ġshares": 5748,
      "ĠAccess": 5749,
      "mp": 5750,
      "ĠStudies": 5751,
      "Ġyouth": 5752,
      "ĠMax": 5753,
      "Ġinfrastructure": 5754,
      "ĠFrank": 5755,
      "alled": 5756,
      "ĠLake": 5757,
      "Ġemployee": 5758,
      "sey": 5759,
      "ĠBill": 5760,
      "uality": 5761,
      "Ġmotor": 5762,
      "ĠVirgin": 5763,
      "rows": 5764,
      "allel": 5765,
      "ademy": 5766,
      "Ġthousands": 5767,
      "Ġseek": 5768,
      "Ġ47": 5769,
      "Ġbusinesses": 5770,
      "Ġ00": 5771,
      "aid": 5772,
      "EX": 5773,
      "ĠJapanese": 5774,
      "ĠWomen": 5775,
      "Ġoccurred": 5776,
      "inger": 5777,
      "ĠĠĠĠĠĠĠĠĠĠĠĠĠĠĠĠĠĠĠĠĠĠĠĠĠĠĠĠĠĠĠĠĠĠĠĠ": 5778,
      "Some": 5779,
      "Ġentry": 5780,
      "Ġfoods": 5781,
      "Ġgoods": 5782,
      "Ġ64": 5783,
      "ĠJose": 5784,
      "Ġproof": 5785,
      "ĠPub": 5786,
      "Ġplayers": 5787,
      "Ġterrit": 5788,
      "Ġviews": 5789,
      "gov": 5790,
      "Ġsurrounding": 5791,
      "Ġadministration": 5792,
      "Ġvictim": 5793,
      "rem": 5794,
      "Ġwife": 5795,
      "ĠAccount": 5796,
      "Ġstim": 5797,
      "ĠTur": 5798,
      "Ġbecoming": 5799,
      "comm": 5800,
      "!!": 5801,
      "Ġresidents": 5802,
      "Ġvision": 5803,
      "ĠAnalysis": 5804,
      "Ġfinally": 5805,
      "CD": 5806,
      "Ġsigns": 5807,
      "Ġflood": 5808,
      "Le": 5809,
      "Ġestimate": 5810,
      "Ġclub": 5811,
      "riminal": 5812,
      "ĠAdv": 5813,
      "iced": 5814,
      "à¤°": 5815,
      "Ġreform": 5816,
      "ĠExpl": 5817,
      "ĠPet": 5818,
      "ĠTop": 5819,
      "ĠBook": 5820,
      "Ġencourage": 5821,
      "Ġdatabase": 5822,
      "ĠMicro": 5823,
      "Ġvs": 5824,
      "Ġlik": 5825,
      "CP": 5826,
      "ĠUsing": 5827,
      "ĠSign": 5828,
      "Ġvit": 5829,
      "Ġdomestic": 5830,
      "Ġcourses": 5831,
      "ĠMA": 5832,
      "ĠChildren": 5833,
      "Ġship": 5834,
      "Ġexpressed": 5835,
      "2013": 5836,
      "elcome": 5837,
      "Ġtechnique": 5838,
      "Ġpositions": 5839,
      "ĠEngineering": 5840,
      "Ġegg": 5841,
      "ĠNO": 5842,
      "Ġdestroy": 5843,
      "leq": 5844,
      "ĠLin": 5845,
      "Ġvent": 5846,
      "Ġdoor": 5847,
      "ĠSecurity": 5848,
      "Ġreasonable": 5849,
      "Ġhelped": 5850,
      "Ġrepresented": 5851,
      "ÙĦ": 5852,
      "Ġdepth": 5853,
      "istant": 5854,
      "ĠArab": 5855,
      "isk": 5856,
      "Ġwest": 5857,
      "ĠEvery": 5858,
      "itative": 5859,
      "Ġrenew": 5860,
      "Ġ49": 5861,
      "Ġfreedom": 5862,
      "emic": 5863,
      "ĠĠĠĠĠĠĠĠĠĠĠĠĠĠĠĠĠĠĠĠĠĠĠĠĠĠĠĠĠĠĠĠĠĠĠĠĠĠĠ": 5864,
      "pling": 5865,
      "Ġlabel": 5866,
      "Ġwonder": 5867,
      "Ġkilled": 5868,
      "ĠPan": 5869,
      "icians": 5870,
      "Ġmanufacture": 5871,
      "ĠAR": 5872,
      "Ġsubmitted": 5873,
      "Ġconfig": 5874,
      "Ġrecognized": 5875,
      "ĠFood": 5876,
      "Ġexists": 5877,
      "Ġgene": 5878,
      "Ġhit": 5879,
      "QU": 5880,
      "ĠExper": 5881,
      "ÂŃ": 5882,
      "Ġadult": 5883,
      "ĠPsych": 5884,
      "ĠIslam": 5885,
      "_\\": 5886,
      "ĠEgypt": 5887,
      "Ġcolle": 5888,
      "Ġattribut": 5889,
      "Ġexistence": 5890,
      "Ġspeech": 5891,
      "Ġslightly": 5892,
      "Ġitem": 5893,
      "âĤ": 5894,
      "Ġparticipation": 5895,
      "Ġ------": 5896,
      "Ġcrucial": 5897,
      "Ġpurchase": 5898,
      "Ġclust": 5899,
      "osite": 5900,
      "2020": 5901,
      "ĠPeter": 5902,
      "Ġforth": 5903,
      "Ġinvent": 5904,
      "ĠÂ±": 5905,
      "Ġgun": 5906,
      "apping": 5907,
      "Ġhappened": 5908,
      "Ġarticles": 5909,
      "ĠMember": 5910,
      "Ġdepending": 5911,
      "Ġvoice": 5912,
      "Ġgrand": 5913,
      "ĠBoth": 5914,
      "Ġmatters": 5915,
      "ogle": 5916,
      "ĠPR": 5917,
      "ĠMult": 5918,
      "flow": 5919,
      "Ġrail": 5920,
      "ĠTeam": 5921,
      "ampions": 5922,
      "Ġsomew": 5923,
      "Ġwinter": 5924,
      "Ġfrequently": 5925,
      "forcement": 5926,
      "Ġadvice": 5927,
      "anged": 5928,
      "asp": 5929,
      "position": 5930,
      "Ġteach": 5931,
      "ano": 5932,
      "ĠLong": 5933,
      "Ġdefault": 5934,
      "ipped": 5935,
      "istical": 5936,
      "itage": 5937,
      "ĠOld": 5938,
      "Ġhappens": 5939,
      "Ġphilosoph": 5940,
      "ĠMexico": 5941,
      "Ġdram": 5942,
      "Ġfocused": 5943,
      "2010": 5944,
      "ĠOnce": 5945,
      "Ġbelieved": 5946,
      "iverse": 5947,
      "ptions": 5948,
      "ĠÂ§": 5949,
      "Ġcalculated": 5950,
      "ceived": 5951,
      "Ġchannel": 5952,
      "ror": 5953,
      "ĠCarol": 5954,
      "Ġformation": 5955,
      "ĠMars": 5956,
      "ogue": 5957,
      "Ġperiods": 5958,
      "but": 5959,
      "Ġhuge": 5960,
      "Ġleads": 5961,
      "Ġax": 5962,
      "Ġdiscl": 5963,
      "Ġmeant": 5964,
      "akers": 5965,
      "Ġ1994": 5966,
      "ML": 5967,
      "Ġplays": 5968,
      "body": 5969,
      "Ġà¦": 5970,
      "ĠHistor": 5971,
      "ĠAtl": 5972,
      "ĠLibrary": 5973,
      "Ġabsolute": 5974,
      "hetic": 5975,
      "Ġmit": 5976,
      "ĠCost": 5977,
      "Ġspring": 5978,
      "Ġbreast": 5979,
      "itled": 5980,
      "Ġnative": 5981,
      "espite": 5982,
      "Ġfundamental": 5983,
      "ĠCA": 5984,
      "burg": 5985,
      "ĠIT": 5986,
      "Ġguidelines": 5987,
      "ĠMag": 5988,
      "Ġconsideration": 5989,
      "Ġcommonly": 5990,
      "Ġreducing": 5991,
      "Ġdefine": 5992,
      "ĠTrust": 5993,
      "PL": 5994,
      "Ġcomprehensive": 5995,
      "ĠEr": 5996,
      "ĠTim": 5997,
      "Ġcalls": 5998,
      "Ġvector": 5999,
      "Ġcalc": 6000,
      "ĠIndust": 6001,
      "ilon": 6002,
      "ĠTax": 6003,
      "Ġperman": 6004,
      "Ġexperienced": 6005,
      "ĠCharles": 6006,
      "Americ": 6007,
      "Ġacknow": 6008,
      "clusion": 6009,
      "ĠChair": 6010,
      "Ġaid": 6011,
      "ĠIr": 6012,
      "ulum": 6013,
      "Sub": 6014,
      "Ġpercentage": 6015,
      "upp": 6016,
      "atever": 6017,
      "oved": 6018,
      "Ġesc": 6019,
      "Ġmere": 6020,
      "Ġhaz": 6021,
      "Ġapparent": 6022,
      "Ġtherm": 6023,
      "Ġdegrees": 6024,
      "ĠHome": 6025,
      "DP": 6026,
      "Ġfloor": 6027,
      "Ġstorm": 6028,
      "Ġconservation": 6029,
      "ĠArea": 6030,
      "ulner": 6031,
      "ĠMuseum": 6032,
      "Ġelectronic": 6033,
      "sigma": 6034,
      "Ġexcell": 6035,
      "Ġcontained": 6036,
      "Our": 6037,
      "ĠLouis": 6038,
      "Ġsharing": 6039,
      "ĠMad": 6040,
      "ĠBur": 6041,
      "Ġsand": 6042,
      "Ġlimits": 6043,
      "ĠMill": 6044,
      "Ġweap": 6045,
      "ĠAppro": 6046,
      "ourse": 6047,
      "erate": 6048,
      "Ġconcerned": 6049,
      "ĠBre": 6050,
      "stream": 6051,
      "Ġjobs": 6052,
      "ï»": 6053,
      "ĠIll": 6054,
      "cel": 6055,
      "Ġ54": 6056,
      "ĠSpanish": 6057,
      "Total": 6058,
      "agon": 6059,
      "Ġdiscover": 6060,
      "rog": 6061,
      "Ġeast": 6062,
      "nam": 6063,
      "ĠPerson": 6064,
      "Ġremained": 6065,
      "Ġtrig": 6066,
      "aph": 6067,
      "bour": 6068,
      "CI": 6069,
      "Ġlit": 6070,
      "ĠCivil": 6071,
      "Ġgrade": 6072,
      "Ġplot": 6073,
      "Ġphenomen": 6074,
      "</": 6075,
      "Ġcompetition": 6076,
      "rome": 6077,
      "Step": 6078,
      "Ġswitch": 6079,
      "Ġfif": 6080,
      "Ġmanage": 6081,
      "Ġcategory": 6082,
      "Ġcomfort": 6083,
      "Ġbeautiful": 6084,
      "Ġreligion": 6085,
      "arp": 6086,
      "ena": 6087,
      "ĠKore": 6088,
      "Ġrecip": 6089,
      "Acc": 6090,
      "ĠLu": 6091,
      "Ġexec": 6092,
      "ban": 6093,
      "Ġradiation": 6094,
      "Ġmo": 6095,
      "Ġconnections": 6096,
      "Ġ1980": 6097,
      "Ġmedium": 6098,
      "lete": 6099,
      "Ġperspective": 6100,
      "****": 6101,
      "Ġguarant": 6102,
      "Ġhop": 6103,
      "Ġtouch": 6104,
      "ĠNov": 6105,
      "lude": 6106,
      "Ġeasier": 6107,
      "Ġwasn": 6108,
      "ĠDescription": 6109,
      "Am": 6110,
      "Ġextended": 6111,
      "awn": 6112,
      "Ġamb": 6113,
      "Me": 6114,
      "Ġbatter": 6115,
      "Ġ95": 6116,
      "iscal": 6117,
      "Ġwindow": 6118,
      "Ġbaby": 6119,
      "Ġsubjects": 6120,
      "begin": 6121,
      "Ġhair": 6122,
      "Ġreject": 6123,
      "Ġtopic": 6124,
      "Ġaccounts": 6125,
      "Ġjourney": 6126,
      "ava": 6127,
      "endit": 6128,
      "uls": 6129,
      "Ġofficials": 6130,
      "Ġbirds": 6131,
      "Ġconsists": 6132,
      "Ġinstruction": 6133,
      "Ġconcentration": 6134,
      "Ġneut": 6135,
      "Ġleadership": 6136,
      "ircraft": 6137,
      "Ġmarkets": 6138,
      "Ġmist": 6139,
      "Ġcompliance": 6140,
      "rag": 6141,
      "Rec": 6142,
      "ĠGovern": 6143,
      "à¥į": 6144,
      "ait": 6145,
      "UB": 6146,
      "Ġrank": 6147,
      "Ġvessel": 6148,
      "uracy": 6149,
      "Ġtasks": 6150,
      "ĠTor": 6151,
      "ĠRights": 6152,
      "Ġsched": 6153,
      "Ġillness": 6154,
      "eties": 6155,
      "Ġtrib": 6156,
      "Ġindicates": 6157,
      "Ġmorning": 6158,
      "Ġaccurate": 6159,
      "just": 6160,
      "Other": 6161,
      "Ġfilled": 6162,
      "icago": 6163,
      "Ġinjury": 6164,
      "zing": 6165,
      "Ġappeal": 6166,
      "ĠSecretary": 6167,
      "oto": 6168,
      "Ġ52": 6169,
      "Ġtopics": 6170,
      "Ġuncertain": 6171,
      "Ġtalking": 6172,
      "Ġfol": 6173,
      "RS": 6174,
      "ĠGlobal": 6175,
      "Ġedge": 6176,
      "Ġsituations": 6177,
      "Ġmostly": 6178,
      "Ġtrain": 6179,
      "roduct": 6180,
      "ygen": 6181,
      "Ġroot": 6182,
      "Ġcouple": 6183,
      "}_{": 6184,
      "Ġlanguages": 6185,
      "ĠOrder": 6186,
      "Ġimprovement": 6187,
      "Ġrefers": 6188,
      "Ġundert": 6189,
      "Ġ51": 6190,
      "ĠSet": 6191,
      "osc": 6192,
      "Ġpeak": 6193,
      "ependent": 6194,
      "Ġenable": 6195,
      "Ġrow": 6196,
      "ĠFig": 6197,
      "erves": 6198,
      "stein": 6199,
      "net": 6200,
      "Ġextremely": 6201,
      "IB": 6202,
      "Ġsigned": 6203,
      "Ġpil": 6204,
      "racy": 6205,
      "à¥ĩ": 6206,
      "Ġfigures": 6207,
      "Ġiron": 6208,
      "log": 6209,
      "Ġmotiv": 6210,
      "Ġclick": 6211,
      "anguage": 6212,
      "Ġprinciple": 6213,
      "ĠModel": 6214,
      "rics": 6215,
      "ĠĠĠĠĠĠĠĠĠĠĠĠĠĠĠĠĠĠĠĠĠĠĠĠĠĠĠĠĠĠĠĠĠĠĠĠĠĠ": 6216,
      "ÑĤ": 6217,
      "Ġextract": 6218,
      "Ġindu": 6219,
      "Ġleader": 6220,
      "ĠEU": 6221,
      "aser": 6222,
      "ĠAgency": 6223,
      "ologist": 6224,
      "Ġelig": 6225,
      "Ġadvoc": 6226,
      "2011": 6227,
      "ĠEN": 6228,
      "Ġcompens": 6229,
      "ĠCurrent": 6230,
      "Ġstudied": 6231,
      "ola": 6232,
      "ĠJul": 6233,
      "cher": 6234,
      "ĠIP": 6235,
      "Ġsin": 6236,
      "ĠAsia": 6237,
      "inations": 6238,
      "Ġconstra": 6239,
      "Ġcomparison": 6240,
      "inity": 6241,
      "igenous": 6242,
      "Ġfasc": 6243,
      "They": 6244,
      "Ġmal": 6245,
      "ĠBrown": 6246,
      "ĠPlay": 6247,
      "gal": 6248,
      "Ġperm": 6249,
      "ĠPage": 6250,
      "ĠFlorida": 6251,
      "Ġmouth": 6252,
      "Ġjustice": 6253,
      "Comm": 6254,
      "Ġbattle": 6255,
      "ĠClub": 6256,
      "ĠPL": 6257,
      "ato": 6258,
      "Ġdiscrim": 6259,
      "Ġaw": 6260,
      "101": 6261,
      "Ġparticipate": 6262,
      "Ġdiscipl": 6263,
      "ĠSystems": 6264,
      "Ġawareness": 6265,
      "ĠLeague": 6266,
      "Ġconclusion": 6267,
      "inet": 6268,
      "Ġod": 6269,
      "Ġsupporting": 6270,
      "Ġaf": 6271,
      "Ġmeasurement": 6272,
      "EW": 6273,
      "ĠLo": 6274,
      "Ġteams": 6275,
      "ãĥ": 6276,
      "Ġfeeling": 6277,
      "yr": 6278,
      "Ġcontrolled": 6279,
      "}$$": 6280,
      "Ġchosen": 6281,
      "Ġproperly": 6282,
      "osystem": 6283,
      "âĢĿ.": 6284,
      "Ġ56": 6285,
      "Ġcontinuous": 6286,
      "Ġped": 6287,
      "Ġpair": 6288,
      "eper": 6289,
      "Ġtal": 6290,
      "ython": 6291,
      "âĪĴ": 6292,
      "UD": 6293,
      "cdot": 6294,
      "ĠMedicine": 6295,
      "Ġinteraction": 6296,
      "ĠPrinc": 6297,
      "Ġleaving": 6298,
      "Ġ53": 6299,
      "Ġassigned": 6300,
      "Ġwidely": 6301,
      "rey": 6302,
      "othing": 6303,
      "Ġrepresentation": 6304,
      "Ġ150": 6305,
      "ĠISBN": 6306,
      "abled": 6307,
      "Ġstring": 6308,
      "ĠSupport": 6309,
      "va": 6310,
      "ASA": 6311,
      "Ġlocations": 6312,
      "Ġprison": 6313,
      "Ġcm": 6314,
      "Ġmedicine": 6315,
      "HS": 6316,
      "ĠVis": 6317,
      "Ġhomes": 6318,
      "====": 6319,
      "ĠAssess": 6320,
      "ancer": 6321,
      "Ġdisapp": 6322,
      "Ġspaces": 6323,
      "agine": 6324,
      "Ġcorrel": 6325,
      "Ġaccomp": 6326,
      "Ġnoise": 6327,
      "Ġtum": 6328,
      "eaking": 6329,
      "ĠCult": 6330,
      "ingly": 6331,
      "Ġelev": 6332,
      "___": 6333,
      "Ġdomain": 6334,
      "Ġauthorities": 6335,
      "Ġelectricity": 6336,
      "Ġmeetings": 6337,
      "Ġdelay": 6338,
      "Ġguidance": 6339,
      ".*": 6340,
      "Ġsides": 6341,
      "ĠAud": 6342,
      "Ġwish": 6343,
      "Ġgenerate": 6344,
      "Ġpray": 6345,
      "uted": 6346,
      "top": 6347,
      "ĠPacific": 6348,
      "ĠVict": 6349,
      "Ġinvolving": 6350,
      "Ġsimpl": 6351,
      "Ġkill": 6352,
      "ĠTem": 6353,
      "Ġrequirement": 6354,
      "ĠScott": 6355,
      "Ġappeared": 6356,
      "Ġcoal": 6357,
      "Ġcoverage": 6358,
      "anta": 6359,
      "ĠAcademy": 6360,
      "pat": 6361,
      "Ġfamous": 6362,
      "Ġ1993": 6363,
      "Hz": 6364,
      "Ġcontemporary": 6365,
      "Ġclosely": 6366,
      "inder": 6367,
      "agram": 6368,
      "Ġderived": 6369,
      "Ġgar": 6370,
      "Fig": 6371,
      "Ġresponses": 6372,
      "Ġdecades": 6373,
      "ĠSil": 6374,
      "ĠDri": 6375,
      "Ġattached": 6376,
      "Ġamend": 6377,
      "Ġengage": 6378,
      "ĠEffect": 6379,
      "ye": 6380,
      "Ġcertainly": 6381,
      "Ġprincipal": 6382,
      "Ġlatter": 6383,
      "Ġalcohol": 6384,
      "athy": 6385,
      "Ġdiam": 6386,
      "Ġforced": 6387,
      "kins": 6388,
      "Ġadding": 6389,
      "Ġrural": 6390,
      "Ġalle": 6391,
      "Ġpieces": 6392,
      "Ġopening": 6393,
      "Ġ57": 6394,
      "ĠLi": 6395,
      "Ġsecure": 6396,
      "Ġachieved": 6397,
      "ĠWood": 6398,
      "ala": 6399,
      "orph": 6400,
      "Ġreact": 6401,
      "Ġconsequences": 6402,
      "Ġconvent": 6403,
      "Ġmainly": 6404,
      "Ġopened": 6405,
      "à¸": 6406,
      "error": 6407,
      "Here": 6408,
      "eer": 6409,
      "formance": 6410,
      "!\"": 6411,
      "class": 6412,
      "ĠMa": 6413,
      "Ġvehicles": 6414,
      "Ġtransmission": 6415,
      "Ġsan": 6416,
      "Ġmaybe": 6417,
      "Ġfailed": 6418,
      "Ġdro": 6419,
      "hand": 6420,
      "Ġnarr": 6421,
      "Ġtransportation": 6422,
      "agers": 6423,
      "Ġspot": 6424,
      "Ġrevenue": 6425,
      "Ġobjective": 6426,
      "Ġeating": 6427,
      "Ġdiversity": 6428,
      "rants": 6429,
      "fol": 6430,
      "ompl": 6431,
      "Ġdoi": 6432,
      "faces": 6433,
      "orter": 6434,
      "300": 6435,
      "Ġvirus": 6436,
      "olve": 6437,
      "Ġequations": 6438,
      "ĠGreek": 6439,
      "ĠCanadian": 6440,
      "Ġinvestigation": 6441,
      "ĠJews": 6442,
      "Not": 6443,
      "liam": 6444,
      "edy": 6445,
      "ĠLocal": 6446,
      "Ġtissue": 6447,
      "FF": 6448,
      "Ġlinks": 6449,
      "alls": 6450,
      "ĠCommon": 6451,
      "ani": 6452,
      "Ġrecommendations": 6453,
      "erning": 6454,
      "alian": 6455,
      "Ġnegot": 6456,
      "ĠMoreover": 6457,
      "textit": 6458,
      "idden": 6459,
      "-|--------": 6460,
      "ellect": 6461,
      "ossible": 6462,
      "Ġgenes": 6463,
      "orough": 6464,
      ".:": 6465,
      "edu": 6466,
      "Date": 6467,
      "Ġenem": 6468,
      ".'": 6469,
      "lied": 6470,
      "Ġneighbor": 6471,
      "Â·": 6472,
      "Ġq": 6473,
      "ĠExam": 6474,
      "ĠOnly": 6475,
      "fl": 6476,
      "ĠVer": 6477,
      "ĠFurthermore": 6478,
      "ÑĢ": 6479,
      "Ġrein": 6480,
      "ortunately": 6481,
      "Ġofficers": 6482,
      "uous": 6483,
      "Ġrecovery": 6484,
      "mathbf": 6485,
      "unicipal": 6486,
      "Ġvac": 6487,
      "ognitive": 6488,
      "ĠWhere": 6489,
      "wo": 6490,
      "uris": 6491,
      "Ġdivided": 6492,
      "ĠHead": 6493,
      "Ġformula": 6494,
      "ĠArticle": 6495,
      "Ġsole": 6496,
      "Chapter": 6497,
      "Ġowner": 6498,
      "ĠRef": 6499,
      "Ġcommission": 6500,
      "Ġimmig": 6501,
      "Ġwealth": 6502,
      "Ġongoing": 6503,
      "Ġimplemented": 6504,
      "ferent": 6505,
      "word": 6506,
      "2009": 6507,
      "TA": 6508,
      "ĠInit": 6509,
      "âĢ¦âĢ¦âĢ¦âĢ¦": 6510,
      "Ġcra": 6511,
      "ĠPers": 6512,
      "pdf": 6513,
      "Ġfruit": 6514,
      "kin": 6515,
      "ĠLevel": 6516,
      "Ġfamiliar": 6517,
      "Ġvulner": 6518,
      "ĠPC": 6519,
      "Ġsolve": 6520,
      "Ġtested": 6521,
      "Ġcounty": 6522,
      "ĠMinister": 6523,
      "ĠCP": 6524,
      "list": 6525,
      "ĠĠĠĠĠĠĠĠĠĠĠĠĠĠĠĠĠĠĠĠĠĠĠĠĠĠĠĠĠĠĠĠĠĠĠĠĠĠĠĠĠĠĠĠĠĠĠĠĠĠĠĠĠĠĠĠĠĠĠĠĠĠĠĠĠĠĠĠĠĠĠĠĠĠĠĠĠĠĠĠĠĠĠĠĠĠĠĠĠĠĠĠĠĠĠĠĠĠĠĠĠĠĠĠĠĠĠĠĠĠĠĠĠĠĠĠĠĠĠĠĠĠĠĠĠĠĠĠĠĠĠĠĠĠĠĠĠĠĠĠĠĠĠĠĠĠĠĠĠĠĠĠĠĠĠĠĠĠĠĠĠĠĠĠĠĠĠĠĠĠĠĠĠĠĠĠĠĠĠĠĠĠĠĠĠĠĠĠĠĠĠĠĠĠĠĠĠĠĠĠĠĠĠĠĠĠĠĠĠĠĠĠĠĠĠĠĠĠĠĠĠĠĠĠĠĠĠĠĠĠĠĠĠĠĠĠĠĠĠĠĠĠĠĠĠĠĠĠĠĠĠĠĠĠĠĠĠĠĠĠĠĠĠĠĠĠĠĠĠĠĠĠĠĠĠĠĠĠĠĠĠĠĠĠĠĠĠĠĠĠĠĠĠĠĠĠĠĠĠĠĠĠĠĠĠĠĠĠĠĠĠĠĠĠĠĠĠĠĠĠĠĠĠĠĠĠĠĠĠĠĠĠĠĠĠĠĠĠĠĠĠĠĠĠĠĠĠĠĠĠĠĠĠĠĠĠĠĠĠĠĠĠĠĠĠĠĠĠĠĠĠĠĠĠĠĠĠĠĠĠĠĠĠĠĠĠĠĠĠĠĠĠĠĠĠĠĠĠĠĠĠĠĠĠĠĠĠĠĠĠĠĠĠĠĠĠĠĠĠĠĠĠĠĠĠĠĠĠĠĠĠĠĠĠĠĠĠĠĠĠĠĠĠĠĠĠĠĠĠĠĠĠĠĠĠĠĠĠĠĠĠĠĠĠĠĠĠĠĠĠĠĠĠĠĠĠĠĠĠĠĠĠĠĠĠĠĠĠĠĠĠĠĠĠĠĠĠĠĠĠĠĠĠĠĠĠĠĠĠĠĠĠĠĠĠĠĠĠĠĠĠĠĠĠĠĠĠĠĠĠĠĠĠĠĠĠĠĠĠĠĠĠĠĠĠĠĠĠĠĠĠĠĠĠĠĠĠĠĠĠĠĠĠĠĠĠĠĠĠĠĠĠĠĠĠĠĠĠĠĠĠĠĠĠĠĠĠĠĠĠĠĠĠĠĠĠĠĠĠĠĠĠĠĠĠĠĠĠĠĠĠĠĠĠĠĠĠĠĠĠĠĠĠĠĠĠĠĠĠĠĠĠĠĠĠĠĠĠĠĠĠĠĠĠĠĠĠĠĠĠĠĠĠĠĠĠĠĠĠĠĠĠĠĠĠĠĠĠĠĠĠĠĠĠĠĠĠĠĠĠĠĠĠĠĠĠĠĠĠĠĠĠĠĠĠĠĠĠĠĠĠĠĠĠĠĠĠĠĠĠĠĠĠĠĠĠĠĠĠĠĠĠĠĠĠĠĠĠĠĠĠĠĠĠĠĠĠĠĠĠĠĠĠĠĠĠĠĠĠĠĠĠĠĠĠĠĠĠĠĠĠĠĠĠĠĠĠĠĠĠĠĠĠĠĠĠĠĠĠĠĠĠĠĠĠĠĠĠĠĠĠĠĠĠĠĠĠĠĠĠĠĠĠĠĠĠĠĠĠĠĠĠĠĠĠĠĠĠĠĠĠĠĠĠĠĠĠĠĠĠĠĠĠĠĠĠĠĠĠĠĠĠĠĠĠĠĠĠĠĠĠĠĠĠĠĠĠĠĠĠĠĠĠĠĠĠĠĠĠĠĠĠĠĠĠĠĠĠĠĠĠĠĠĠĠĠĠĠĠĠĠĠĠĠĠĠĠĠĠĠĠĠĠĠĠĠĠĠĠĠĠĠĠĠĠĠĠĠĠĠĠĠĠĠĠĠĠĠĠĠĠĠĠĠĠĠĠĠĠĠĠĠĠĠĠĠĠĠĠĠĠĠĠĠĠĠĠĠĠĠĠĠĠĠĠĠĠĠĠĠĠĠĠĠĠĠĠĠĠĠĠĠĠĠĠĠĠĠĠĠĠĠĠĠĠĠĠĠĠĠĠĠĠĠĠĠĠĠĠĠĠĠĠĠĠĠĠĠĠĠĠĠĠĠ": 6526,
      "Ġdefend": 6527,
      "Ġkm": 6528,
      "Ġcustomer": 6529,
      "ĠCentre": 6530,
      "Ġ1992": 6531,
      "lements": 6532,
      "Ġprove": 6533,
      "Ġsecondary": 6534,
      "including": 6535,
      "ãĢ": 6536,
      "Ġanswers": 6537,
      "ĠGrand": 6538,
      "osa": 6539,
      "Ġdraft": 6540,
      "Ġhyper": 6541,
      "ĠToday": 6542,
      "Ġemployed": 6543,
      "osh": 6544,
      "à¦¾": 6545,
      "Ġentered": 6546,
      "2008": 6547,
      "Ġwaters": 6548,
      "Ġsecret": 6549,
      "ocument": 6550,
      "eps": 6551,
      "âĢĿ,": 6552,
      "ĠSpace": 6553,
      "Ġexperiments": 6554,
      "Ġsuitable": 6555,
      "Ġsections": 6556,
      "ĠTR": 6557,
      "ologists": 6558,
      "Ġparticles": 6559,
      "Ġletters": 6560,
      "Ġofficer": 6561,
      "ih": 6562,
      "stood": 6563,
      "ĠLead": 6564,
      "400": 6565,
      "ĠManager": 6566,
      "ĠSar": 6567,
      "Ġdecrease": 6568,
      "ĠAff": 6569,
      "ĠFil": 6570,
      "Ġ72": 6571,
      "Ġoblig": 6572,
      "anda": 6573,
      "ĠCur": 6574,
      "Ġsession": 6575,
      "Ġassume": 6576,
      "Ġwet": 6577,
      "ĠOx": 6578,
      "Ġmanaged": 6579,
      "ras": 6580,
      "imensional": 6581,
      "ĠProfessor": 6582,
      "EA": 6583,
      "Ġplus": 6584,
      "ĠBuilding": 6585,
      "VID": 6586,
      "Ġinh": 6587,
      "Ġantib": 6588,
      "Ġdepends": 6589,
      "Ġcategories": 6590,
      "liament": 6591,
      "Ġpossess": 6592,
      "Ġhelping": 6593,
      "Ġwire": 6594,
      "ĠChief": 6595,
      "Ġfees": 6596,
      "ĠBal": 6597,
      "ua": 6598,
      "ĠDC": 6599,
      "Ġinstructions": 6600,
      "arks": 6601,
      "--------------------------------------------------------------------------------------------------------------------------------": 6602,
      "law": 6603,
      "ĠColumb": 6604,
      "Ġparameter": 6605,
      "ĠAustralian": 6606,
      "Ġseed": 6607,
      "More": 6608,
      "Ġvillage": 6609,
      "Ġcausing": 6610,
      "Ġfacts": 6611,
      "Ġorganic": 6612,
      "ĠFamily": 6613,
      "ĠResources": 6614,
      "Ġtemperatures": 6615,
      "Ġobservations": 6616,
      "ĠExecutive": 6617,
      "mes": 6618,
      "Ġvan": 6619,
      "Ġpush": 6620,
      "ĠChicago": 6621,
      "Ġmechanism": 6622,
      "Ġfix": 6623,
      "ĠâĢ¦": 6624,
      "Rep": 6625,
      "icks": 6626,
      "ĠTitle": 6627,
      "war": 6628,
      "Ġmand": 6629,
      "GE": 6630,
      "Ġaccompl": 6631,
      "Ġstars": 6632,
      "2015": 6633,
      "sqrt": 6634,
      "Ġsto": 6635,
      "Ġexposed": 6636,
      "ĠCatholic": 6637,
      "ALL": 6638,
      "ested": 6639,
      "Ġsettings": 6640,
      "olit": 6641,
      "Ġwants": 6642,
      "Ġframe": 6643,
      "Ġocean": 6644,
      "Ġ400": 6645,
      "Ġhighlight": 6646,
      "ĠRussian": 6647,
      "Ġaren": 6648,
      "ĠRichard": 6649,
      "ĠLearning": 6650,
      "Ġchain": 6651,
      "ĠLine": 6652,
      "rison": 6653,
      "Ġconcerning": 6654,
      "Ġlargely": 6655,
      "--|--------": 6656,
      "Ġburn": 6657,
      "ache": 6658,
      "ĠVirginia": 6659,
      "May": 6660,
      "Ġlegislation": 6661,
      "ĠSciences": 6662,
      "ĠAP": 6663,
      "ĠCL": 6664,
      "ĠAdministration": 6665,
      "Ġelectron": 6666,
      "ĠFire": 6667,
      "Ġprecise": 6668,
      "ĠChange": 6669,
      "ĠUt": 6670,
      "making": 6671,
      "ĠCamb": 6672,
      "Ġmobile": 6673,
      "partial": 6674,
      "Ġceleb": 6675,
      "Ġkeeping": 6676,
      "Ġlinked": 6677,
      "Ġsouthern": 6678,
      "Ġexpenses": 6679,
      "nings": 6680,
      "Ġincreasingly": 6681,
      "endix": 6682,
      "Ġspend": 6683,
      "Ġreceiving": 6684,
      "Ġdepart": 6685,
      "Ġtypical": 6686,
      "------|--------": 6687,
      "Ġpal": 6688,
      "Ġsounds": 6689,
      "Ġpotentially": 6690,
      "ette": 6691,
      "ĠIdent": 6692,
      "Ġacceler": 6693,
      "rite": 6694,
      "ĠWild": 6695,
      "Ġknows": 6696,
      "Ġchief": 6697,
      "ĠNetwork": 6698,
      "Ġacts": 6699,
      "Ġstreet": 6700,
      "ĠSafety": 6701,
      "Ġ1991": 6702,
      "gebra": 6703,
      "Ġvoltage": 6704,
      "lementary": 6705,
      "Ġreturns": 6706,
      "Ġwitness": 6707,
      "ĠLike": 6708,
      "ĠPlanning": 6709,
      "riers": 6710,
      "usal": 6711,
      "Ġparagraph": 6712,
      "Ġexperts": 6713,
      "Ġscholars": 6714,
      "ĠAngel": 6715,
      "Ġinstruments": 6716,
      "Ġdistingu": 6717,
      "ĠAC": 6718,
      "Ġobjectives": 6719,
      "Ġexpansion": 6720,
      "Why": 6721,
      "Ġstake": 6722,
      "Ġcontrols": 6723,
      "cers": 6724,
      "ICE": 6725,
      "ĠHill": 6726,
      "Ġemotional": 6727,
      "ĠStrateg": 6728,
      "Ġhoriz": 6729,
      "ĠDen": 6730,
      "ĠCS": 6731,
      "ĠMel": 6732,
      "ĠIV": 6733,
      "ä¸": 6734,
      "riculum": 6735,
      "Ġafford": 6736,
      "ommod": 6737,
      "ĠBet": 6738,
      "Ġaccuracy": 6739,
      "Ġsale": 6740,
      "Ġagricultural": 6741,
      "First": 6742,
      "Ġexploring": 6743,
      "Ġsubsequent": 6744,
      "FOR": 6745,
      "à¤¿": 6746,
      "Ġparallel": 6747,
      "ĠJo": 6748,
      "ĠTreat": 6749,
      ")\\": 6750,
      "urd": 6751,
      "ĠProcess": 6752,
      "ĠRussia": 6753,
      "ĠHenry": 6754,
      "Ġchart": 6755,
      "icon": 6756,
      "Ġnorthern": 6757,
      "free": 6758,
      "Ġkid": 6759,
      "Ġ61": 6760,
      "Ġcapable": 6761,
      "Ġbegins": 6762,
      "EG": 6763,
      "âĢī": 6764,
      "Ñģ": 6765,
      "Ġ74": 6766,
      "rary": 6767,
      "Ġannounced": 6768,
      "Ġelectrical": 6769,
      "Ġatmosphere": 6770,
      "Ġfalse": 6771,
      ")}": 6772,
      "Ġflat": 6773,
      "Ġsymbol": 6774,
      "ĠGeorg": 6775,
      "ĠAp": 6776,
      "Ġabuse": 6777,
      "irms": 6778,
      "IES": 6779,
      "Ġmel": 6780,
      "Ġexamination": 6781,
      "Part": 6782,
      "Ġdiabetes": 6783,
      "Ġmeasurements": 6784,
      "ĠTer": 6785,
      "Ġunderlying": 6786,
      "However": 6787,
      "Ġfell": 6788,
      "ACT": 6789,
      "ĠWorks": 6790,
      "ureau": 6791,
      "ĠDu": 6792,
      "Ġsugar": 6793,
      "Ġuniversity": 6794,
      "Ġcrisis": 6795,
      "look": 6796,
      "ĠPay": 6797,
      "ĠSeries": 6798,
      "ĠDou": 6799,
      "Ġdownload": 6800,
      "Ġdirected": 6801,
      "Ġ63": 6802,
      "Ġlatest": 6803,
      "Ġnom": 6804,
      "ĠÏ": 6805,
      "Ġagent": 6806,
      "ĠClin": 6807,
      "ĠPop": 6808,
      "Ġcritic": 6809,
      "Ġrecognition": 6810,
      "Ġinformed": 6811,
      "long": 6812,
      "ĠSund": 6813,
      "Ġangle": 6814,
      "fty": 6815,
      "Ġsupports": 6816,
      "ĠExt": 6817,
      "800": 6818,
      "DR": 6819,
      "ĠInstead": 6820,
      "ĠMartin": 6821,
      "Ġid": 6822,
      "ailing": 6823,
      "ĠField": 6824,
      "Ġscheme": 6825,
      "box": 6826,
      "pre": 6827,
      "Ġtaxes": 6828,
      "Ġgovernments": 6829,
      "ĠDev": 6830,
      "Ġvel": 6831,
      "Ġ1970": 6832,
      "Ġmilk": 6833,
      "td": 6834,
      "ĠFact": 6835,
      "Ġelected": 6836,
      "inite": 6837,
      "Ġfirstname": 6838,
      "Ġcommitted": 6839,
      "Ġclient": 6840,
      "Ġfeedback": 6841,
      "ĠPoint": 6842,
      "Ġserver": 6843,
      "zil": 6844,
      "Ġvast": 6845,
      "tic": 6846,
      "Ġpossibility": 6847,
      "oral": 6848,
      "ĠEX": 6849,
      "display": 6850,
      "Ġsurgery": 6851,
      "Ġï¬ģ": 6852,
      "Ġagents": 6853,
      "Ġmixed": 6854,
      "Ġ101": 6855,
      "Ġbacteria": 6856,
      "Ġcere": 6857,
      "Ġmath": 6858,
      "Ġsignificance": 6859,
      "ĠHaw": 6860,
      "ĠĠĠĠĠĠĠĠĠĠĠĠĠĠĠĠĠĠĠĠĠĠĠĠĠĠĠĠĠĠĠĠĠĠĠĠĠĠĠĠĠĠĠĠĠĠ": 6861,
      "Bl": 6862,
      "ĠLatin": 6863,
      "ĠMeeting": 6864,
      "Ġdream": 6865,
      "iot": 6866,
      "ĠEmp": 6867,
      "Ġcontributions": 6868,
      "Ġ120": 6869,
      "ĠRock": 6870,
      "Ġappointed": 6871,
      "Ġholding": 6872,
      "ĠĠĠĠĠĠĠĠĠĠĠĠĠĠĠĠĠĠĠĠĠĠĠĠĠĠĠĠĠĠĠĠĠĠĠĠĠĠĠĠĠ": 6873,
      "Do": 6874,
      "Ġaircraft": 6875,
      "Ġgod": 6876,
      "ora": 6877,
      "-----|-----|": 6878,
      "ĠJoseph": 6879,
      "fe": 6880,
      "Ġseeking": 6881,
      "ailability": 6882,
      "Ġ$$\\": 6883,
      "Ġfee": 6884,
      "Ġrough": 6885,
      "Ġindeed": 6886,
      "Ġerrors": 6887,
      "Ġprofit": 6888,
      "HA": 6889,
      "Ġprohib": 6890,
      "Ġpure": 6891,
      "Ġ58": 6892,
      "car": 6893,
      "'.": 6894,
      "erman": 6895,
      "ĠSimilar": 6896,
      "ĠValley": 6897,
      "Ġgather": 6898,
      "ĠTurn": 6899,
      "Ġreplaced": 6900,
      "Ġdivision": 6901,
      "isters": 6902,
      "Ġregistered": 6903,
      "ĠJun": 6904,
      "Ġclassroom": 6905,
      "Ġmarked": 6906,
      "Ġ2024": 6907,
      "ĠStandard": 6908,
      "ĠTom": 6909,
      "Ġscript": 6910,
      "Ġholds": 6911,
      "Ġfunctional": 6912,
      "Ġanalys": 6913,
      "\\(^": 6914,
      "BA": 6915,
      "Ġ66": 6916,
      "ĠProper": 6917,
      "ĠIss": 6918,
      "duate": 6919,
      "gments": 6920,
      "Ġunknown": 6921,
      "END": 6922,
      "ĠNOT": 6923,
      "Ġoxygen": 6924,
      "Ġcomposition": 6925,
      "Ġremote": 6926,
      "Ġrepeated": 6927,
      "Ġflo": 6928,
      "Fin": 6929,
      "Ġmechanisms": 6930,
      "2007": 6931,
      "Ġexamine": 6932,
      "Ġtro": 6933,
      "ĠMuslim": 6934,
      "Ġpersonnel": 6935,
      ".\\": 6936,
      "yer": 6937,
      "imb": 6938,
      "Ġraise": 6939,
      "Ġfert": 6940,
      "2006": 6941,
      "irmed": 6942,
      "vironments": 6943,
      "ĠEth": 6944,
      "organ": 6945,
      "2016": 6946,
      "verty": 6947,
      "Ġorient": 6948,
      "ĠGal": 6949,
      "ĠĠĠĠĠĠĠĠĠĠĠĠĠĠĠĠĠĠĠĠĠĠĠĠĠĠĠĠĠĠĠĠĠĠĠĠĠĠĠĠĠĠ": 6950,
      "Ed": 6951,
      "Ġimagine": 6952,
      "Ġreaders": 6953,
      "ĠTerm": 6954,
      "Ġbrand": 6955,
      "ĠKar": 6956,
      "Ġ85": 6957,
      "Ġdriving": 6958,
      "ĠLow": 6959,
      "2019": 6960,
      "mas": 6961,
      "Ġstuff": 6962,
      "Ġfilter": 6963,
      "acher": 6964,
      "ĠItaly": 6965,
      "Ġpoverty": 6966,
      "---|---|---|---|": 6967,
      "Ġlandscape": 6968,
      "Last": 6969,
      "then": 6970,
      "ĠLiber": 6971,
      "Ġideal": 6972,
      "Ġentirely": 6973,
      "ificate": 6974,
      "Ġshot": 6975,
      "III": 6976,
      "Ġjoin": 6977,
      "Ġshift": 6978,
      "zen": 6979,
      "IST": 6980,
      "ĠAdditionally": 6981,
      "ĠFY": 6982,
      "Ġruns": 6983,
      "ployment": 6984,
      "ypes": 6985,
      "ĠAnother": 6986,
      "Ġprogramming": 6987,
      "Ġbiological": 6988,
      "charge": 6989,
      "Ġ--------------------------------": 6990,
      "Ġdistributed": 6991,
      "Ġsmooth": 6992,
      "hop": 6993,
      "ĠMath": 6994,
      "2017": 6995,
      "Ġcontribution": 6996,
      "ĠSpring": 6997,
      "Mr": 6998,
      "2018": 6999,
      "Ġpresentation": 7000,
      "Ġpreparation": 7001,
      "Ġconsidering": 7002,
      "olar": 7003,
      "Ġisland": 7004,
      "Ġevaluate": 7005,
      "Ġtun": 7006,
      "while": 7007,
      "Ġpartner": 7008,
      "Trans": 7009,
      "Ġjoined": 7010,
      "Ġpowers": 7011,
      "ĠĠĠĠĠĠĠĠĠĠĠĠĠĠĠĠĠĠĠĠĠĠĠĠĠĠĠĠĠĠĠĠĠĠĠĠĠĠĠĠĠĠĠĠ": 7012,
      "=\"": 7013,
      "adium": 7014,
      "Ġassociation": 7015,
      "ether": 7016,
      "ometry": 7017,
      "igan": 7018,
      "Ġcoe": 7019,
      "Ġstanding": 7020,
      "umin": 7021,
      "roke": 7022,
      "ĠCr": 7023,
      "Ġprofessor": 7024,
      "Ġ62": 7025,
      "Ġpull": 7026,
      "lines": 7027,
      "Ġfill": 7028,
      "Please": 7029,
      "Ġfaster": 7030,
      "Ġoffering": 7031,
      "Ġrain": 7032,
      "ĠEconomic": 7033,
      "Sec": 7034,
      "ĠBritain": 7035,
      "TC": 7036,
      "Ġcircuit": 7037,
      "ĠDig": 7038,
      "hav": 7039,
      "rolog": 7040,
      "Stud": 7041,
      "lets": 7042,
      "ĠRoyal": 7043,
      "Ġsubt": 7044,
      "Ġlegisl": 7045,
      "Ġarray": 7046,
      "Ġclar": 7047,
      "Ġhappy": 7048,
      "^\\": 7049,
      "Reg": 7050,
      "herent": 7051,
      "ĠAction": 7052,
      "Ġpublication": 7053,
      "umer": 7054,
      "Ġinstalled": 7055,
      "ella": 7056,
      "ĠAnnual": 7057,
      "eding": 7058,
      "being": 7059,
      "Ġroles": 7060,
      "Ġalbum": 7061,
      "Ġstored": 7062,
      "ĠMer": 7063,
      "imensions": 7064,
      "var": 7065,
      "Ġnone": 7066,
      "2014": 7067,
      "ILL": 7068,
      "Ġguess": 7069,
      "Ġrevealed": 7070,
      "Since": 7071,
      "Ġexecut": 7072,
      "ĠJohnson": 7073,
      "Ġmaintaining": 7074,
      "ricted": 7075,
      "Ġzone": 7076,
      "ĠConstitution": 7077,
      "Ġconference": 7078,
      "Ġmarried": 7079,
      "ĠSouthern": 7080,
      "oding": 7081,
      "Ġgirls": 7082,
      "Ġcook": 7083,
      "raction": 7084,
      "ĠKingdom": 7085,
      "ounter": 7086,
      "enda": 7087,
      "ĠWhe": 7088,
      "Ġcrime": 7089,
      "Ġsud": 7090,
      "Ġproposal": 7091,
      "Ġadvert": 7092,
      "Ġdisorder": 7093,
      "Ġdemonstrate": 7094,
      "zed": 7095,
      "Go": 7096,
      "Ġarmy": 7097,
      "ĠLar": 7098,
      "plicated": 7099,
      "ĠLee": 7100,
      "ĠPot": 7101,
      "Ġ?": 7102,
      "Ġwhatever": 7103,
      "Ġgranted": 7104,
      "thlet": 7105,
      "ometimes": 7106,
      "Don": 7107,
      "Ġhypothes": 7108,
      "Ġtaught": 7109,
      "ĠMen": 7110,
      "Ġdescribes": 7111,
      "ĠSov": 7112,
      "Ġorganized": 7113,
      "SC": 7114,
      "Pr": 7115,
      "ega": 7116,
      "gamma": 7117,
      "Ġfort": 7118,
      "ĠAgricult": 7119,
      "Ġfarmers": 7120,
      "Ġdedicated": 7121,
      "irt": 7122,
      "Ġexcellent": 7123,
      "Ġunderstood": 7124,
      "urisd": 7125,
      "omic": 7126,
      "olidated": 7127,
      "Ġappearance": 7128,
      "Ġdoubt": 7129,
      "During": 7130,
      "Ġ59": 7131,
      "Ġsports": 7132,
      "Ġinvestments": 7133,
      "ORT": 7134,
      "-------|--------": 7135,
      "Ġ68": 7136,
      "ĠMaterial": 7137,
      "Ġinterface": 7138,
      "Ġsummary": 7139,
      "ĊĊĊ": 7140,
      "rons": 7141,
      "Ġnarrow": 7142,
      "Ġoperate": 7143,
      "such": 7144,
      "ĠTransport": 7145,
      "ĠColor": 7146,
      "Ġcriminal": 7147,
      "ĠGuide": 7148,
      "onym": 7149,
      "Ġcarefully": 7150,
      "ĠBack": 7151,
      "Ġintroduction": 7152,
      "riday": 7153,
      "prof": 7154,
      "2000": 7155,
      "mann": 7156,
      "Ġsnow": 7157,
      "Ġplate": 7158,
      "ĠPenn": 7159,
      "cribed": 7160,
      "aren": 7161,
      "Ġpermit": 7162,
      "Ġrelating": 7163,
      "ao": 7164,
      "Ġdecide": 7165,
      "-----|--------": 7166,
      "Ġecosystem": 7167,
      "ĠHand": 7168,
      "ĠPass": 7169,
      "Ġmovie": 7170,
      "Ġsed": 7171,
      "isition": 7172,
      "ĠValue": 7173,
      "Ġensuring": 7174,
      "Ġrecognize": 7175,
      "Ġgreatest": 7176,
      "Ġcollaboration": 7177,
      "iration": 7178,
      "Ġaccommod": 7179,
      "Ġjudge": 7180,
      "Ġimmediate": 7181,
      "rat": 7182,
      "gs": 7183,
      "Ġinteractions": 7184,
      "ailed": 7185,
      "itudes": 7186,
      "Ġmac": 7187,
      "Ġmoral": 7188,
      "iox": 7189,
      "âĢ²": 7190,
      "Ġprotected": 7191,
      "ĠCirc": 7192,
      "eless": 7193,
      "Ġ99": 7194,
      "writ": 7195,
      "ĠDO": 7196,
      "Ġuniform": 7197,
      "Ġapart": 7198,
      "ture": 7199,
      "Ġkinds": 7200,
      "Ġpanel": 7201,
      "Ġcatch": 7202,
      "Ġfluid": 7203,
      "Ġwilling": 7204,
      "Ġintegrated": 7205,
      "irty": 7206,
      "ĠProduct": 7207,
      "Ġderiv": 7208,
      "Ġ69": 7209,
      "ĠSea": 7210,
      "antly": 7211,
      "ulating": 7212,
      "ĠSem": 7213,
      "Ġpossibly": 7214,
      "ĠKey": 7215,
      "Ġgrass": 7216,
      "Ġprepare": 7217,
      "Ġfle": 7218,
      "ĠOfficer": 7219,
      "Ġnations": 7220,
      "Ð¾Ð": 7221,
      "ĠForest": 7222,
      "displaystyle": 7223,
      "Ġsudden": 7224,
      "Dr": 7225,
      "Ġunlike": 7226,
      "ĠCle": 7227,
      "ĠScient": 7228,
      "ĠCre": 7229,
      "Ġregulation": 7230,
      "isco": 7231,
      "Ġlicense": 7232,
      "Ġconfidence": 7233,
      "Ġadministrative": 7234,
      "Ġwait": 7235,
      "Ġseemed": 7236,
      "Ġchoices": 7237,
      "cons": 7238,
      "American": 7239,
      "delta": 7240,
      "Ġsensitive": 7241,
      "ivered": 7242,
      "html": 7243,
      "Ġdynamic": 7244,
      "Ġdangerous": 7245,
      "Ġbone": 7246,
      "ĠCheck": 7247,
      "ĠNatural": 7248,
      "Ġadequate": 7249,
      "Ġattacks": 7250,
      "DU": 7251,
      "sell": 7252,
      "ĠWho": 7253,
      "Ġsubstantial": 7254,
      "Ġ73": 7255,
      "Ġsignals": 7256,
      "Ġimproving": 7257,
      "Ġconfirm": 7258,
      "ĠTri": 7259,
      "ĠĠĠĠĠĠĠĠĠĠĠĠĠĠĠĠĠĠĠĠĠĠĠĠĠĠĠĠĠĠĠĠĠĠĠĠĠĠĠĠ": 7260,
      "Ġmissing": 7261,
      "inates": 7262,
      "Ġgone": 7263,
      "Ġthoughts": 7264,
      "uzz": 7265,
      "Ġmovements": 7266,
      "Ġnecessarily": 7267,
      "Or": 7268,
      "Ġnurs": 7269,
      "reshold": 7270,
      "olving": 7271,
      "Ġsurve": 7272,
      "Ġspending": 7273,
      "ĠTimes": 7274,
      "Ġtail": 7275,
      "OV": 7276,
      "Ġhus": 7277,
      "Ġbright": 7278,
      "Ġmaintained": 7279,
      "how": 7280,
      "Ġgrav": 7281,
      "Ġmagnetic": 7282,
      "reland": 7283,
      "Ġcommitment": 7284,
      "Ġintervention": 7285,
      "Ġsubsid": 7286,
      "umes": 7287,
      "Ġmarriage": 7288,
      "ĠEarly": 7289,
      "ĠSand": 7290,
      "$$\\": 7291,
      "%,": 7292,
      "ĠLog": 7293,
      "Med": 7294,
      "Ġbanks": 7295,
      "ĠProtection": 7296,
      "ĠCard": 7297,
      "Ġstarts": 7298,
      "Ġpermanent": 7299,
      "ĠHospital": 7300,
      "ĠFull": 7301,
      "Ġenvironments": 7302,
      "Ġreb": 7303,
      "Ġtells": 7304,
      "Ġmg": 7305,
      "Ġdefe": 7306,
      "ervative": 7307,
      "Ġblog": 7308,
      "Ġmanager": 7309,
      "ME": 7310,
      "Ġroute": 7311,
      "ĠMajor": 7312,
      "Ġscope": 7313,
      "Ġprofessionals": 7314,
      "Ġdaughter": 7315,
      "Ġahead": 7316,
      "ĠFour": 7317,
      "Ġextension": 7318,
      "Ġ115": 7319,
      "Ġsuccessfully": 7320,
      "Ġdemonstrated": 7321,
      "Another": 7322,
      "Ġintellect": 7323,
      "Ġvital": 7324,
      "throp": 7325,
      "Ġshel": 7326,
      "Ġrid": 7327,
      "tau": 7328,
      "ĠYoung": 7329,
      "Ġlessons": 7330,
      "Ġinsert": 7331,
      "Ġdispos": 7332,
      "Ġbehaviour": 7333,
      "Ġultimately": 7334,
      "ĠIntroduction": 7335,
      "Ġepis": 7336,
      "Ġoriginally": 7337,
      "Ġsenior": 7338,
      "infty": 7339,
      "isp": 7340,
      "Ġwestern": 7341,
      "ker": 7342,
      "Ġlies": 7343,
      "oven": 7344,
      "print": 7345,
      "Ġschedule": 7346,
      "Ġhandle": 7347,
      "''": 7348,
      "ĠParis": 7349,
      "Col": 7350,
      "Ġpayments": 7351,
      "Ġadvis": 7352,
      "Ġnan": 7353,
      "She": 7354,
      "rapy": 7355,
      "azine": 7356,
      "%.": 7357,
      "ĠPolit": 7358,
      "Ġarms": 7359,
      "ĠStaff": 7360,
      "Man": 7361,
      "Ġstable": 7362,
      "EV": 7363,
      "ears": 7364,
      "iology": 7365,
      "2005": 7366,
      "esh": 7367,
      "Ġunable": 7368,
      "Ġ67": 7369,
      "ĠEmer": 7370,
      "Ġhabitat": 7371,
      "Ġconsent": 7372,
      "Ġinteract": 7373,
      "Ġmessages": 7374,
      "illa": 7375,
      "Ġflight": 7376,
      "sis": 7377,
      "ĠVictor": 7378,
      "Delta": 7379,
      "Although": 7380,
      "Ġcandidate": 7381,
      "Ġnine": 7382,
      "Ġplastic": 7383,
      "Ġupdate": 7384,
      "Ġprompt": 7385,
      "Ġtwice": 7386,
      "Ġextensive": 7387,
      "Per": 7388,
      "Ġbow": 7389,
      "Ġvisible": 7390,
      "Ġoutcome": 7391,
      "Ġnice": 7392,
      "Ġplanned": 7393,
      "ARD": 7394,
      "Ġwhereas": 7395,
      "Ġrepresentative": 7396,
      "Ġcloser": 7397,
      "Ġtruly": 7398,
      "ĠSU": 7399,
      "ĠAuthority": 7400,
      "aneous": 7401,
      "Ġmyself": 7402,
      "ĠOl": 7403,
      "Ġrevolution": 7404,
      "Ġdesignated": 7405,
      "Ġwithd": 7406,
      "Ġconsumer": 7407,
      "ĠMaster": 7408,
      "Ġstatistics": 7409,
      "ĠMathemat": 7410,
      "Ġdiscovery": 7411,
      "Ġcars": 7412,
      "Â®": 7413,
      "ĠCond": 7414,
      "Ġdisorders": 7415,
      "Ġsup": 7416,
      "Ġadm": 7417,
      "Ġartists": 7418,
      "lishing": 7419,
      "itivity": 7420,
      "Ġrapidly": 7421,
      "Ġshif": 7422,
      "Ġinterpretation": 7423,
      "ĠDar": 7424,
      "Ġresid": 7425,
      "Ġnit": 7426,
      "Ġproportion": 7427,
      "Ġ-----": 7428,
      "Ġneither": 7429,
      "Ġimprovements": 7430,
      "Ġsuc": 7431,
      "ĠCR": 7432,
      "Ġveloc": 7433,
      "Ġcounsel": 7434,
      "Ġfaculty": 7435,
      "ĠContin": 7436,
      "ishop": 7437,
      "ĠSurvey": 7438,
      "ĠBest": 7439,
      "ipping": 7440,
      "ĠAddress": 7441,
      "roid": 7442,
      "Ġlose": 7443,
      "etary": 7444,
      "ĠCarolina": 7445,
      "ĠNA": 7446,
      "ĠMot": 7447,
      "ĠSat": 7448,
      "azing": 7449,
      "Ġtow": 7450,
      "Ġimpossible": 7451,
      "itter": 7452,
      "OU": 7453,
      "Ġrh": 7454,
      "Ġabsence": 7455,
      "Ġpolitics": 7456,
      "001": 7457,
      "Ġplane": 7458,
      "sm": 7459,
      "Ġpenal": 7460,
      "ollowing": 7461,
      "Ġdesired": 7462,
      "ĠCross": 7463,
      "Ġrent": 7464,
      "Ġrig": 7465,
      "Ġedition": 7466,
      "ĠForce": 7467,
      "atial": 7468,
      "Ġexplicit": 7469,
      "Ġconstitution": 7470,
      "Ġpump": 7471,
      "ĠNations": 7472,
      "Ġequity": 7473,
      "uties": 7474,
      "Ġtradition": 7475,
      "Ġkil": 7476,
      "2003": 7477,
      "Ġregulatory": 7478,
      "Ġmanif": 7479,
      "Ġnumer": 7480,
      "uing": 7481,
      "Ġlosses": 7482,
      "ĠKh": 7483,
      "Ġlaboratory": 7484,
      "Ġdollars": 7485,
      "Ġdrawn": 7486,
      "Ġduty": 7487,
      "Ġuns": 7488,
      "agues": 7489,
      "Ġupdated": 7490,
      "ifier": 7491,
      "ĠCy": 7492,
      "teen": 7493,
      "Your": 7494,
      "Ġcos": 7495,
      "Ġque": 7496,
      "Ġasking": 7497,
      "ĠColl": 7498,
      "FR": 7499,
      "Ġcharges": 7500,
      "Ġhealthcare": 7501,
      "Ġfourth": 7502,
      "Ġconsumers": 7503,
      "Ġsubmit": 7504,
      "ĠJeff": 7505,
      "redit": 7506,
      "ĠNorthern": 7507,
      "Ġtwenty": 7508,
      "Ġseeing": 7509,
      "Ġremark": 7510,
      "Ġsteel": 7511,
      "Ġexplanation": 7512,
      "Ġends": 7513,
      "Ġdetection": 7514,
      "Ġstrongly": 7515,
      "Ġintent": 7516,
      "Ġlands": 7517,
      "Ġmaps": 7518,
      "Ġopposite": 7519,
      "elled": 7520,
      "ican": 7521,
      "Ã¨": 7522,
      "Ġaccounting": 7523,
      "Ġment": 7524,
      "WHO": 7525,
      "ĠHave": 7526,
      "Ġgal": 7527,
      "osph": 7528,
      "Ġlots": 7529,
      "Ġscene": 7530,
      "Ġcup": 7531,
      "istent": 7532,
      "............": 7533,
      "Ġexpendit": 7534,
      "ĠKn": 7535,
      "onday": 7536,
      "Ġresulted": 7537,
      "rator": 7538,
      "Ġdiagnosis": 7539,
      "Ġconven": 7540,
      "ĠGoogle": 7541,
      "ĠFort": 7542,
      "Ġpackage": 7543,
      "ĠUr": 7544,
      "ĠSpain": 7545,
      "Ġexperimental": 7546,
      "FL": 7547,
      "ĠWal": 7548,
      "ĠEnter": 7549,
      "Ġturns": 7550,
      "Ġintegration": 7551,
      "ĠEnt": 7552,
      "ĠAward": 7553,
      "ĠSup": 7554,
      "ĠGener": 7555,
      "heast": 7556,
      "Ġexclus": 7557,
      "ĠLtd": 7558,
      "Ġfeelings": 7559,
      "ĠCapital": 7560,
      "Ġtoxic": 7561,
      "Ġengaged": 7562,
      "Ġorders": 7563,
      "stone": 7564,
      "Ġimmune": 7565,
      "ĠBig": 7566,
      "ĠNASA": 7567,
      "Ġinject": 7568,
      "https": 7569,
      "Ġdecline": 7570,
      "utch": 7571,
      "Ġ1989": 7572,
      "ĠHon": 7573,
      "Ġproviders": 7574,
      "Ġcouldn": 7575,
      "Ġentity": 7576,
      "ĠFinally": 7577,
      "Ġmeat": 7578,
      "](": 7579,
      "encing": 7580,
      "ĠMembers": 7581,
      "Ġpictures": 7582,
      "Post": 7583,
      "eries": 7584,
      "irement": 7585,
      "Pre": 7586,
      "ĠCorporation": 7587,
      "essions": 7588,
      "Ġboundary": 7589,
      "ĠStudent": 7590,
      "Co": 7591,
      "earing": 7592,
      "Ġchronic": 7593,
      "doi": 7594,
      "Ġuniverse": 7595,
      "Ġju": 7596,
      "Ġcultures": 7597,
      "Ġadvent": 7598,
      "ĠCoast": 7599,
      "ĠEp": 7600,
      "ĠMusic": 7601,
      "Ġaccident": 7602,
      "ĠReal": 7603,
      "Ġinsect": 7604,
      "Ġboy": 7605,
      "Ġ~": 7606,
      "Ġstrict": 7607,
      "EO": 7608,
      "According": 7609,
      "Ġgirl": 7610,
      "ĠCell": 7611,
      "Ġcorporate": 7612,
      "Ġidentification": 7613,
      "Ġcharged": 7614,
      "Ġfulf": 7615,
      "iana": 7616,
      "ĠHy": 7617,
      "othe": 7618,
      "ĠPrim": 7619,
      "Ġregister": 7620,
      "kes": 7621,
      "Ġdebate": 7622,
      "Des": 7623,
      "ĠWrit": 7624,
      "=\\": 7625,
      "hent": 7626,
      "ensed": 7627,
      "Ġobst": 7628,
      "ĠCast": 7629,
      "Ġnormally": 7630,
      "Mar": 7631,
      "ĠEastern": 7632,
      "ĠNY": 7633,
      "Ġhelpful": 7634,
      "Ġworldwide": 7635,
      ")|": 7636,
      "ĠNone": 7637,
      "Ġflows": 7638,
      "Ġprevention": 7639,
      "ĠSC": 7640,
      "Ġwalls": 7641,
      "Ġnutrition": 7642,
      "Ġring": 7643,
      "acent": 7644,
      "ndrome": 7645,
      "Ġ77": 7646,
      "ĠWindows": 7647,
      "Ġmodified": 7648,
      "Ġlung": 7649,
      "Ġprogramme": 7650,
      "ĠJac": 7651,
      "lers": 7652,
      "Ġfoundation": 7653,
      "ĠSA": 7654,
      "ounce": 7655,
      "Ġseconds": 7656,
      "Ġsick": 7657,
      "Ġdeeper": 7658,
      "Ġshut": 7659,
      "Ġ×": 7660,
      "Ġserving": 7661,
      "ĊĠĠĠĠĠ": 7662,
      "Ġinsights": 7663,
      "Ġloan": 7664,
      "ifferent": 7665,
      "Ġstrategic": 7666,
      "ĠIreland": 7667,
      "Ass": 7668,
      "Ġnewsp": 7669,
      "soft": 7670,
      "eh": 7671,
      "Ġpollution": 7672,
      "Ġcamera": 7673,
      "Ġgrid": 7674,
      "2004": 7675,
      "Ġdelivered": 7676,
      "Ġaddressed": 7677,
      "Ġstone": 7678,
      "trans": 7679,
      "Ġfurn": 7680,
      "Ġstages": 7681,
      "Ġimplications": 7682,
      "ĠSoviet": 7683,
      "iro": 7684,
      "ĠKnow": 7685,
      "elfare": 7686,
      "Ġarrest": 7687,
      "Ġengagement": 7688,
      "Ġcreative": 7689,
      "Ġ$(": 7690,
      "Ġintelligence": 7691,
      "Ġreviewed": 7692,
      "Source": 7693,
      "Ġpapers": 7694,
      "Ġstudying": 7695,
      "Ġsatell": 7696,
      "Ġassumed": 7697,
      "ĠAG": 7698,
      "lamm": 7699,
      "Ġimmun": 7700,
      "Ġtelevision": 7701,
      "Î±": 7702,
      "Ġmuscle": 7703,
      "Ġspiritual": 7704,
      "riend": 7705,
      "Ġconstructed": 7706,
      "Ġdependent": 7707,
      "Ġvotes": 7708,
      "Ġmanual": 7709,
      "ĠItalian": 7710,
      "iations": 7711,
      "Ġfinished": 7712,
      "Ġ1960": 7713,
      "Ġrequested": 7714,
      "real": 7715,
      "Ġpreced": 7716,
      "Ġjurisd": 7717,
      "ĠPos": 7718,
      "endar": 7719,
      "Ġdrawing": 7720,
      "Ġelectro": 7721,
      "ĠBrazil": 7722,
      "Ġsentence": 7723,
      "Ġampl": 7724,
      "mic": 7725,
      "Ġ;": 7726,
      "Ġadverse": 7727,
      "Ġwouldn": 7728,
      "omega": 7729,
      "coming": 7730,
      "orney": 7731,
      "annels": 7732,
      "Ġspeaking": 7733,
      "ĠRES": 7734,
      "ĠMu": 7735,
      "Ġvariation": 7736,
      "rency": 7737,
      "ĠNature": 7738,
      "Ġfiscal": 7739,
      "Ġrational": 7740,
      "ĠØ": 7741,
      "ĠThose": 7742,
      "aming": 7743,
      "Ġdynamics": 7744,
      "oir": 7745,
      "Ġdefense": 7746,
      "ashion": 7747,
      "ANT": 7748,
      "ĠCrit": 7749,
      "Ġneighborhood": 7750,
      "Ġcapture": 7751,
      "Ġ----": 7752,
      "Ġfootball": 7753,
      "Ġsubstance": 7754,
      "Ġconfiguration": 7755,
      "ĠSwed": 7756,
      "Ġimper": 7757,
      "Ġscores": 7758,
      "Ġgall": 7759,
      "Ġtrends": 7760,
      "Ġmillions": 7761,
      "ĠLight": 7762,
      "ĠPen": 7763,
      "Ġvirtual": 7764,
      "Ġthanks": 7765,
      "Ġdepression": 7766,
      "ĠWall": 7767,
      "Ġsupposed": 7768,
      "cycl": 7769,
      "ĠBible": 7770,
      "Ġaccum": 7771,
      "Ġprospect": 7772,
      "Ġbeliefs": 7773,
      "Ġbutton": 7774,
      "rene": 7775,
      "cm": 7776,
      "FS": 7777,
      "obe": 7778,
      "Ġexception": 7779,
      "Ġsalt": 7780,
      "ĠScot": 7781,
      "Ġphysics": 7782,
      "Ġregularly": 7783,
      "Ġstability": 7784,
      "rho": 7785,
      "scale": 7786,
      "ĠJustice": 7787,
      "Ġsucceed": 7788,
      "Ġenroll": 7789,
      "rue": 7790,
      "Ġchair": 7791,
      ")**": 7792,
      "Ġpoet": 7793,
      "Ġaggreg": 7794,
      "ĠThree": 7795,
      "Ġfavorite": 7796,
      "Ġdiscussions": 7797,
      "Ġcentre": 7798,
      "Ġconventional": 7799,
      "Ġcraft": 7800,
      "Ġcomputers": 7801,
      "ĠInteg": 7802,
      "Ġnutri": 7803,
      "Ġbranch": 7804,
      "Art": 7805,
      "URE": 7806,
      "600": 7807,
      "ricts": 7808,
      "weight": 7809,
      "ĠFair": 7810,
      "Ġaudience": 7811,
      "ĠChampions": 7812,
      "Ġcarrying": 7813,
      "pet": 7814,
      "Ġasset": 7815,
      "Most": 7816,
      "yan": 7817,
      "$\\": 7818,
      "raq": 7819,
      "Ġgarden": 7820,
      "Ġclients": 7821,
      "ĠDise": 7822,
      "Ġeffectiveness": 7823,
      "Ġserves": 7824,
      "ĠMcC": 7825,
      "ĠĠĠĠĠĠĠĠĠĠĠĠĠĠĠĠĠĠĠĠĠĠĠĠĠĠĠĠĠĠĠĠĠĠĠĠĠĠĠĠĠĠĠ": 7826,
      "ĠAge": 7827,
      "onds": 7828,
      "$-": 7829,
      "ĠMur": 7830,
      "Ġoccasion": 7831,
      "Ġyellow": 7832,
      "Ġhouses": 7833,
      "Ġarchitecture": 7834,
      "oning": 7835,
      "Ġconscious": 7836,
      "normal": 7837,
      "Ġinhib": 7838,
      "Ġ250": 7839,
      "Ġcultiv": 7840,
      "Ġexplo": 7841,
      "Ġoperator": 7842,
      "---|--------": 7843,
      "lined": 7844,
      "Ġaudit": 7845,
      "appy": 7846,
      "Ġpaint": 7847,
      "PC": 7848,
      "ĠCam": 7849,
      "ĠCert": 7850,
      "Ġeligible": 7851,
      "oned": 7852,
      "Ġtrip": 7853,
      "oul": 7854,
      "____________": 7855,
      "ĠHu": 7856,
      "Ġethnic": 7857,
      "OUR": 7858,
      "ĠMake": 7859,
      "Ġsheet": 7860,
      "Act": 7861,
      "Ġsmart": 7862,
      "eli": 7863,
      "sen": 7864,
      "ĠUnderstanding": 7865,
      "Ġ76": 7866,
      "ĠRepresent": 7867,
      "ĠStar": 7868,
      "ĠDown": 7869,
      "Ġbroken": 7870,
      "Ġ000": 7871,
      "ady": 7872,
      "Name": 7873,
      "ĠĠĠĠĠĠĠĠĠĠĠĠĠĠĠĠĠĠĠĠĠĠĠĠĠĠĠĠĠĠĠĠĠĠĠĠĠĠĠĠĠĠĠĠĠ": 7874,
      "Ġsought": 7875,
      "HER": 7876,
      "oston": 7877,
      "group": 7878,
      "Ġthank": 7879,
      "Ġcompare": 7880,
      "ĠFinal": 7881,
      "Ġprofile": 7882,
      "à¥Ģ": 7883,
      "ĠGar": 7884,
      "Ġpup": 7885,
      "----|--------": 7886,
      "Ġlaun": 7887,
      "Ġinches": 7888,
      "Ġanticip": 7889,
      "ĠZeal": 7890,
      "Ġcolors": 7891,
      "inner": 7892,
      "Ġchallenging": 7893,
      "eers": 7894,
      "asters": 7895,
      "Ġcenturies": 7896,
      "Ġthousand": 7897,
      "Ġmanufacturing": 7898,
      "chen": 7899,
      "Ġstick": 7900,
      "ĠRom": 7901,
      "ĠAssessment": 7902,
      "ortion": 7903,
      "ĠBob": 7904,
      "Ġentitled": 7905,
      "Ġles": 7906,
      "rovers": 7907,
      "EMENT": 7908,
      "Ġrul": 7909,
      "ansas": 7910,
      "ificial": 7911,
      "ĠCase": 7912,
      "zer": 7913,
      "ĠBudget": 7914,
      "DC": 7915,
      "Ġran": 7916,
      "orous": 7917,
      "ĠBul": 7918,
      ",\\": 7919,
      "ĠAnsw": 7920,
      "Ġdesire": 7921,
      "Ġexpensive": 7922,
      "gent": 7923,
      "Ġpresents": 7924,
      "EAS": 7925,
      "HT": 7926,
      "ogether": 7927,
      "ĠCa": 7928,
      "Ġ78": 7929,
      "ĠRest": 7930,
      "hesis": 7931,
      "Ġlect": 7932,
      "Ġcompletion": 7933,
      "Ġcurve": 7934,
      "igate": 7935,
      "inant": 7936,
      "onia": 7937,
      "Ġrepair": 7938,
      "OG": 7939,
      "brid": 7940,
      "Ġgram": 7941,
      "Ġsurvival": 7942,
      "Many": 7943,
      "BT": 7944,
      "Ġconcrete": 7945,
      "Ġcouncil": 7946,
      "ĠPS": 7947,
      "icing": 7948,
      "Ġtoler": 7949,
      "ocated": 7950,
      "Ġproteins": 7951,
      "Ġwaves": 7952,
      "Ġrub": 7953,
      "ĠCup": 7954,
      "Ġshell": 7955,
      "ĠSenate": 7956,
      "à¤Ĥ": 7957,
      "Yes": 7958,
      "Ġhydro": 7959,
      "Ġ1000": 7960,
      "Ġalter": 7961,
      "Ġ^": 7962,
      "Ġalign": 7963,
      "Ġpursuant": 7964,
      "Ġcreates": 7965,
      "Ġcognitive": 7966,
      "ums": 7967,
      "Ġeditor": 7968,
      ".-": 7969,
      "aints": 7970,
      "mathrm": 7971,
      "you": 7972,
      "Ġfold": 7973,
      "rection": 7974,
      "Ġarbit": 7975,
      "Ġpermitted": 7976,
      "Ġstructural": 7977,
      "ĠSunday": 7978,
      "chers": 7979,
      "Ġowned": 7980,
      "Ġsoldiers": 7981,
      "ĠZealand": 7982,
      "ĠLanguage": 7983,
      "Ġinterpre": 7984,
      "Ġmathematics": 7985,
      "Ġcircle": 7986,
      "Ġoptimal": 7987,
      "Ġclassification": 7988,
      "cling": 7989,
      "ĠMinistry": 7990,
      "Ġproducing": 7991,
      "ude": 7992,
      "Ġcart": 7993,
      "inson": 7994,
      "ĠMean": 7995,
      "Ġsupplies": 7996,
      "she": 7997,
      "Ġworse": 7998,
      "Ġcomplexity": 7999,
      "Ġarrived": 8000,
      "Ġfab": 8001,
      "Ġmassive": 8002,
      "ĠIran": 8003,
      "izer": 8004,
      "ocracy": 8005,
      "Ġavailability": 8006,
      "^*": 8007,
      "Ġenforcement": 8008,
      "obile": 8009,
      "ometric": 8010,
      "Ġcorner": 8011,
      "Ġassert": 8012,
      "Ġstre": 8013,
      "Ġinnovation": 8014,
      "ĠPA": 8015,
      "rine": 8016,
      "Ġroots": 8017,
      "Ġquantum": 8018,
      "inction": 8019,
      "vals": 8020,
      "Ġarguments": 8021,
      "VI": 8022,
      "Ġinner": 8023,
      "pled": 8024,
      "Ġblocks": 8025,
      "ba": 8026,
      "ĠHa": 8027,
      "Ġaer": 8028,
      "asy": 8029,
      "Ġfoss": 8030,
      "Ġinitially": 8031,
      "Ġsegment": 8032,
      "Ġcalculate": 8033,
      "Ġgenerations": 8034,
      "Ġcards": 8035,
      "Ġlayers": 8036,
      "ĠOpt": 8037,
      "IONS": 8038,
      "Ġauthorized": 8039,
      "inance": 8040,
      "Can": 8041,
      "Ġdrinking": 8042,
      "Ġlie": 8043,
      "Ġmarketing": 8044,
      "Ġcandidates": 8045,
      "$_": 8046,
      "sim": 8047,
      "Ġmarine": 8048,
      "ĠArts": 8049,
      "Ġphr": 8050,
      "Comp": 8051,
      "Ġtreatments": 8052,
      "ths": 8053,
      "John": 8054,
      "Ġprovider": 8055,
      "Ġtransp": 8056,
      "Ġban": 8057,
      "Ġmanip": 8058,
      "ishment": 8059,
      "ĠEc": 8060,
      "Ġshoot": 8061,
      "Ġhundreds": 8062,
      "ĠFar": 8063,
      "ĠAst": 8064,
      "disc": 8065,
      "Ġexecutive": 8066,
      "Ġincident": 8067,
      "Ġautomatically": 8068,
      "Ġfaced": 8069,
      "Ġstret": 8070,
      "MR": 8071,
      "oom": 8072,
      "ĠOcean": 8073,
      "Ġfascinating": 8074,
      "Ġroutine": 8075,
      "ateral": 8076,
      "Ã³n": 8077,
      "ĠSep": 8078,
      "INE": 8079,
      "Ġmodule": 8080,
      "Ġ102": 8081,
      "Ġera": 8082,
      "ĠOrganization": 8083,
      "amber": 8084,
      "Ġterror": 8085,
      "Ġourselves": 8086,
      "Ġingred": 8087,
      "ĠObama": 8088,
      "Ps": 8089,
      "Ġpromin": 8090,
      "Ġusage": 8091,
      "ĠInterest": 8092,
      "aneously": 8093,
      "Ġsettlement": 8094,
      "Ġ{\\": 8095,
      "ĠOk": 8096,
      "Ġgap": 8097,
      "Ġille": 8098,
      "Ġpromoting": 8099,
      "Ġ1988": 8100,
      "Ġcontracts": 8101,
      "Ġbird": 8102,
      "Ġfib": 8103,
      "ĠDoes": 8104,
      "Ġthread": 8105,
      "atus": 8106,
      "Ġ97": 8107,
      "icular": 8108,
      "Ġbear": 8109,
      "ĠColumbia": 8110,
      "ĠAbout": 8111,
      "ĠWay": 8112,
      "Ġdeclared": 8113,
      "icious": 8114,
      "Ġyes": 8115,
      "Ġsimult": 8116,
      "ĠVan": 8117,
      "Ġ------------------------": 8118,
      "Ġconfirmed": 8119,
      "IDS": 8120,
      "isting": 8121,
      "Ġoperational": 8122,
      "Ġpm": 8123,
      "IVE": 8124,
      "cules": 8125,
      "Ġempt": 8126,
      "Ġwaiting": 8127,
      "Ġft": 8128,
      "Ġbuff": 8129,
      "Ġagriculture": 8130,
      "Ġvoc": 8131,
      "Ġhusband": 8132,
      "omial": 8133,
      "Ġweapons": 8134,
      "ĠRece": 8135,
      "Ġphilosophy": 8136,
      "iii": 8137,
      "Ġliability": 8138,
      "ĠLos": 8139,
      "Ġ02": 8140,
      "Ġvert": 8141,
      "quir": 8142,
      "2002": 8143,
      "Ġrecept": 8144,
      "Ġextend": 8145,
      "Ġstem": 8146,
      "Ġtight": 8147,
      "MC": 8148,
      "Ġpermission": 8149,
      "Ġlaunch": 8150,
      "Ġsomewhat": 8151,
      "str": 8152,
      "ĠPeriod": 8153,
      "Ġà¤ķ": 8154,
      "ruption": 8155,
      "ĠBC": 8156,
      "ĠCore": 8157,
      "ĠYet": 8158,
      "ĠWed": 8159,
      "Ġdism": 8160,
      "Ġstatistical": 8161,
      "Ġremoval": 8162,
      "aturally": 8163,
      "Ġgrown": 8164,
      "first": 8165,
      "Ġ110": 8166,
      "ĠHor": 8167,
      "Ġcloud": 8168,
      "ĠLast": 8169,
      "ĠClimate": 8170,
      "Ġexplains": 8171,
      "ilde": 8172,
      "ĠStart": 8173,
      "ĠStation": 8174,
      "type": 8175,
      "ĠKen": 8176,
      "after": 8177,
      "FA": 8178,
      "Ġborder": 8179,
      "Ġhunt": 8180,
      "Ġdrink": 8181,
      "UP": 8182,
      "vate": 8183,
      "ARY": 8184,
      "ĠIraq": 8185,
      "Ġunion": 8186,
      "Ġnearby": 8187,
      "onent": 8188,
      "etal": 8189,
      "ads": 8190,
      "Ġbio": 8191,
      "NS": 8192,
      "ourage": 8193,
      "erior": 8194,
      "Ġhero": 8195,
      "Ġordered": 8196,
      "ĠBudd": 8197,
      "ĠOhio": 8198,
      "Ġskill": 8199,
      "Ġfounded": 8200,
      "Ġmathematical": 8201,
      "}$,": 8202,
      "Ġapplies": 8203,
      "Ġslowly": 8204,
      "ctic": 8205,
      "ĠHoly": 8206,
      "xiety": 8207,
      "ĠGet": 8208,
      "ĠDam": 8209,
      "Ġprev": 8210,
      "Ġresidential": 8211,
      "ĠRam": 8212,
      "venues": 8213,
      "Ġdust": 8214,
      "Ġstands": 8215,
      "everal": 8216,
      "Ġjump": 8217,
      "Ġdetermination": 8218,
      "ĠSite": 8219,
      "Ġapplying": 8220,
      "Ġastron": 8221,
      "ĠRen": 8222,
      "Ġcovers": 8223,
      "sem": 8224,
      "ĠEll": 8225,
      "Ġgrew": 8226,
      "Cons": 8227,
      "opyright": 8228,
      "ilation": 8229,
      "ĠâĤ": 8230,
      "ĠCall": 8231,
      "ĠBox": 8232,
      "Ġpharm": 8233,
      "Ġpriority": 8234,
      "2001": 8235,
      "Ġfewer": 8236,
      "rance": 8237,
      "ĠOrig": 8238,
      "Ġpra": 8239,
      "Ġcurriculum": 8240,
      "sk": 8241,
      "Ġharvest": 8242,
      "ventions": 8243,
      "Ġsecurities": 8244,
      "Ġrepresenting": 8245,
      "ĠJim": 8246,
      "ĠJr": 8247,
      "aturday": 8248,
      "km": 8249,
      "Ġdefic": 8250,
      "Ġacquired": 8251,
      "Ġboundaries": 8252,
      "cos": 8253,
      "istor": 8254,
      "Ġbridge": 8255,
      "Ġvelocity": 8256,
      "Ġtrained": 8257,
      "hered": 8258,
      "this": 8259,
      "Ġexpectations": 8260,
      "ighter": 8261,
      "ented": 8262,
      "Ġguard": 8263,
      "Ġworry": 8264,
      "Ġinternet": 8265,
      "ĠGrant": 8266,
      "ospit": 8267,
      "aks": 8268,
      "Ġmachines": 8269,
      "ĠTraining": 8270,
      "Ġbehalf": 8271,
      "prise": 8272,
      "ĠFed": 8273,
      "ĠÃĹ": 8274,
      "Ġstations": 8275,
      "inals": 8276,
      "Ġoral": 8277,
      "Ġ98": 8278,
      "Ġdimensions": 8279,
      "Ġrecy": 8280,
      "Ġthreshold": 8281,
      "Ġchemicals": 8282,
      "Ġhazard": 8283,
      "ĠOrd": 8284,
      "lder": 8285,
      "Ġsupplement": 8286,
      "atern": 8287,
      "Ġdiagram": 8288,
      "ĠPP": 8289,
      "emed": 8290,
      "ĠConsider": 8291,
      "aska": 8292,
      "aylor": 8293,
      "Ġwalking": 8294,
      "Ġsect": 8295,
      "Ġlists": 8296,
      "ading": 8297,
      "Ġaccessible": 8298,
      "Ġabund": 8299,
      "Ġages": 8300,
      "Ġspectrum": 8301,
      "Ġdriven": 8302,
      "Ġinstallation": 8303,
      "Def": 8304,
      "onomic": 8305,
      "ersion": 8306,
      "ropical": 8307,
      "ĠBefore": 8308,
      "opt": 8309,
      "outs": 8310,
      "Ġ1986": 8311,
      "ĠShare": 8312,
      "Over": 8313,
      "Ġfly": 8314,
      "ĠAsian": 8315,
      "ĠStadium": 8316,
      "Ùħ": 8317,
      "Ġkg": 8318,
      "Ġforecast": 8319,
      "BER": 8320,
      "Ġcryst": 8321,
      "pan": 8322,
      "2021": 8323,
      "Ġdriver": 8324,
      "Ġ71": 8325,
      "Ġobservation": 8326,
      "ĠCambridge": 8327,
      "Ġfault": 8328,
      "ushed": 8329,
      "Ġtexts": 8330,
      "Ġmarg": 8331,
      "Ġ________________": 8332,
      "Ġdiscrimination": 8333,
      "Ġtrials": 8334,
      "arters": 8335,
      "ĠâĪ": 8336,
      "Ġwriter": 8337,
      "Ġspons": 8338,
      "ĠLimited": 8339,
      "ĠDaniel": 8340,
      "ĠDid": 8341,
      "Ġtables": 8342,
      "Ġcareful": 8343,
      "ĠOxford": 8344,
      "anes": 8345,
      "ANCE": 8346,
      "Ġinequ": 8347,
      "Ġbrown": 8348,
      "BL": 8349,
      "iatric": 8350,
      "Ġtemporary": 8351,
      "ustain": 8352,
      "Ġaimed": 8353,
      "ĠRegional": 8354,
      "ĠĠĠĠĠĠĠĠĠĠĠĠĠĠĠĠĠĠĠĠĠĠĠĠĠĠĠĠĠĠĠĠĠĠĠĠĠĠĠĠĠĠĠĠĠĠĠĠĠĠĠĠĠĠĠĠĠĠĠĠĠĠĠĠĠĠĠĠĠĠĠĠĠĠĠĠĠĠĠĠĠĠĠĠĠĠĠĠĠĠĠĠĠĠĠĠĠĠĠĠĠĠĠĠĠĠĠĠĠĠĠĠĠĠĠĠĠĠĠĠĠĠĠĠĠĠĠĠĠĠĠĠĠĠĠĠĠĠĠĠĠĠĠĠĠĠĠĠĠĠĠĠĠĠĠĠĠĠĠĠĠĠĠĠĠĠĠĠĠĠĠĠĠĠĠĠĠĠĠĠĠĠĠĠĠĠĠĠĠĠĠĠ": 8355,
      "ati": 8356,
      "uma": 8357,
      "Ġnode": 8358,
      "ima": 8359,
      "-------": 8360,
      "Tra": 8361,
      "Ã§": 8362,
      "}$.": 8363,
      "Ġchannels": 8364,
      "Ġintellectual": 8365,
      "Ġgreatly": 8366,
      "ĠAssembly": 8367,
      "Ġordinary": 8368,
      "Ġtargets": 8369,
      "UE": 8370,
      "ĠMah": 8371,
      "Ġtiny": 8372,
      "heim": 8373,
      "Ġperforming": 8374,
      "mega": 8375,
      "ĠâĨĳ": 8376,
      "Ġdecade": 8377,
      "Ġlimitations": 8378,
      "Ġcourts": 8379,
      "Ġtroops": 8380,
      "Ġkit": 8381,
      "Ġvaccine": 8382,
      "ĠJones": 8383,
      "icted": 8384,
      "Ġblow": 8385,
      "Ġpassing": 8386,
      "Ġlesson": 8387,
      "Ġlock": 8388,
      "Ġusual": 8389,
      "eness": 8390,
      "ĠFind": 8391,
      "avor": 8392,
      "Ġneighb": 8393,
      "Ġfraction": 8394,
      "Ġpool": 8395,
      "Ġfract": 8396,
      "Ġfighting": 8397,
      "Ġthorough": 8398,
      "enger": 8399,
      "aria": 8400,
      "Ġfinite": 8401,
      "Ġhorse": 8402,
      "erving": 8403,
      "ĠImpact": 8404,
      "yles": 8405,
      "folio": 8406,
      "ĠTheory": 8407,
      "Ġregistration": 8408,
      "Ġdefinite": 8409,
      "ensions": 8410,
      "Ġconj": 8411,
      "criptions": 8412,
      "Ġinnovative": 8413,
      "Ùİ": 8414,
      "awa": 8415,
      "ĠMid": 8416,
      "ĠStandards": 8417,
      "Ġdisturb": 8418,
      "::": 8419,
      "Ġappreciate": 8420,
      "ucky": 8421,
      "Ġforg": 8422,
      "TY": 8423,
      "circ": 8424,
      "erk": 8425,
      "ĠDirectors": 8426,
      "Ġtick": 8427,
      "Ġ79": 8428,
      "inois": 8429,
      "ressive": 8430,
      "Ġcommunications": 8431,
      "Spec": 8432,
      "vin": 8433,
      "ĠBoston": 8434,
      "onn": 8435,
      "idity": 8436,
      "Ġrealized": 8437,
      "ldots": 8438,
      "ĠAmong": 8439,
      "ITH": 8440,
      "aped": 8441,
      "ounded": 8442,
      "Ġduration": 8443,
      "Ġmerely": 8444,
      "Ġmountain": 8445,
      "Ġphotograph": 8446,
      "Ġspin": 8447,
      "empl": 8448,
      "Ġcompensation": 8449,
      "Ġacting": 8450,
      "Ġmechanical": 8451,
      "Ġdetermining": 8452,
      "Ġincent": 8453,
      "^{\\": 8454,
      "ludes": 8455,
      "Ġrelief": 8456,
      "ĠĠĠĠĠĠĠĠĠĠĠĠĠĠĠĠĠĠĠĠĠĠĠĠĠĠĠĠĠĠĠĠĠĠĠĠĠĠĠĠĠĠĠĠĠĠĠ": 8457,
      "Ġfacilitate": 8458,
      "gers": 8459,
      "Dep": 8460,
      ".).": 8461,
      "Ġintensity": 8462,
      "ĠResults": 8463,
      "Ġ96": 8464,
      "ĠWik": 8465,
      "Ġsubstit": 8466,
      "ĠFriday": 8467,
      "Ġdifficulty": 8468,
      "Ġaffects": 8469,
      "Ġgraduate": 8470,
      "ĠMrs": 8471,
      "Ġaqu": 8472,
      "Ġcenters": 8473,
      "ĠCancer": 8474,
      "ussion": 8475,
      "Ġ84": 8476,
      "Ġcolleagues": 8477,
      "Ġpolar": 8478,
      "ĠSupreme": 8479,
      "Ġunus": 8480,
      "Ġvertical": 8481,
      "Ġshock": 8482,
      "ĠCreek": 8483,
      "Ġcrew": 8484,
      "ruits": 8485,
      "Ġborrow": 8486,
      "Ġdocumentation": 8487,
      "Ġ1987": 8488,
      "Ġabsorb": 8489,
      "ĠRome": 8490,
      "Ġfirms": 8491,
      "ĠZh": 8492,
      "uts": 8493,
      "ĠBlue": 8494,
      "Ġfairly": 8495,
      "Ġutility": 8496,
      "Ġmetab": 8497,
      "Ġfiled": 8498,
      "ontal": 8499,
      "IAL": 8500,
      "Ġterritory": 8501,
      "Ġduties": 8502,
      "âĪ": 8503,
      "iler": 8504,
      "Ġbattery": 8505,
      "Ġbonds": 8506,
      "Ġengaging": 8507,
      "Ġreplacement": 8508,
      "ĠBab": 8509,
      "Ġrequiring": 8510,
      "ĠFred": 8511,
      "ĠOP": 8512,
      "ĠPlace": 8513,
      "ĠRh": 8514,
      "Ġroof": 8515,
      "lock": 8516,
      "Ġhouseholds": 8517,
      "Ġgained": 8518,
      "har": 8519,
      "Ġalgorithms": 8520,
      "icide": 8521,
      "------------------------------------------------------------------------": 8522,
      "Ġyounger": 8523,
      "max": 8524,
      "Once": 8525,
      "ibraries": 8526,
      "Gu": 8527,
      "Ġproved": 8528,
      "Ġartist": 8529,
      "-\\": 8530,
      "Ġacknowled": 8531,
      "Ġjudgment": 8532,
      "Ġancest": 8533,
      "Ġinitiatives": 8534,
      "ĠPH": 8535,
      "indu": 8536,
      "Ġestablishment": 8537,
      "Ġthereby": 8538,
      "ĠCommer": 8539,
      "Ġnucle": 8540,
      "ko": 8541,
      "XX": 8542,
      "ï»¿": 8543,
      "Ġaddressing": 8544,
      "Ġdates": 8545,
      "ĠHold": 8546,
      "DE": 8547,
      "Ġske": 8548,
      "Ġdiameter": 8549,
      "Ġhistoric": 8550,
      "ictionary": 8551,
      "ching": 8552,
      "ĠGuid": 8553,
      "ĠStock": 8554,
      "Ġeggs": 8555,
      "ĊĊĠĠ": 8556,
      "Ġ________________________________": 8557,
      "Ġcontam": 8558,
      "Ġregardless": 8559,
      "Key": 8560,
      "osion": 8561,
      "iac": 8562,
      "ĠWilliams": 8563,
      "ĠComputer": 8564,
      "Ġâĸ": 8565,
      "orted": 8566,
      "riz": 8567,
      "called": 8568,
      "Ġhole": 8569,
      "Ġcommunicate": 8570,
      "pass": 8571,
      "ĠTransfer": 8572,
      "ĠGeorgia": 8573,
      "Ġcalling": 8574,
      "Ġ\\).": 8575,
      "Ġdealing": 8576,
      "ĠGall": 8577,
      "ĠGame": 8578,
      "Ġcust": 8579,
      "ĠRight": 8580,
      "Ġversus": 8581,
      "Ġestate": 8582,
      "ERV": 8583,
      "isted": 8584,
      "Ġtheories": 8585,
      "Ġ09": 8586,
      "ĠConc": 8587,
      "wan": 8588,
      "Ġ07": 8589,
      "inator": 8590,
      "Ġattempts": 8591,
      "Ġseat": 8592,
      "vard": 8593,
      "ĠMP": 8594,
      "Ġhence": 8595,
      "Ġlogic": 8596,
      "Ġsky": 8597,
      "Ġtransactions": 8598,
      "secut": 8599,
      "ĠRail": 8600,
      "ĠJack": 8601,
      "ĠAvenue": 8602,
      "ackson": 8603,
      ")^": 8604,
      "ĠDespite": 8605,
      "utation": 8606,
      "MT": 8607,
      "Ġfacing": 8608,
      "eld": 8609,
      "Ġaband": 8610,
      "ĠParticip": 8611,
      "aked": 8612,
      "idth": 8613,
      "Ġconcentrations": 8614,
      "Ġes": 8615,
      "ascular": 8616,
      "Ġrestrictions": 8617,
      "achment": 8618,
      "conn": 8619,
      "ĠEC": 8620,
      "atively": 8621,
      "ĠDie": 8622,
      "Ġcopies": 8623,
      "Ġreliable": 8624,
      "Ġdeaths": 8625,
      "matrix": 8626,
      "Ġmi": 8627,
      "ĠIndividual": 8628,
      "Ġencouraged": 8629,
      "Ġclaimed": 8630,
      "Ġdogs": 8631,
      "Ġincred": 8632,
      "rium": 8633,
      "Ġcomposed": 8634,
      "ĠĠĠĠĠĠĠĠĠĠĠĠĠĠĠĠĠĠĠĠĠĠĠĠĠĠĠĠĠĠĠĠĠĠĠĠĠĠĠĠĠĠĠĠĠĠĠĠĠ": 8635,
      "Ġcrow": 8636,
      "Ġinfections": 8637,
      "Ġturb": 8638,
      "GR": 8639,
      "ĠHam": 8640,
      "Ġcrops": 8641,
      "ĠES": 8642,
      "Ġdesigns": 8643,
      "Ġtransformation": 8644,
      "Ġcutting": 8645,
      "Ġknowing": 8646,
      "Ġminute": 8647,
      "Ġli": 8648,
      "ĠSource": 8649,
      "ĠPur": 8650,
      "Ġcollective": 8651,
      "Ġhardware": 8652,
      "Ġpig": 8653,
      "Ġcontrovers": 8654,
      "Ġnob": 8655,
      "Ġdispl": 8656,
      "chi": 8657,
      "Ġraw": 8658,
      "oves": 8659,
      "ĠDemocratic": 8660,
      "Ġassumptions": 8661,
      "Ġ88": 8662,
      "ĠRegist": 8663,
      "BI": 8664,
      "ĠBir": 8665,
      "Ġscan": 8666,
      "Ġrespective": 8667,
      "Ġanalyses": 8668,
      "Ġdemands": 8669,
      "UST": 8670,
      "ELL": 8671,
      "ĠMarket": 8672,
      "fish": 8673,
      "ĠRisk": 8674,
      "Ġchrom": 8675,
      "space": 8676,
      "Ġflag": 8677,
      "Ġarts": 8678,
      "Ġdestroyed": 8679,
      "Ġtheoretical": 8680,
      "ĠProm": 8681,
      "Ġphotos": 8682,
      "Ġmoves": 8683,
      "Ġcooperation": 8684,
      "Ġparking": 8685,
      "ursday": 8686,
      "ĠRout": 8687,
      "uesday": 8688,
      "ĠMichigan": 8689,
      "ĠConvention": 8690,
      "ĠQuality": 8691,
      "Ġ81": 8692,
      "Ġexamined": 8693,
      "ÙĬ": 8694,
      "ĠOnline": 8695,
      "Ġstronger": 8696,
      "ĠTele": 8697,
      "ayer": 8698,
      "vania": 8699,
      "Ġfinds": 8700,
      "Eng": 8701,
      "Ġrequests": 8702,
      "Ġtrading": 8703,
      "Ġsight": 8704,
      "ĠLic": 8705,
      "ĠCOVID": 8706,
      "Ġlisten": 8707,
      "adel": 8708,
      "Ġmolecules": 8709,
      "ĠChannel": 8710,
      "ĠHard": 8711,
      "Ġownership": 8712,
      "ĠWeek": 8713,
      "Ġputting": 8714,
      "ĠCreat": 8715,
      "Ġreactions": 8716,
      "ĠMess": 8717,
      "Ġentities": 8718,
      "Ġcontinuing": 8719,
      "Ġexploration": 8720,
      "ĠSE": 8721,
      "Ġobl": 8722,
      ".|": 8723,
      "Ġ82": 8724,
      "Ġveter": 8725,
      "Of": 8726,
      "Read": 8727,
      "Ġcompetitive": 8728,
      "ĠLew": 8729,
      "ffee": 8730,
      "anger": 8731,
      "General": 8732,
      "mond": 8733,
      "Mod": 8734,
      "foot": 8735,
      "Ġtit": 8736,
      "Ġforests": 8737,
      "Ġpartial": 8738,
      "Ġrecre": 8739,
      "data": 8740,
      "ostic": 8741,
      "oken": 8742,
      "ĠSD": 8743,
      "Ġindustries": 8744,
      "ĠSir": 8745,
      "aul": 8746,
      "ali": 8747,
      "ĠSimilarly": 8748,
      "BR": 8749,
      "oln": 8750,
      "Ġawarded": 8751,
      "Ġmonthly": 8752,
      "Ġconsiderable": 8753,
      "ĠSW": 8754,
      "onents": 8755,
      "share": 8756,
      "Ġmanaging": 8757,
      "Ġpassage": 8758,
      "Ġ08": 8759,
      "ĠBased": 8760,
      "jo": 8761,
      "Ġmoist": 8762,
      "Ġemerging": 8763,
      "Ġmolecular": 8764,
      "ĠHot": 8765,
      "ĠOly": 8766,
      "ĠKenn": 8767,
      "Ġneuro": 8768,
      "Ġcorn": 8769,
      "Ġble": 8770,
      "ĠLiter": 8771,
      "Ġhonor": 8772,
      "Ġ(\\": 8773,
      "ĠFL": 8774,
      "108": 8775,
      "ĠFinance": 8776,
      "Ġsurfaces": 8777,
      "Ġrect": 8778,
      "nesday": 8779,
      "ĠOwn": 8780,
      "Ġnewly": 8781,
      "ĠMedia": 8782,
      "Ġreader": 8783,
      "ĠNotes": 8784,
      "ĠAgain": 8785,
      "oving": 8786,
      "Ġtrouble": 8787,
      "Rel": 8788,
      "Ġexecution": 8789,
      "Ġtransferred": 8790,
      "ĠApplication": 8791,
      "onal": 8792,
      "State": 8793,
      "Ġ600": 8794,
      "Ġresponsibilities": 8795,
      "wing": 8796,
      "Under": 8797,
      "ĠPerformance": 8798,
      "Ġidentifying": 8799,
      "ĠFre": 8800,
      "aka": 8801,
      "ĠOcc": 8802,
      "ĠAltern": 8803,
      "Ġstead": 8804,
      "Ġobligations": 8805,
      "Ġposted": 8806,
      "Ġintegral": 8807,
      "Ġpilot": 8808,
      "ĠIllinois": 8809,
      "Ġhidden": 8810,
      "Ġenemy": 8811,
      "ĠUpd": 8812,
      "Ġprox": 8813,
      "Ġremind": 8814,
      "vi": 8815,
      "estival": 8816,
      "theless": 8817,
      "ĠAndrew": 8818,
      "Ġrely": 8819,
      "ĠPresent": 8820,
      "Ġlaunched": 8821,
      "ila": 8822,
      "Ġindependence": 8823,
      "Ġmine": 8824,
      "**,": 8825,
      "à¤¨": 8826,
      "Ġargue": 8827,
      "mediate": 8828,
      "Ġdefect": 8829,
      "Ġeastern": 8830,
      "Ġopposed": 8831,
      "ĠPlant": 8832,
      "Ġintegr": 8833,
      "Ġretail": 8834,
      "fortunately": 8835,
      "Ġscenario": 8836,
      "Ġpregnancy": 8837,
      "Ġsimulation": 8838,
      "ĠBureau": 8839,
      "UC": 8840,
      "ref": 8841,
      "Ġloans": 8842,
      "DD": 8843,
      "cyclop": 8844,
      "etime": 8845,
      "Ġconcluded": 8846,
      "Ġproduces": 8847,
      "ACK": 8848,
      "Ġ94": 8849,
      "abeth": 8850,
      "ousing": 8851,
      "ĠUL": 8852,
      "heric": 8853,
      "Ġdose": 8854,
      "syl": 8855,
      "Ġdoctors": 8856,
      "Ġthemes": 8857,
      "Ġcontents": 8858,
      "iah": 8859,
      "grade": 8860,
      "ĠMic": 8861,
      "Ġloved": 8862,
      "nu": 8863,
      "Ġtank": 8864,
      "Ġ87": 8865,
      "Ġstruggle": 8866,
      "ĠNever": 8867,
      "Ġboys": 8868,
      "Ġturning": 8869,
      "valuation": 8870,
      "Ġrobust": 8871,
      "Ġsplit": 8872,
      "Ġquantity": 8873,
      "Ġmeth": 8874,
      "ĠEmpire": 8875,
      "Ġversions": 8876,
      "Ġfellow": 8877,
      "ĠAmend": 8878,
      "ĠViet": 8879,
      "Ġtempor": 8880,
      "Ġinstances": 8881,
      "Ġcorrelation": 8882,
      "ĠStan": 8883,
      "Ġ1985": 8884,
      "Ġhandling": 8885,
      "duction": 8886,
      "Ġseeds": 8887,
      "ĠObs": 8888,
      "Ġintroduce": 8889,
      "Ġ83": 8890,
      "specific": 8891,
      "Ġcontributed": 8892,
      "Ġrefuge": 8893,
      "ĠEL": 8894,
      "Ġamended": 8895,
      "Ġstakeholders": 8896,
      "ĠLy": 8897,
      "Ġsustainability": 8898,
      "Ġbrings": 8899,
      "Ġdatas": 8900,
      "Ġcapabilities": 8901,
      "Ġliver": 8902,
      "Ġwarming": 8903,
      "Ġtraditions": 8904,
      "Ġdecreased": 8905,
      "ĠFrancisco": 8906,
      "ĠPak": 8907,
      "estions": 8908,
      "uction": 8909,
      "}.": 8910,
      "ĠIncre": 8911,
      "holder": 8912,
      "dimensional": 8913,
      "Ġhydrogen": 8914,
      "Ġequally": 8915,
      "Ġmuseum": 8916,
      "Ġteeth": 8917,
      "ĠSpirit": 8918,
      "Ġmur": 8919,
      "vec": 8920,
      "ĠCarl": 8921,
      "Ġdevelopments": 8922,
      "ĠOpp": 8923,
      "Ġdisplayed": 8924,
      "INT": 8925,
      "eping": 8926,
      "ĠRun": 8927,
      "ĠSH": 8928,
      "posed": 8929,
      "mal": 8930,
      "Car": 8931,
      "Ġbread": 8932,
      "gency": 8933,
      "ĠKim": 8934,
      "ĠNative": 8935,
      "Ġwidth": 8936,
      "ĠPractice": 8937,
      "Ġpin": 8938,
      "sin": 8939,
      "ĠFarm": 8940,
      "Ġvot": 8941,
      "ĠProblem": 8942,
      "Ġbehaviors": 8943,
      "Ġsweet": 8944,
      "Ġreferences": 8945,
      "Ġcab": 8946,
      "ĠRule": 8947,
      "Ġinvolvement": 8948,
      "Rem": 8949,
      "Ġvulnerable": 8950,
      "Ġreviews": 8951,
      "ĠKorea": 8952,
      "Ġunp": 8953,
      "Ġentertain": 8954,
      "ĠSus": 8955,
      "Ġwildlife": 8956,
      "Ġcampus": 8957,
      "Ġrelax": 8958,
      "Ġwarrant": 8959,
      "kg": 8960,
      "ĠFace": 8961,
      "ocket": 8962,
      "Ġsyndrome": 8963,
      "Ġacquisition": 8964,
      "ĠAtlantic": 8965,
      "Ġresil": 8966,
      "Ġdetected": 8967,
      "Ġqualified": 8968,
      "250": 8969,
      "Ġconversation": 8970,
      "run": 8971,
      "ĠVill": 8972,
      "Ġthrow": 8973,
      "ĠThird": 8974,
      "haust": 8975,
      "ĠConstruction": 8976,
      "ĠCro": 8977,
      "Ġphoto": 8978,
      "Ġtranslation": 8979,
      "Ġthermal": 8980,
      "ĠHom": 8981,
      "ĠMach": 8982,
      "Ġnodes": 8983,
      "ographical": 8984,
      "Ġ03": 8985,
      "opic": 8986,
      "Ġmortality": 8987,
      "ĠGP": 8988,
      "ĠCat": 8989,
      "olt": 8990,
      "rus": 8991,
      "Ġuniversal": 8992,
      "Ġsummar": 8993,
      "ilib": 8994,
      "athan": 8995,
      "Ġforget": 8996,
      "ĠRevolution": 8997,
      "Ġrealize": 8998,
      "Ġtor": 8999,
      "TP": 9000,
      "Ġagreements": 9001,
      "ĠLittle": 9002,
      "Ġparticle": 9003,
      "Ġmembership": 9004,
      "EAR": 9005,
      "zo": 9006,
      "ĠShow": 9007,
      "ĠText": 9008,
      "ĠSmall": 9009,
      "Ġemphasis": 9010,
      "Where": 9011,
      "Ġrecover": 9012,
      "iral": 9013,
      "ja": 9014,
      "Ġessentially": 9015,
      "ĠPaper": 9016,
      "Ġovers": 9017,
      "ĠDigital": 9018,
      "Sim": 9019,
      "Ġcorrectly": 9020,
      "apse": 9021,
      "Ġcomply": 9022,
      "Ġsessions": 9023,
      "150": 9024,
      "wa": 9025,
      "?âĢĿ": 9026,
      "isl": 9027,
      "Ġsampling": 9028,
      "ĠConservation": 9029,
      "TE": 9030,
      "ULL": 9031,
      "Ġanxiety": 9032,
      "Ġindirect": 9033,
      "ĠGree": 9034,
      "ĠAngeles": 9035,
      "Ġauthent": 9036,
      "ĠMonday": 9037,
      "tery": 9038,
      "Ġvictims": 9039,
      "Ġinjuries": 9040,
      "etts": 9041,
      "âĢĲ": 9042,
      "Ġcontributing": 9043,
      "ĠPolice": 9044,
      "Ã¢": 9045,
      "Ġdil": 9046,
      "Ġnaturally": 9047,
      "Sm": 9048,
      "Ġloop": 9049,
      "Ġadjacent": 9050,
      "Ġpurchased": 9051,
      "Ne": 9052,
      "Ġamazing": 9053,
      "Ġhorm": 9054,
      "Ġdrain": 9055,
      "ĊĊĊĊ": 9056,
      "ocy": 9057,
      "AGE": 9058,
      "Ġanalog": 9059,
      "][": 9060,
      "bed": 9061,
      "ĠWin": 9062,
      "Ġfashion": 9063,
      "Ġpron": 9064,
      "Ġsuit": 9065,
      "Ġcharacterized": 9066,
      "aintiff": 9067,
      "Ġvegetables": 9068,
      "uan": 9069,
      "ĠPed": 9070,
      "ECTION": 9071,
      "Ã±": 9072,
      "quare": 9073,
      "Ġfost": 9074,
      "ĠStatement": 9075,
      "IO": 9076,
      "ĠView": 9077,
      "âĢĻ,": 9078,
      "Ġenables": 9079,
      "Ġroads": 9080,
      "ĠBern": 9081,
      "sylvania": 9082,
      "Ġpreval": 9083,
      "ĠRepublican": 9084,
      "Ġlaid": 9085,
      "geq": 9086,
      "Ġevaluated": 9087,
      "ĠIC": 9088,
      "Ġsport": 9089,
      "Ġsuffering": 9090,
      "eller": 9091,
      "ĠLess": 9092,
      "Ġspatial": 9093,
      "Ġ92": 9094,
      "Ġhaven": 9095,
      "ĠNS": 9096,
      "ĠIndex": 9097,
      "ais": 9098,
      "Ġpreferred": 9099,
      "Ġtube": 9100,
      ".),": 9101,
      "Ġcovering": 9102,
      "isdom": 9103,
      "ĠModern": 9104,
      "Ġinterval": 9105,
      "ami": 9106,
      "ochem": 9107,
      "ategory": 9108,
      "Ġrecording": 9109,
      "Ġexpense": 9110,
      "Ġsho": 9111,
      "Ġbroader": 9112,
      "Ġsymmet": 9113,
      "ĠUnivers": 9114,
      "apes": 9115,
      "ĠHo": 9116,
      "Ġmoon": 9117,
      "worth": 9118,
      "Ġvessels": 9119,
      "ðĿ": 9120,
      "ogram": 9121,
      "Ġconstraints": 9122,
      "TO": 9123,
      "esis": 9124,
      "Ġfilms": 9125,
      "arsh": 9126,
      "uct": 9127,
      "oids": 9128,
      "Ġempty": 9129,
      "Ġ1950": 9130,
      "effect": 9131,
      "ĠObject": 9132,
      "Ġaims": 9133,
      "cend": 9134,
      "ĠLA": 9135,
      "Ġpsychological": 9136,
      "TX": 9137,
      "Ġyards": 9138,
      "Ġclassified": 9139,
      "Ġlabour": 9140,
      "ĠHig": 9141,
      "hus": 9142,
      "Ġscheduled": 9143,
      "ĠTrade": 9144,
      "Ġstopped": 9145,
      "Ac": 9146,
      "Ġcomplicated": 9147,
      "Ġchildhood": 9148,
      "Ġlowest": 9149,
      "Ġclassical": 9150,
      "ĠEvent": 9151,
      "ĠOlymp": 9152,
[...]
