<pad>	0
<s>	0
</s>	0
<unk>	0
<0x00>	0
<0x01>	0
<0x02>	0
<0x03>	0
<0x04>	0
<0x05>	0
<0x06>	0
<0x07>	0
<0x08>	0
<0x09>	0
<0x0A>	0
<0x0B>	0
<0x0C>	0
<0x0D>	0
<0x0E>	0
<0x0F>	0
<0x10>	0
<0x11>	0
<0x12>	0
<0x13>	0
<0x14>	0
<0x15>	0
<0x16>	0
<0x17>	0
<0x18>	0
<0x19>	0
<0x1A>	0
<0x1B>	0
<0x1C>	0
<0x1D>	0
<0x1E>	0
<0x1F>	0
<0x20>	0
<0x21>	0
<0x22>	0
<0x23>	0
<0x24>	0
<0x25>	0
<0x26>	0
<0x27>	0
<0x28>	0
<0x29>	0
<0x2A>	0
<0x2B>	0
<0x2C>	0
<0x2D>	0
<0x2E>	0
<0x2F>	0
<0x30>	0
<0x31>	0
<0x32>	0
<0x33>	0
<0x34>	0
<0x35>	0
<0x36>	0
<0x37>	0
<0x38>	0
<0x39>	0
<0x3A>	0
<0x3B>	0
<0x3C>	0
<0x3D>	0
<0x3E>	0
<0x3F>	0
<0x40>	0
<0x41>	0
<0x42>	0
<0x43>	0
<0x44>	0
<0x45>	0
<0x46>	0
<0x47>	0
<0x48>	0
<0x49>	0
<0x4A>	0
<0x4B>	0
<0x4C>	0
<0x4D>	0
<0x4E>	0
<0x4F>	0
<0x50>	0
<0x51>	0
<0x52>	0
<0x53>	0
<0x54>	0
<0x55>	0
<0x56>	0
<0x57>	0
<0x58>	0
<0x59>	0
<0x5A>	0
<0x5B>	0
<0x5C>	0
<0x5D>	0
<0x5E>	0
<0x5F>	0
<0x60>	0
<0x61>	0
<0x62>	0
<0x63>	0
<0x64>	0
<0x65>	0
<0x66>	0
<0x67>	0
<0x68>	0
<0x69>	0
<0x6A>	0
<0x6B>	0
<0x6C>	0
<0x6D>	0
<0x6E>	0
<0x6F>	0
<0x70>	0
<0x71>	0
<0x72>	0
<0x73>	0
<0x74>	0
<0x75>	0
<0x76>	0
<0x77>	0
<0x78>	0
<0x79>	0
<0x7A>	0
<0x7B>	0
<0x7C>	0
<0x7D>	0
<0x7E>	0
<0x7F>	0
<0x80>	0
<0x81>	0
<0x82>	0
<0x83>	0
<0x84>	0
<0x85>	0
<0x86>	0
<0x87>	0
<0x88>	0
<0x89>	0
<0x8A>	0
<0x8B>	0
<0x8C>	0
<0x8D>	0
<0x8E>	0
<0x8F>	0
<0x90>	0
<0x91>	0
<0x92>	0
<0x93>	0
<0x94>	0
<0x95>	0
<0x96>	0
<0x97>	0
<0x98>	0
<0x99>	0
<0x9A>	0
<0x9B>	0
<0x9C>	0
<0x9D>	0
<0x9E>	0
<0x9F>	0
<0xA0>	0
<0xA1>	0
<0xA2>	0
<0xA3>	0
<0xA4>	0
<0xA5>	0
<0xA6>	0
<0xA7>	0
<0xA8>	0
<0xA9>	0
<0xAA>	0
<0xAB>	0
<0xAC>	0
<0xAD>	0
<0xAE>	0
<0xAF>	0
<0xB0>	0
<0xB1>	0
<0xB2>	0
<0xB3>	0
<0xB4>	0
<0xB5>	0
<0xB6>	0
<0xB7>	0
<0xB8>	0
<0xB9>	0
<0xBA>	0
<0xBB>	0
<0xBC>	0
<0xBD>	0
<0xBE>	0
<0xBF>	0
<0xC0>	0
<0xC1>	0
<0xC2>	0
<0xC3>	0
<0xC4>	0
<0xC5>	0
<0xC6>	0
<0xC7>	0
<0xC8>	0
<0xC9>	0
<0xCA>	0
<0xCB>	0
<0xCC>	0
<0xCD>	0
<0xCE>	0
<0xCF>	0
<0xD0>	0
<0xD1>	0
<0xD2>	0
<0xD3>	0
<0xD4>	0
<0xD5>	0
<0xD6>	0
<0xD7>	0
<0xD8>	0
<0xD9>	0
<0xDA>	0
<0xDB>	0
<0xDC>	0
<0xDD>	0
<0xDE>	0
<0xDF>	0
<0xE0>	0
<0xE1>	0
<0xE2>	0
<0xE3>	0
<0xE4>	0
<0xE5>	0
<0xE6>	0
<0xE7>	0
<0xE8>	0
<0xE9>	0
<0xEA>	0
<0xEB>	0
<0xEC>	0
<0xED>	0
<0xEE>	0
<0xEF>	0
<0xF0>	0
<0xF1>	0
<0xF2>	0
<0xF3>	0
<0xF4>	0
<0xF5>	0
<0xF6>	0
<0xF7>	0
<0xF8>	0
<0xF9>	0
<0xFA>	0
<0xFB>	0
<0xFC>	0
<0xFD>	0
<0xFE>	0
<0xFF>	0
.	-3.27114
,	-3.28866
▁the	-3.29169
s	-3.8421
▁to	-3.87496
▁of	-3.90271
▁and	-3.92842
▁a	-4.06231
▁in	-4.3946
▁is	-4.61975
▁that	-4.70797
'	-4.93418
▁I	-5.01229
▁for	-5.03707
▁it	-5.06712
-	-5.08965
▁you	-5.1711
▁	-5.27906
▁with	-5.30787
▁on	-5.32681
▁are	-5.33806
▁be	-5.40114
’	-5.42635
▁The	-5.42728
t	-5.44286
▁as	-5.47381
▁was	-5.55862
:	-5.58335
▁or	-5.63355
▁have	-5.64481
▁(	-5.64774
▁this	-5.74162
▁not	-5.74964
▁by	-5.79416
▁can	-5.79421
▁from	-5.81106
▁at	-5.89752
▁they	-5.93443
▁an	-5.94446
)	-5.96867
▁your	-5.9716
?	-5.97724
ing	-6.04325
▁but	-6.04348
▁"	-6.08744
▁we	-6.14126
▁their	-6.1565
▁will	-6.17686
▁he	-6.22522
▁all	-6.24932
▁more	-6.25372
▁one	-6.28829
▁his	-6.28981
ed	-6.2954
▁has	-6.29765
d	-6.30766
▁about	-6.33251
▁which	-6.39398
▁It	-6.41878
▁so	-6.44098
▁“	-6.4448
▁out	-6.49218
▁do	-6.49628
▁A	-6.51149
▁like	-6.51457
▁what	-6.51785
▁up	-6.51823
▁if	-6.51984
▁-	-6.52912
▁who	-6.54171
▁would	-6.54177
▁were	-6.54233
▁my	-6.54356
▁there	-6.57105
▁when	-6.58407
▁time	-6.5856
▁In	-6.58579
▁had	-6.60117
▁people	-6.6098
▁other	-6.63155
▁them	-6.6316
▁also	-6.6851
m	-6.70738
re	-6.71317
▁This	-6.71541
▁some	-6.71867
▁just	-6.72997
▁into	-6.73596
▁been	-6.74662
;	-6.75081
▁than	-6.75521
▁her	-6.76073
"	-6.84158
▁how	-6.85587
▁no	-6.85872
▁me	-6.87002
▁get	-6.87993
/	-6.88024
!	-6.90026
▁our	-6.90581
▁only	-6.92928
ly	-6.9476
e	-6.97847
▁over	-7.01097
▁these	-7.02053
▁because	-7.02696
er	-7.03379
▁make	-7.04749
y	-7.05612
▁any	-7.06013
▁could	-7.06818
▁most	-7.06975
▁may	-7.07577
▁If	-7.08229
▁way	-7.08784
▁then	-7.10121
▁she	-7.1099
▁use	-7.11742
a	-7.12028
▁know	-7.12053
▁You	-7.12426
”	-7.12467
▁He	-7.13966
▁its	-7.14259
▁first	-7.14938
▁even	-7.16196
▁many	-7.17204
...	-7.17617
▁said	-7.17958
▁two	-7.19656
▁new	-7.20233
▁don	-7.20308
▁very	-7.21343
▁should	-7.21575
▁much	-7.21895
▁where	-7.22791
▁•	-7.23918
▁But	-7.24513
▁such	-7.2533
▁him	-7.25896
▁And	-7.26615
▁need	-7.27087
▁work	-7.2735
▁being	-7.28208
▁see	-7.29054
▁well	-7.29642
).	-7.29941
ve	-7.31257
▁think	-7.31354
▁We	-7.31408
▁back	-7.31696
▁through	-7.34224
▁good	-7.34343
▁those	-7.37653
▁years	-7.37877
▁used	-7.38159
▁They	-7.38729
▁after	-7.39418
▁now	-7.39479
S	-7.40834
▁What	-7.41703
▁want	-7.42523
in	-7.45911
▁same	-7.46701
▁So	-7.46838
n	-7.47142
▁go	-7.47222
▁us	-7.48074
▁take	-7.49132
▁There	-7.50325
▁world	-7.50549
▁before	-7.51303
▁down	-7.51669
▁life	-7.51966
▁between	-7.52364
▁right	-7.52492
ll	-7.53237
."	-7.53333
▁really	-7.54455
r	-7.55252
I	-7.55804
▁still	-7.55874
▁made	-7.57005
▁help	-7.5813
▁different	-7.58753
▁going	-7.59069
▁day	-7.59856
▁For	-7.60535
▁while	-7.60555
▁did	-7.61426
▁does	-7.61542
▁long	-7.6241
▁around	-7.63517
▁own	-7.6436
▁As	-7.64606
▁things	-7.64613
or	-7.64832
▁1	-7.65374
▁here	-7.65674
▁each	-7.65991
▁something	-7.66737
es	-7.68014
i	-7.68064
▁2	-7.68652
▁off	-7.69256
▁too	-7.69765
▁say	-7.70318
▁–	-7.71415
]	-7.71442
o	-7.71589
al	-7.71853
),	-7.72385
▁find	-7.72828
▁both	-7.73265
▁When	-7.73506
▁part	-7.74117
▁system	-7.75261
▁year	-7.7721
▁might	-7.77578
▁water	-7.78323
▁That	-7.79561
▁using	-7.79953
th	-7.80406
▁3	-7.81889
▁every	-7.82636
▁To	-7.84174
▁little	-7.847
▁high	-7.8498
▁better	-7.85295
.”	-7.87209
▁why	-7.87667
▁another	-7.8794
▁without	-7.88396
▁few	-7.88398
▁never	-7.88457
▁best	-7.88772
▁lot	-7.89007
▁come	-7.89345
g	-7.89784
▁S	-7.90477
▁C	-7.90477
▁How	-7.91653
▁found	-7.91749
▁look	-7.92205
▁under	-7.93556
▁must	-7.94128
▁place	-7.94306
▁always	-7.94549
A	-7.94763
▁[	-7.94795
▁last	-7.95098
▁point	-7.95205
▁important	-7.95403
▁end	-7.9548
▁number	-7.95658
▁data	-7.96095
▁during	-7.96105
▁B	-7.96357
▁often	-7.97094
▁'	-7.97177
▁information	-7.97183
▁great	-7.97226
ers	-7.98473
▁thing	-7.99162
c	-8.00028
▁three	-8.00047
2	-8.00269
▁person	-8.00334
▁body	-8.0104
_	-8.02778
▁example	-8.02895
▁She	-8.03201
—	-8.04195
▁power	-8.04668
▁against	-8.05622
▁man	-8.05977
▁less	-8.06388
▁1.	-8.0657
▁home	-8.06689
▁am	-8.0743
▁change	-8.08086
▁set	-8.08643
▁E	-8.08734
▁since	-8.09153
▁case	-8.10287
▁money	-8.10713
▁able	-8.10931
▁D	-8.11588
▁says	-8.11692
▁re	-8.11711
▁‘	-8.11765
▁actually	-8.11896
▁put	-8.12258
▁small	-8.12264
▁feel	-8.12472
▁called	-8.12842
▁enough	-8.12882
▁give	-8.12937
▁4	-8.13513
▁keep	-8.13782
▁5	-8.13963
,"	-8.14238
▁state	-8.14593
▁away	-8.14784
▁children	-8.15248
▁got	-8.15497
▁However	-8.15546
the	-8.15634
D	-8.16146
▁again	-8.16387
▁sure	-8.16768
C	-8.17069
▁process	-8.17415
▁fact	-8.17464
▁No	-8.18511
▁doesn	-8.18649
k	-8.18764
▁10	-8.19231
▁didn	-8.19247
and	-8.19446
▁i	-8.19538
to	-8.19577
▁means	-8.19676
▁government	-8.19709
▁U	-8.20399
▁though	-8.20509
▁next	-8.20531
▁M	-8.20891
(	-8.20934
▁human	-8.21109
▁New	-8.2134
▁One	-8.21661
▁making	-8.2214
b	-8.22281
▁food	-8.23157
▁become	-8.23386
▁These	-8.23535
▁un	-8.24151
l	-8.25347
▁order	-8.25371
▁love	-8.25414
▁game	-8.2547
▁name	-8.25491
▁old	-8.25678
▁family	-8.25869
▁problem	-8.25901
▁health	-8.27223
▁until	-8.27359
▁start	-8.27473
▁T	-8.27683
▁within	-8.2811
▁|	-8.28524
▁far	-8.28562
▁real	-8.28722
▁left	-8.28728
▁having	-8.28963
p	-8.2906
▁possible	-8.29476
▁course	-8.29503
▁thought	-8.29847
▁P	-8.29872
▁show	-8.3001
on	-8.30117
▁de	-8.3018
x	-8.30327
▁someone	-8.30361
The	-8.31263
▁least	-8.32668
▁hard	-8.32821
▁doing	-8.32981
▁side	-8.33076
▁done	-8.33094
▁2.	-8.33196
▁school	-8.33226
▁free	-8.3355
▁large	-8.34272
▁known	-8.34366
▁read	-8.34589
▁women	-8.34904
able	-8.34957
▁question	-8.3527
▁public	-8.35504
▁book	-8.35561
▁group	-8.35841
▁country	-8.35858
man	-8.36138
▁makes	-8.36165
▁hand	-8.3657
▁ever	-8.37326
▁control	-8.3751
▁let	-8.3756
▁My	-8.37684
▁understand	-8.38195
▁days	-8.38309
▁already	-8.38368
▁big	-8.38553
▁including	-8.38606
▁story	-8.38625
▁form	-8.38767
▁times	-8.38891
▁American	-8.38991
▁experience	-8.39142
▁business	-8.39231
B	-8.39628
▁social	-8.39911
ic	-8.40007
en	-8.40249
1	-8.40522
▁level	-8.40687
▁At	-8.40878
▁second	-8.41209
▁kind	-8.4137
▁R	-8.41664
▁light	-8.41687
▁=	-8.42218
▁others	-8.42285
▁Do	-8.427
▁play	-8.42842
▁support	-8.42936
▁God	-8.4346
▁G	-8.43591
▁idea	-8.437
▁once	-8.43893
▁getting	-8.43896
▁per	-8.43944
▁mean	-8.44259
▁company	-8.44269
▁K	-8.44283
▁On	-8.44888
▁6	-8.4505
▁today	-8.4535
▁J	-8.45504
▁students	-8.45519
▁working	-8.45562
▁head	-8.45568
▁All	-8.45878
3	-8.46101
▁several	-8.46122
an	-8.46208
▁anything	-8.46415
▁men	-8.46478
▁energy	-8.46589
▁came	-8.46614
▁given	-8.46938
▁--	-8.47087
▁full	-8.47113
▁common	-8.47163
▁research	-8.4748
▁try	-8.47557
▁&	-8.47634
▁mind	-8.48081
T	-8.48143
▁provide	-8.48203
▁together	-8.48478
▁type	-8.48618
▁Some	-8.48731
▁F	-8.48883
▁based	-8.49048
▁care	-8.49177
h	-8.49224
,”	-8.49407
▁post	-8.49585
f	-8.49684
▁create	-8.49763
▁believe	-8.50042
▁study	-8.5035
▁open	-8.50366
▁area	-8.50411
▁non	-8.50729
▁either	-8.50931
▁rather	-8.50952
▁Why	-8.51234
▁3.	-8.51559
▁bit	-8.5171
▁20	-8.51785
▁live	-8.51974
▁probably	-8.52015
▁later	-8.52046
▁run	-8.52162
ness	-8.5219
▁whole	-8.52357
▁line	-8.52372
▁following	-8.52568
▁H	-8.52617
▁reason	-8.53348
▁top	-8.53395
▁seen	-8.53502
▁After	-8.53564
▁likely	-8.54013
▁With	-8.54181
▁history	-8.5447
▁US	-8.54703
▁18	-8.54834
▁child	-8.54923
▁cause	-8.55137
▁car	-8.55478
G	-8.5582
▁team	-8.55871
▁tell	-8.55918
▁low	-8.56207
▁bad	-8.56325
▁An	-8.57091
▁L	-8.57977
▁looking	-8.58065
▁words	-8.58173
▁face	-8.58207
▁include	-8.5831
▁*	-8.58377
▁local	-8.58397
▁early	-8.58467
▁took	-8.58706
▁comes	-8.5884
F	-8.59013
▁sense	-8.59173
▁yet	-8.59299
▁By	-8.59365
▁value	-8.5941
▁trying	-8.59494
▁went	-8.5952
▁blood	-8.59951
▁past	-8.60179
▁result	-8.6034
P	-8.6044
▁almost	-8.60605
▁Your	-8.60635
▁nothing	-8.60659
▁whether	-8.60713
▁isn	-8.60818
▁future	-8.60827
▁Now	-8.6104
▁call	-8.61065
▁—	-8.61509
▁air	-8.61559
▁O	-8.61751
▁war	-8.61807
▁law	-8.62053
▁due	-8.62133
▁United	-8.62343
▁answer	-8.62386
ity	-8.6291
▁pay	-8.62983
▁needs	-8.63098
us	-8.63178
▁job	-8.63206
▁everything	-8.6327
▁usually	-8.63748
▁house	-8.63796
▁above	-8.63877
▁along	-8.63944
ism	-8.64126
▁available	-8.6418
▁short	-8.6433
▁true	-8.64526
▁7	-8.64859
▁While	-8.64938
▁space	-8.64947
▁matter	-8.65015
▁certain	-8.65133
4	-8.65179
▁heart	-8.6558
▁started	-8.65897
▁8	-8.66126
▁risk	-8.66175
▁seems	-8.66671
▁night	-8.66734
▁won	-8.66822
▁self	-8.67544
▁amount	-8.67574
▁single	-8.67656
N	-8.6851
▁else	-8.68549
ation	-8.68606
▁ago	-8.68892
▁themselves	-8.69101
ist	-8.69204
▁four	-8.69499
▁problems	-8.69567
▁current	-8.69595
▁N	-8.69676
▁learn	-8.69954
▁across	-8.69955
▁market	-8.69988
M	-8.70084
▁development	-8.70235
▁week	-8.70597
▁word	-8.70625
▁quite	-8.70826
▁told	-8.70953
W	-8.71162
▁everyone	-8.7153
▁especially	-8.71837
▁simply	-8.7204
▁however	-8.7209
▁move	-8.72156
▁Not	-8.72608
▁article	-8.72609
K	-8.72726
▁taking	-8.72909
▁Re	-8.72911
▁age	-8.73047
E	-8.73134
u	-8.73386
▁cannot	-8.73497
▁e	-8.73556
as	-8.7394
▁city	-8.74289
▁death	-8.74514
▁turn	-8.74651
▁p	-8.75094
▁States	-8.75292
▁Here	-8.75325
▁main	-8.75648
▁room	-8.75881
▁major	-8.75976
▁specific	-8.76072
▁test	-8.76201
▁simple	-8.76508
▁itself	-8.76604
▁black	-8.76614
H	-8.76662
▁language	-8.76952
▁easy	-8.76965
▁political	-8.77101
▁etc	-8.77368
▁4.	-8.77483
▁cost	-8.77668
▁higher	-8.77874
▁young	-8.78108
▁list	-8.78225
▁million	-8.78591
▁service	-8.78605
▁pretty	-8.78662
▁12	-8.79144
▁class	-8.79217
▁program	-8.79441
com	-8.79637
▁Then	-8.79822
▁music	-8.79856
z	-8.79917
▁half	-8.7993
▁ways	-8.8006
▁15	-8.80122
▁key	-8.80172
▁similar	-8.80207
▁white	-8.8027
▁close	-8.80473
▁His	-8.8065
▁among	-8.80718
▁results	-8.80832
▁issue	-8.80864
▁instead	-8.80973
up	-8.8104
▁individual	-8.81163
▁increase	-8.81169
▁clear	-8.81298
▁general	-8.81464
–	-8.81862
it	-8.81956
▁lead	-8.82268
▁hours	-8.83084
▁stop	-8.8314
▁natural	-8.83294
▁questions	-8.83321
▁longer	-8.83488
▁various	-8.83596
▁taken	-8.8368
▁community	-8.83754
▁present	-8.83844
▁project	-8.8407
▁behind	-8.84071
▁technology	-8.84126
v	-8.84325
▁John	-8.84541
▁W	-8.84601
is	-8.84703
▁further	-8.84896
▁upon	-8.85088
▁needed	-8.85168
▁film	-8.85461
▁months	-8.85517
▁ask	-8.85866
▁five	-8.86142
▁asked	-8.86334
▁buy	-8.864
le	-8.86439
▁plan	-8.86536
▁living	-8.86883
▁issues	-8.87026
▁wrong	-8.87078
▁rest	-8.87195
▁media	-8.87286
ment	-8.8753
▁yourself	-8.87539
▁content	-8.87595
▁America	-8.87757
▁add	-8.87763
▁access	-8.87818
▁9	-8.87882
▁changes	-8.87972
▁online	-8.88215
▁effect	-8.88631
▁personal	-8.88865
▁disease	-8.88937
▁outside	-8.88944
▁rate	-8.89211
▁wanted	-8.89301
w	-8.89367
▁learning	-8.89487
▁/	-8.8953
▁particular	-8.89624
▁role	-8.89728
▁brain	-8.89764
▁seem	-8.89808
ion	-8.89853
▁writing	-8.9004
▁became	-8.90112
rs	-8.90445
▁share	-8.90554
▁countries	-8.90599
▁eyes	-8.90699
▁...	-8.9086
▁University	-8.91095
▁anyone	-8.91149
▁land	-8.91289
▁talk	-8.91296
ian	-8.91304
▁product	-8.91586
5	-8.91669
▁potential	-8.91817
R	-8.91853
▁difficult	-8.91905
▁works	-8.92168
▁video	-8.92215
▁V	-8.92497
▁code	-8.92767
▁period	-8.92931
▁saw	-8.92944
?"	-8.93074
▁physical	-8.93117
▁friends	-8.93199
▁areas	-8.93434
▁pain	-8.93579
▁systems	-8.93631
▁weight	-8.93708
▁design	-8.93766
▁building	-8.93914
▁sound	-8.93995
el	-8.94027
▁Or	-8.94317
▁view	-8.94328
▁lower	-8.94355
▁companies	-8.94555
▁goes	-8.94751
▁source	-8.95232
▁reading	-8.95534
▁Most	-8.95543
▁cases	-8.95613
▁takes	-8.95768
▁size	-8.95869
▁pre	-8.95882
▁points	-8.95897
▁Can	-8.95915
▁inside	-8.96044
▁levels	-8.9622
▁minutes	-8.96254
▁oil	-8.96307
▁function	-8.96392
▁Even	-8.96403
▁woman	-8.96531
▁site	-8.96758
▁position	-8.96784
▁himself	-8.96882
▁created	-8.96926
▁sometimes	-8.97041
▁field	-8.97206
▁evidence	-8.97304
▁action	-8.97504
▁products	-8.97584
▁strong	-8.9799
▁quality	-8.98165
▁saying	-8.98298
▁term	-8.9842
▁treatment	-8.98441
▁model	-8.98622
▁thinking	-8.98625
▁below	-8.98692
V	-8.98884
▁coming	-8.9895
▁page	-8.98987
▁deal	-8.99156
▁interest	-8.99341
▁From	-8.99353
O	-8.99407
▁front	-8.99463
▁near	-8.99578
▁allow	-8.99598
▁30	-8.99728
▁16	-8.99992
▁leave	-9.00123
▁co	-9.00146
▁ability	-9.00277
▁remember	-9.00426
▁World	-9.00476
▁members	-9.0086
▁bring	-9.00866
▁range	-9.00953
J	-9.00988
▁X	-9.01026
▁difference	-9.01098
ia	-9.0144
▁effects	-9.01446
▁knowledge	-9.01547
▁paper	-9.01558
▁English	-9.0208
▁5.	-9.02088
▁computer	-9.0216
▁terms	-9.02194
▁lost	-9.02317
▁account	-9.02383
▁wasn	-9.02631
▁kids	-9.02733
▁write	-9.02782
▁check	-9.02917
▁hope	-9.02963
▁price	-9.02975
▁skin	-9.03107
▁nature	-9.03134
less	-9.03313
▁Well	-9.03396
▁17	-9.03423
▁situation	-9.03592
▁lives	-9.03631
▁moment	-9.03693
▁entire	-9.03873
▁character	-9.03912
▁types	-9.03947
▁$	-9.04007
▁Dr	-9.04036
▁happen	-9.04046
L	-9.0414
▁original	-9.0418
▁cells	-9.04261
at	-9.04402
ar	-9.04441
▁step	-9.04661
▁ground	-9.04853
▁build	-9.04887
▁environment	-9.05007
no	-9.05015
▁began	-9.05021
▁Just	-9.05163
>	-9.05379
▁Of	-9.05468
▁eat	-9.05624
▁c	-9.05679
▁11	-9.05774
▁party	-9.06195
▁services	-9.06304
na	-9.06346
▁Many	-9.06478
ton	-9.06622
te	-9.06688
6	-9.06838
▁shows	-9.06856
▁impact	-9.07058
▁population	-9.07306
▁movie	-9.07529
▁modern	-9.07572
▁economic	-9.07689
▁considered	-9.07792
▁conditions	-9.07797
▁science	-9.07825
▁image	-9.07944
▁running	-9.08024
▁0	-9.08029
▁series	-9.08082
▁focus	-9.08123
▁necessary	-9.08134
▁Let	-9.08246
▁War	-9.08253
▁heard	-9.08301
▁medical	-9.0843
▁practice	-9.08451
▁production	-9.08965
7	-9.09091
▁return	-9.09106
▁picture	-9.09172
ie	-9.09182
▁hear	-9.09358
▁quickly	-9.09391
▁parents	-9.09469
▁force	-9.0956
▁education	-9.09763
▁required	-9.09836
▁approach	-9.09857
▁sleep	-9.09859
▁completely	-9.09997
▁pressure	-9.10021
▁society	-9.10021
▁consider	-9.101
▁material	-9.10212
▁Also	-9.10214
▁follow	-9.10231
▁interesting	-9.10315
▁red	-9.10358
▁May	-9.10436
▁tax	-9.10694
▁continue	-9.10775
▁species	-9.10778
▁soon	-9.10832
▁fire	-9.10976
▁percent	-9.11052
▁security	-9.11072
▁growth	-9.11087
▁industry	-9.11233
ra	-9.11264
▁file	-9.11353
▁attention	-9.11362
▁special	-9.11711
▁significant	-9.11986
de	-9.12296
▁Because	-9.12302
▁+	-9.12333
▁easily	-9.12501
▁felt	-9.12524
▁De	-9.12957
▁phone	-9.12989
▁groups	-9.13161
▁states	-9.13167
▁fun	-9.13231
▁popular	-9.13461
▁loss	-9.13511
ry	-9.13555
▁addition	-9.13557
▁art	-9.13624
▁cut	-9.13844
▁offer	-9.141
▁understanding	-9.14117
▁method	-9.14402
▁hands	-9.1443
▁written	-9.14752
▁stuff	-9.15143
▁sort	-9.1517
▁report	-9.15174
▁recent	-9.15248
▁towards	-9.1539
▁friend	-9.15488
▁complete	-9.15625
▁average	-9.15643
▁Our	-9.15651
▁York	-9.15668
▁gets	-9.15785
▁al	-9.16333
▁knew	-9.1656
▁performance	-9.16678
▁response	-9.16782
Y	-9.16869
▁National	-9.16878
▁hold	-9.16911
▁culture	-9.16935
▁maybe	-9.17106
▁Be	-9.17134
▁stay	-9.17148
▁Q	-9.17169
▁China	-9.17414
▁relationship	-9.17451
▁exactly	-9.17536
▁happened	-9.17543
▁talking	-9.1757
▁search	-9.1757
▁text	-9.1764
▁First	-9.1769
▁involved	-9.17923
▁couple	-9.17945
▁related	-9.18012
▁according	-9.1809
▁surface	-9.18337
▁b	-9.18595
▁Don	-9.18639
co	-9.18702
▁version	-9.18704
▁normal	-9.18839
▁mother	-9.18941
ling	-9.18954
▁anti	-9.19114
▁user	-9.19159
▁effective	-9.19191
8	-9.19203
▁games	-9.19246
▁century	-9.19256
▁14	-9.1928
▁total	-9.19437
▁Mr	-9.19471
▁d	-9.19744
▁training	-9.20113
▁act	-9.20185
▁More	-9.20276
▁choose	-9.20276
▁website	-9.20357
▁parts	-9.20391
▁feeling	-9.20555
▁break	-9.20728
▁third	-9.208
▁looked	-9.20962
▁built	-9.2098
▁military	-9.21019
|	-9.21057
▁avoid	-9.21086
ary	-9.2123
▁benefits	-9.21401
▁cancer	-9.21463
▁Google	-9.21591
▁late	-9.21692
▁multiple	-9.21822
age	-9.22046
▁forward	-9.2221
▁events	-9.22241
▁myself	-9.22289
X	-9.22324
▁month	-9.22403
ch	-9.22421
▁eye	-9.22524
▁fall	-9.22543
▁hit	-9.2268
▁father	-9.22868
▁software	-9.22968
▁decision	-9.22978
▁news	-9.23292
▁South	-9.23404
▁sub	-9.23429
am	-9.235
▁resources	-9.23624
▁positive	-9.23816
ies	-9.23901
one	-9.23909
▁People	-9.23969
▁Yes	-9.23999
".	-9.24056
ized	-9.24133
▁activity	-9.24197
▁subject	-9.24241
▁hair	-9.24436
▁speed	-9.24575
0	-9.24689
▁worth	-9.25035
9	-9.25066
▁cell	-9.25299
son	-9.25316
▁skills	-9.2545
▁chance	-9.25494
il	-9.25557
▁turned	-9.25751
▁reduce	-9.25761
▁event	-9.25842
▁heat	-9.25986
▁choice	-9.2604
▁improve	-9.26332
▁<	-9.2645
▁color	-9.26521
▁North	-9.26558
▁national	-9.26611
▁network	-9.26669
▁tried	-9.26759
▁standard	-9.2676
▁comment	-9.26844
▁basic	-9.26866
ta	-9.269
▁President	-9.26907
▁credit	-9.26921
▁Al	-9.27031
▁policy	-9.27039
▁generally	-9.27104
▁table	-9.27167
▁ensure	-9.27461
▁gave	-9.27508
▁books	-9.27688
▁movement	-9.27691
um	-9.27704
ul	-9.27763
▁13	-9.27861
▁prevent	-9.27872
▁financial	-9.27961
▁Since	-9.27962
▁police	-9.27965
▁healthy	-9.28061
est	-9.28106
▁management	-9.2818
▁legal	-9.28203
▁patients	-9.28221
▁Although	-9.28227
▁held	-9.28231
▁door	-9.28339
▁#	-9.28416
▁rights	-9.28464
▁produce	-9.28472
▁alone	-9.28587
ne	-9.28593
▁lack	-9.28621
▁damage	-9.2867
▁individuals	-9.28807
▁aren	-9.28841
▁6.	-9.28841
un	-9.28901
ty	-9.29055
▁watch	-9.29497
It	-9.29599
▁deep	-9.29728
ate	-9.29788
▁Once	-9.29807
▁global	-9.30163
ization	-9.30214
ma	-9.30273
▁develop	-9.30291
▁added	-9.30318
▁ideas	-9.30385
j	-9.30418
▁looks	-9.30499
▁St	-9.30505
▁solution	-9.30555
be	-9.30591
▁throughout	-9.30851
▁final	-9.3089
▁plant	-9.30897
▁fast	-9.30897
▁studies	-9.31249
▁analysis	-9.31383
▁huge	-9.31632
▁dead	-9.31633
▁allows	-9.31634
▁weeks	-9.31644
▁developed	-9.31706
▁complex	-9.3176
▁numbers	-9.3183
▁grow	-9.31898
▁directly	-9.3195
ine	-9.31976
▁six	-9.31998
▁100	-9.32173
▁safe	-9.32206
▁structure	-9.32391
based	-9.32409
*	-9.32585
▁designed	-9.32625
▁worked	-9.32997
▁record	-9.33057
▁cold	-9.33232
id	-9.33249
▁application	-9.3325
▁increased	-9.33278
▁Are	-9.33313
▁playing	-9.33499
▁cover	-9.3351
▁contact	-9.33555
▁office	-9.33576
▁Go	-9.33596
▁voice	-9.33621
ur	-9.33635
▁State	-9.33635
▁animals	-9.33664
▁gas	-9.337
ally	-9.33754
time	-9.33776
▁associated	-9.33853
▁reasons	-9.33929
▁poor	-9.3393
▁piece	-9.33959
▁meet	-9.33983
▁middle	-9.33984
▁photo	-9.34002
▁m	-9.34078
▁sex	-9.34121
▁happens	-9.34174
▁Earth	-9.34187
▁decided	-9.34424
▁wouldn	-9.34537
▁giving	-9.34568
ive	-9.34592
▁fine	-9.34673
▁British	-9.34734
▁save	-9.34817
--	-9.34836
▁require	-9.34894
▁attack	-9.34898
▁feet	-9.35034
▁unique	-9.35109
▁student	-9.35136
▁although	-9.3515
▁drive	-9.35168
out	-9.35187
▁guy	-9.35313
▁recently	-9.35403
ant	-9.35563
▁Co	-9.35634
▁gives	-9.35679
▁property	-9.35781
▁particularly	-9.35969
▁purpose	-9.36159
▁caused	-9.36175
We	-9.36181
▁truth	-9.3621
▁meaning	-9.36332
▁fight	-9.36474
▁rules	-9.3652
▁50	-9.36569
▁store	-9.3657
▁stand	-9.36594
▁La	-9.36629
▁sea	-9.36688
▁son	-9.36743
▁private	-9.3683
▁moving	-9.37017
▁goal	-9.37048
▁morning	-9.37137
▁brought	-9.37309
▁x	-9.37387
▁beginning	-9.374
+	-9.37485
me	-9.37609
▁serious	-9.37641
▁perhaps	-9.37651
▁court	-9.37706
▁address	-9.37899
▁shown	-9.38083
▁costs	-9.38107
▁plants	-9.38108
▁allowed	-9.38156
▁spend	-9.38189
of	-9.38428
▁figure	-9.38457
▁provides	-9.38544
▁trade	-9.38578
▁features	-9.38646
▁led	-9.38704
like	-9.3881
▁web	-9.38887
▁greater	-9.38946
▁theory	-9.39022
▁reality	-9.3914
▁characters	-9.39147
=	-9.39268
▁thus	-9.39327
▁users	-9.39408
▁dog	-9.3946
▁therefore	-9.39532
ley	-9.39582
▁hot	-9.39583
▁date	-9.39651
▁easier	-9.39757
▁fear	-9.39806
▁happy	-9.39861
by	-9.39903
▁Man	-9.40004
▁whose	-9.40084
▁success	-9.40136
line	-9.40229
▁perfect	-9.40258
▁activities	-9.4026
▁couldn	-9.40289
▁green	-9.40438
▁helps	-9.40609
://	-9.40652
ting	-9.40661
▁changed	-9.40795
▁message	-9.40887
▁:	-9.4095
▁Europe	-9.4107
▁comments	-9.41071
▁economy	-9.41213
▁review	-9.41229
▁factors	-9.41253
[	-9.41256
▁beyond	-9.41308
▁season	-9.41663
▁stories	-9.41704
▁reach	-9.41781
▁Like	-9.418
▁begin	-9.41811
▁symptoms	-9.41873
ad	-9.41915
▁extra	-9.42098
▁certainly	-9.42201
▁India	-9.42265
?”	-9.42278
▁actual	-9.42307
▁sign	-9.42425
▁object	-9.42444
ish	-9.42571
▁f	-9.42579
▁town	-9.42692
▁finally	-9.42709
▁memory	-9.42739
▁option	-9.4278
▁g	-9.42796
▁19	-9.42952
▁behavior	-9.43001
▁whatever	-9.43024
▁nice	-9.43087
land	-9.43101
▁machine	-9.4328
▁card	-9.43366
▁sent	-9.43526
year	-9.43529
▁blog	-9.43598
▁device	-9.43663
▁provided	-9.43711
▁becomes	-9.43713
▁patient	-9.43768
▁players	-9.43837
▁Another	-9.43929
▁Who	-9.44036
he	-9.44043
▁region	-9.44163
▁useful	-9.44174
▁v	-9.4419
U	-9.44337
▁agree	-9.44449
▁limited	-9.44507
▁ready	-9.44576
▁protect	-9.44579
▁et	-9.44632
▁larger	-9.44781
▁climate	-9.44798
▁lines	-9.4486
▁explain	-9.4491
do	-9.45068
▁condition	-9.45129
▁dark	-9.45279
▁pro	-9.45285
▁email	-9.45399
▁traditional	-9.45406
men	-9.45508
▁previous	-9.45523
ol	-9.45776
▁powerful	-9.4593
▁expect	-9.45931
▁published	-9.45967
▁correct	-9.45993
for	-9.46015
ous	-9.46028
▁@	-9.46046
▁uses	-9.46313
ce	-9.46318
▁highly	-9.46351
▁growing	-9.46487
▁negative	-9.4652
▁Her	-9.46558
▁temperature	-9.46626
▁wrote	-9.46634
▁places	-9.46701
▁via	-9.46787
▁style	-9.46854
la	-9.46981
You	-9.47017
▁options	-9.47268
▁base	-9.47306
▁creating	-9.47308
▁Me	-9.47313
▁income	-9.47367
▁benefit	-9.47375
▁drug	-9.47398
▁21	-9.47511
ating	-9.4792
$	-9.47952
et	-9.47956
▁girl	-9.48158
▁pass	-9.48166
▁25	-9.48222
In	-9.48431
▁daily	-9.48444
▁ones	-9.48554
▁stage	-9.48554
▁According	-9.4859
▁sun	-9.48632
▁Y	-9.48738
▁tools	-9.48781
▁Jesus	-9.48878
▁travel	-9.4903
▁author	-9.49147
▁gone	-9.4916
▁Obama	-9.49165
old	-9.4928
▁concept	-9.49581
▁baby	-9.4966
▁opportunity	-9.49739
▁nearly	-9.49767
!"	-9.49855
▁international	-9.49904
▁wants	-9.4994
▁mass	-9.50023
▁tree	-9.5013
▁influence	-9.50194
▁currently	-9.50378
▁values	-9.50411
||	-9.50412
▁pick	-9.50457
▁Black	-9.50529
▁lose	-9.5074
▁additional	-9.50755
▁regular	-9.50778
▁race	-9.50828
▁French	-9.5097
▁link	-9.51054
▁road	-9.51062
▁please	-9.51098
▁clean	-9.51149
▁compared	-9.51199
▁rule	-9.5133
▁member	-9.51371
▁stress	-9.51404
▁born	-9.51448
▁former	-9.51522
▁wide	-9.51546
▁wife	-9.51551
▁starting	-9.51609
▁fish	-9.51636
▁n	-9.51663
▁paid	-9.51933
▁appear	-9.52184
▁Chinese	-9.52228
ted	-9.52441
▁blue	-9.52624
▁walk	-9.52695
▁diet	-9.52804
▁7.	-9.52958
▁methods	-9.5296
ir	-9.53063
▁Other	-9.53096
▁causes	-9.53139
▁House	-9.53308
▁effort	-9.5335
▁claim	-9.53385
▁TV	-9.53396
▁screen	-9.53421
go	-9.53442
▁Z	-9.53477
▁essential	-9.53518
▁note	-9.53657
▁box	-9.53696
▁track	-9.53702
▁win	-9.538
▁earth	-9.53922
▁leading	-9.53926
▁song	-9.53976
▁eventually	-9.54009
▁flow	-9.54033
▁spent	-9.54071
ter	-9.54095
▁programs	-9.54129
▁speak	-9.54268
▁expected	-9.54268
▁earlier	-9.54377
▁direct	-9.5443
▁fit	-9.54458
▁hour	-9.5448
▁cool	-9.54646
▁player	-9.54766
▁successful	-9.54774
▁fat	-9.54847
▁immediately	-9.54862
▁European	-9.54885
▁visit	-9.54886
▁includes	-9.54957
▁items	-9.5511
▁played	-9.55165
▁app	-9.55173
▁spread	-9.55189
▁religious	-9.55221
▁San	-9.55224
▁center	-9.55331
ful	-9.55337
▁vote	-9.55375
▁animal	-9.55474
▁safety	-9.55533
▁variety	-9.55544
▁determine	-9.55618
▁tend	-9.55643
▁president	-9.5566
▁customers	-9.55765
▁exercise	-9.55814
▁doctor	-9.55844
▁primary	-9.55936
▁kill	-9.56148
▁guess	-9.56165
ro	-9.56181
▁wait	-9.56186
▁older	-9.5625
▁mouth	-9.56321
▁shot	-9.56404
▁received	-9.56447
▁eating	-9.56489
▁toward	-9.56622
▁insurance	-9.56773
▁customer	-9.56864
▁mental	-9.56864
▁shall	-9.56905
▁clearly	-9.57034
▁enjoy	-9.57051
▁materials	-9.57051
▁professional	-9.57071
▁instance	-9.57193
ler	-9.5724
▁elements	-9.57268
▁March	-9.57567
da	-9.57567
▁nation	-9.57683
▁send	-9.57793
▁included	-9.57812
▁June	-9.57838
▁die	-9.57857
▁section	-9.57919
▁ten	-9.57964
▁majority	-9.58068
▁balance	-9.58121
▁learned	-9.58187
▁task	-9.58338
▁40	-9.58393
▁board	-9.58436
▁requires	-9.58487
if	-9.5855
▁died	-9.58562
▁target	-9.58606
▁fully	-9.58616
▁moved	-9.58885
▁Mar	-9.58955
▁details	-9.59
▁See	-9.59087
os	-9.59093
▁Trump	-9.59152
▁West	-9.59227
day	-9.59233
▁killed	-9.59285
▁location	-9.59312
▁Great	-9.59373
▁college	-9.59454
▁path	-9.59469
▁forms	-9.59472
▁King	-9.59497
▁sounds	-9.59603
nd	-9.59609
▁City	-9.59625
▁workers	-9.5967
▁kept	-9.59743
▁followed	-9.59899
▁receive	-9.59985
li	-9.60065
10	-9.60106
▁digital	-9.60121
ists	-9.60166
▁produced	-9.60192
▁UK	-9.60211
▁interested	-9.60331
term	-9.60386
▁Day	-9.60406
not	-9.60502
▁basis	-9.60684
▁Facebook	-9.6073
▁laws	-9.60769
▁During	-9.60827
▁April	-9.61299
▁sugar	-9.61417
▁bar	-9.61441
▁wall	-9.6147
▁release	-9.61517
▁statement	-9.61526
▁Un	-9.61529
▁slow	-9.61589
▁Good	-9.61638
▁overall	-9.61709
▁federal	-9.61789
▁active	-9.61834
▁critical	-9.61941
▁summer	-9.62004
▁July	-9.62105
▁direction	-9.62118
▁mostly	-9.62121
▁tool	-9.62299
▁Americans	-9.62309
per	-9.62423
▁humans	-9.62436
▁campaign	-9.62503
▁forces	-9.62594
▁haven	-9.62617
▁female	-9.62631
▁exist	-9.62672
ize	-9.62776
▁organization	-9.62834
▁respect	-9.63146
▁sources	-9.6315
▁beautiful	-9.63248
▁meant	-9.63288
▁named	-9.6329
▁scene	-9.63338
Z	-9.63779
▁Health	-9.63799
▁mentioned	-9.63859
▁responsible	-9.6398
▁super	-9.64005
▁bottom	-9.64031
ner	-9.6408
▁charge	-9.64325
▁t	-9.64375
▁smaller	-9.64375
▁sell	-9.64411
▁24	-9.64484
▁Please	-9.64514
▁seemed	-9.64651
▁David	-9.64703
ah	-9.64953
▁appropriate	-9.64956
▁connection	-9.65047
ge	-9.65322
▁degree	-9.65452
▁onto	-9.65484
▁affect	-9.65509
▁actions	-9.65637
▁Act	-9.65738
▁typically	-9.65757
im	-9.65875
▁floor	-9.65919
▁remove	-9.65938
▁steps	-9.6601
▁capital	-9.66052
▁California	-9.66261
▁birth	-9.66272
▁extremely	-9.66321
▁rise	-9.6635
\	-9.66427
▁passed	-9.66436
▁August	-9.66446
▁Their	-9.6669
▁favorite	-9.66724
▁ex	-9.66735
▁seeing	-9.66867
▁stock	-9.66919
▁remain	-9.66991
▁reported	-9.66992
▁ice	-9.66994
ent	-9.67095
▁supply	-9.671
▁Paul	-9.67134
▁meeting	-9.67156
▁waste	-9.67243
▁devices	-9.67322
▁rates	-9.6735
▁argument	-9.67516
▁described	-9.67567
▁trust	-9.67597
▁la	-9.67646
▁central	-9.67712
mo	-9.67724
▁rich	-9.6787
▁scale	-9.67878
▁September	-9.67905
▁>	-9.67922
▁wish	-9.67927
▁January	-9.67943
end	-9.68076
▁bank	-9.68142
▁church	-9.68285
▁truly	-9.6832
▁separate	-9.68321
▁achieve	-9.68469
▁schools	-9.68619
▁factor	-9.68735
▁Make	-9.68778
▁families	-9.68873
izing	-9.68919
▁wind	-9.68968
▁Where	-9.69064
▁White	-9.6908
▁identify	-9.69142
off	-9.69233
▁band	-9.69329
);	-9.6939
▁demand	-9.69434
▁attempt	-9.69487
▁strength	-9.69513
which	-9.69545
▁2012	-9.69604
▁context	-9.6962
▁communication	-9.69781
▁occur	-9.69827
▁developing	-9.69849
▁images	-9.69851
▁apply	-9.69891
▁Each	-9.7001
ga	-9.70094
▁quick	-9.70132
▁continued	-9.70152
▁thoughts	-9.70181
▁December	-9.70237
▁aware	-9.70369
▁remains	-9.7042
▁heavy	-9.70519
▁shape	-9.70542
▁internet	-9.70581
▁yes	-9.70664
ca	-9.70689
▁dis	-9.70721
▁Today	-9.70722
▁maintain	-9.70768
ka	-9.70844
▁testing	-9.70864
▁worse	-9.70925
▁title	-9.71032
▁setting	-9.71041
▁released	-9.71139
▁distance	-9.71175
▁jobs	-9.71224
▁straight	-9.71229
▁gain	-9.71334
▁opinion	-9.71361
▁Pro	-9.71405
▁male	-9.71413
▁2011	-9.71471
▁scientific	-9.71647
▁dry	-9.71766
▁billion	-9.7184
▁rock	-9.71957
▁letter	-9.71995
▁Maybe	-9.7219
led	-9.72214
▁cross	-9.72307
▁appears	-9.72478
▁2010	-9.72567
▁en	-9.72604
▁German	-9.72666
▁k	-9.72711
▁staff	-9.72793
▁Over	-9.72846
▁Washington	-9.72905
▁advantage	-9.72962
▁definitely	-9.72986
▁Instead	-9.72991
▁fuel	-9.73054
▁guys	-9.73094
▁notice	-9.73147
▁Research	-9.73157
▁bed	-9.73307
▁protein	-9.73314
▁met	-9.73488
▁foreign	-9.73492
▁mid	-9.73511
▁battle	-9.73536
▁challenge	-9.73607
ex	-9.73627
▁ancient	-9.73743
but	-9.73764
▁protection	-9.73889
▁o	-9.73911
▁nor	-9.73912
▁strategy	-9.73925
▁round	-9.74195
▁researchers	-9.74246
▁nuclear	-9.7429
&	-9.74308
▁names	-9.74433
▁increasing	-9.74471
▁contain	-9.74508
▁contains	-9.74553
▁despite	-9.7469
di	-9.74706
pe	-9.74818
▁Oh	-9.74844
▁audience	-9.74848
▁accept	-9.74881
▁foods	-9.74948
▁freedom	-9.74992
▁Take	-9.75082
▁Use	-9.75171
▁watching	-9.75215
▁8.	-9.75225
▁October	-9.7542
▁established	-9.75468
op	-9.75583
▁status	-9.75624
▁ball	-9.75635
▁peace	-9.75881
▁realize	-9.75884
▁equipment	-9.75896
▁East	-9.76045
▁presence	-9.7615
▁speech	-9.76197
▁Have	-9.76228
▁carry	-9.76589
▁scientists	-9.76641
▁Get	-9.76653
▁decide	-9.76693
▁con	-9.76695
▁November	-9.76725
my	-9.76792
▁enter	-9.76799
ated	-9.76964
▁providing	-9.77002
▁length	-9.77003
▁Israel	-9.77066
▁measure	-9.77092
▁knows	-9.77134
20	-9.7721
▁Thanks	-9.77222
▁wonder	-9.77235
▁sites	-9.77251
▁unit	-9.77257
▁changing	-9.77267
▁weather	-9.77286
▁career	-9.77291
▁core	-9.77313
▁22	-9.77432
▁proper	-9.77459
▁window	-9.77496
▁star	-9.77654
▁sit	-9.77741
é	-9.77752
▁leaves	-9.77756
▁Lord	-9.77777
▁James	-9.77847
den	-9.77928
▁thousands	-9.77979
▁finding	-9.78047
▁2013	-9.78068
ri	-9.78079
▁London	-9.78149
▁Court	-9.78249
se	-9.78272
ier	-9.78327
▁multi	-9.78331
):	-9.78392
▁suggest	-9.78428
we	-9.78488
▁doubt	-9.78489
▁Leave	-9.78558
▁religion	-9.78569
▁leaving	-9.786
▁drop	-9.78602
▁drink	-9.78624
▁sexual	-9.78699
▁command	-9.787
▁press	-9.78706
▁marketing	-9.78778
▁Post	-9.79036
▁objects	-9.79057
▁generation	-9.79257
ance	-9.79375
em	-9.79379
▁gold	-9.79428
▁unless	-9.79482
▁sales	-9.79514
▁dangerous	-9.79637
▁soil	-9.79687
▁gun	-9.79846
▁cat	-9.79852
▁offers	-9.79903
▁existing	-9.79928
▁drugs	-9.7997
▁About	-9.7998
▁planet	-9.80011
▁Those	-9.80028
▁warm	-9.80067
▁vision	-9.8007
▁supposed	-9.8007
▁employees	-9.80071
all	-9.80115
▁cultural	-9.80201
▁showed	-9.80205
ten	-9.80278
▁trees	-9.80316
▁topic	-9.80378
▁applications	-9.80409
▁becoming	-9.80471
▁feature	-9.80588
▁asking	-9.80594
▁Science	-9.8065
▁otherwise	-9.8074
▁except	-9.80768
▁goals	-9.8078
▁metal	-9.8085
▁serve	-9.80896
What	-9.80916
▁keeping	-9.8092
sh	-9.80956
so	-9.81053
▁Time	-9.81295
▁Christian	-9.81351
ut	-9.81434
her	-9.81465
▁advice	-9.81468
▁Two	-9.81548
▁radio	-9.81567
▁Mo	-9.81594
▁forced	-9.81616
▁obvious	-9.81661
▁Canada	-9.81712
▁environmental	-9.81726
▁match	-9.81746
",	-9.81964
▁discovered	-9.81973
▁Africa	-9.82043
▁placed	-9.82083
▁husband	-9.82107
▁fair	-9.82118
▁miles	-9.8214
▁expensive	-9.82153
▁equal	-9.82225
▁fresh	-9.82234
▁helped	-9.8233
▁Does	-9.82386
▁leader	-9.8244
▁expression	-9.82449
▁II	-9.82479
▁ship	-9.82504
▁debt	-9.82543
▁plans	-9.82601
▁boy	-9.82627
▁discussion	-9.82645
▁60	-9.82651
▁server	-9.8268
▁processes	-9.82708
19	-9.82767
▁efforts	-9.82782
▁driving	-9.8281
▁wear	-9.82869
ha	-9.82969
▁slightly	-9.82986
▁Center	-9.83008
▁carbon	-9.83044
▁leaders	-9.83066
▁Con	-9.83161
▁{	-9.83208
▁background	-9.83226
▁El	-9.83235
▁located	-9.83248
ke	-9.83277
▁African	-9.83444
▁23	-9.83829
▁George	-9.83999
▁decisions	-9.84033
▁Which	-9.84084
▁England	-9.84155
▁teacher	-9.84217
▁investment	-9.84382
▁engine	-9.84407
▁hearing	-9.84463
▁2008	-9.8449
▁Thus	-9.84509
ise	-9.84509
▁models	-9.84513
▁Red	-9.84518
▁vs	-9.84564
▁guide	-9.84578
”.	-9.84635
▁imagine	-9.84718
▁largest	-9.84764
▁tells	-9.84892
▁Twitter	-9.8494
▁faster	-9.84948
▁progress	-9.84959
▁Will	-9.8496
▁waiting	-9.84961
▁2009	-9.84964
▁camera	-9.85019
▁block	-9.85059
▁foot	-9.85061
▁projects	-9.85171
▁famous	-9.8527
▁relatively	-9.85325
▁touch	-9.85331
tic	-9.8542
▁lived	-9.85492
▁conversation	-9.85506
▁Apple	-9.85511
ba	-9.85587
min	-9.85625
▁Out	-9.85741
▁alternative	-9.85848
▁Both	-9.85902
▁double	-9.85995
lin	-9.86009
▁High	-9.86018
▁importance	-9.86098
▁reference	-9.86214
▁examples	-9.8641
▁failure	-9.86459
▁seven	-9.86616
▁commercial	-9.86675
▁Every	-9.86756
rd	-9.86783
▁teeth	-9.86809
▁Germany	-9.86995
▁brand	-9.87007
▁perform	-9.87023
▁initial	-9.87037
▁teachers	-9.87048
▁prices	-9.87069
▁School	-9.87084
▁properly	-9.87096
▁differences	-9.87108
ster	-9.87114
▁Japan	-9.87193
▁Internet	-9.87581
Q	-9.87699
▁Hi	-9.87749
▁France	-9.87814
▁plastic	-9.87839
▁whom	-9.87874
▁possibly	-9.87875
▁handle	-9.88012
▁Before	-9.88014
▁calls	-9.88178
▁meat	-9.88194
▁planning	-9.8829
▁Russia	-9.88327
ak	-9.88345
▁manage	-9.88365
▁properties	-9.88423
▁violence	-9.88537
▁purchase	-9.88572
▁February	-9.88685
▁manner	-9.88702
▁Le	-9.88708
▁Department	-9.88766
▁pattern	-9.88908
▁fruit	-9.88949
▁street	-9.88996
▁closed	-9.88998
▁teaching	-9.89042
▁files	-9.89181
▁coffee	-9.89191
▁girls	-9.89218
▁General	-9.89347
ite	-9.89352
▁entirely	-9.89416
▁covered	-9.89463
This	-9.89463
▁winter	-9.89573
way	-9.89657
▁Friday	-9.89787
▁chemical	-9.89821
▁claims	-9.89927
▁glass	-9.89929
▁applied	-9.89968
▁communities	-9.89968
▁believed	-9.89974
▁solid	-9.89989
▁milk	-9.90055
▁Na	-9.90191
▁DOC	-9.90298
▁techniques	-9.90355
%	-9.90357
ac	-9.90407
▁functions	-9.90485
▁pieces	-9.90492
▁removed	-9.90542
▁cycle	-9.90614
ial	-9.90686
▁impossible	-9.90751
▁brother	-9.90757
▁cities	-9.90763
▁muscle	-9.90778
▁Ar	-9.90784
▁Therefore	-9.90856
▁cash	-9.90881
▁collection	-9.9089
▁showing	-9.90899
▁lots	-9.90914
ence	-9.90923
▁basically	-9.91112
io	-9.91144
▁cars	-9.91222
▁ahead	-9.91283
▁2014	-9.91321
▁journey	-9.91342
▁conflict	-9.91357
▁Bo	-9.91373
▁bill	-9.91382
▁di	-9.91441
▁reached	-9.91446
ni	-9.91552
▁reports	-9.91565
▁reaction	-9.91655
▁affected	-9.91728
▁limit	-9.91771
▁emotional	-9.91792
▁Sunday	-9.91844
ng	-9.9189
▁Christ	-9.91969
▁Life	-9.92007
▁crime	-9.921
▁dream	-9.92126
▁Monday	-9.92239
▁defined	-9.92284
▁cards	-9.92321
▁definition	-9.92324
▁pages	-9.92379
▁push	-9.92397
▁Ha	-9.92406
▁Sun	-9.92473
▁putting	-9.92542
▁Law	-9.92565
▁counter	-9.92572
▁treat	-9.92615
▁join	-9.92629
▁classes	-9.92634
▁tests	-9.92663
▁budget	-9.92676
▁novel	-9.92908
▁happening	-9.92909
▁election	-9.92971
▁Di	-9.93056
▁micro	-9.93112
▁spot	-9.93169
▁bodies	-9.93259
▁dollars	-9.93299
▁Thank	-9.93373
▁2007	-9.93381
▁click	-9.93416
▁shared	-9.93445
▁Japanese	-9.93466
▁depending	-9.93491
▁official	-9.93517
▁secret	-9.93584
▁forget	-9.93585
over	-9.9361
▁capacity	-9.93613
▁amazing	-9.93647
-19	-9.93667
▁telling	-9.93677
▁experienced	-9.93685
▁citizens	-9.93694
▁latest	-9.93714
▁relationships	-9.93866
▁sitting	-9.93921
▁Congress	-9.93921
▁standing	-9.94013
▁Michael	-9.9402
▁Yet	-9.94094
▁indeed	-9.94205
▁output	-9.94223
ities	-9.94281
▁construction	-9.94309
▁relevant	-9.94315
▁marriage	-9.94378
▁parties	-9.94444
ber	-9.94458
▁News	-9.94465
▁connected	-9.94471
▁raised	-9.94473
▁Sometimes	-9.94475
ning	-9.94533
}	-9.94669
les	-9.94676
▁opportunities	-9.94709
▁map	-9.94732
▁trip	-9.94739
▁holding	-9.94764
▁leads	-9.94784
▁independent	-9.94806
ti	-9.94907
▁Church	-9.94922
ology	-9.94964
▁turns	-9.9499
▁biggest	-9.95016
▁evil	-9.95039
▁sold	-9.95072
▁faith	-9.95093
▁acid	-9.95105
▁describe	-9.95116
▁experiences	-9.95148
q	-9.95167
▁reduced	-9.95228
▁http	-9.95321
▁perspective	-9.95352
▁arms	-9.95502
▁records	-9.95529
▁Any	-9.95695
▁feed	-9.95698
▁businesses	-9.95708
▁requirements	-9.95722
▁International	-9.95808
▁w	-9.95831
▁allowing	-9.96046
▁error	-9.96083
▁2018	-9.96193
ana	-9.96324
30	-9.9639
▁starts	-9.9647
▁historical	-9.96507
▁offered	-9.96532
▁creation	-9.96541
▁listen	-9.96568
▁fan	-9.96569
▁l	-9.96601
▁9.	-9.96627
▁standards	-9.9664
▁slowly	-9.9665
▁wild	-9.96721
▁daughter	-9.9679
▁hate	-9.96825
▁Last	-9.96865
▁rare	-9.96902
ung	-9.96946
▁internal	-9.97016
▁Home	-9.97104
▁loved	-9.97144
▁vehicle	-9.97164
▁knowing	-9.97183
▁causing	-9.97215
▁Reply	-9.97283
▁wood	-9.97366
▁Park	-9.97414
▁Read	-9.97421
▁minute	-9.97484
▁adding	-9.97494
15	-9.97509
▁signs	-9.97534
▁constant	-9.97586
▁%	-9.97697
▁copy	-9.97709
▁recommend	-9.97755
▁absolutely	-9.97771
▁y	-9.9791
can	-9.97996
▁motion	-9.98054
▁draw	-9.98168
▁DNA	-9.98237
▁broken	-9.98265
▁count	-9.98285
▁combination	-9.98286
▁helpful	-9.98342
▁challenges	-9.98384
25	-9.98462
▁hospital	-9.98475
▁pull	-9.98506
▁eight	-9.98589
ium	-9.98589
▁trouble	-9.98607
▁Mark	-9.98626
▁History	-9.98644
▁Australia	-9.98745
▁Only	-9.98782
▁Western	-9.98812
▁Part	-9.98847
▁Indian	-9.98848
▁volume	-9.98858
▁thanks	-9.98905
▁h	-9.98952
▁train	-9.99021
▁stopped	-9.99056
▁walking	-9.99207
▁traffic	-9.99216
▁notes	-9.99219
▁mention	-9.99293
▁sweet	-9.9934
▁display	-9.99354
▁taste	-9.99384
▁specifically	-9.99395
▁desire	-9.99407
ya	-9.99442
www	-9.99501
▁Water	-9.99502
ard	-9.9951
▁fighting	-9.99532
▁highest	-9.99553
No	-9.99556
▁dogs	-9.99562
▁defense	-9.99619
▁feels	-9.99619
▁decades	-9.99654
▁labor	-9.99658
▁paying	-9.99735
▁spending	-9.99749
▁inter	-9.9975
▁opening	-9.99773
▁Pre	-9.99817
▁policies	-9.99848
▁attacks	-9.99975
▁trial	-10.0001
▁filled	-10.0003
der	-10.0004
▁mine	-10.001
▁2015	-10.0012
▁managed	-10.0019
▁regarding	-10.0021
▁catch	-10.0022
▁concerned	-10.0035
▁document	-10.0036
▁severe	-10.0041
▁politics	-10.0041
▁failed	-10.0043
pa	-10.0061
lo	-10.0062
▁platform	-10.0066
▁breath	-10.0067
▁signal	-10.0068
va	-10.0069
▁abuse	-10.0069
▁Star	-10.0069
▁sat	-10.0069
ck	-10.0069
▁speaking	-10.0071
bo	-10.0078
▁measures	-10.0081
▁opened	-10.0083
▁moral	-10.0083
▁seek	-10.0084
▁Jewish	-10.0091
▁weapons	-10.0092
▁answers	-10.0093
▁raise	-10.0094
▁client	-10.0097
▁threat	-10.0099
▁\	-10.0104
▁Am	-10.011
▁familiar	-10.0114
▁edge	-10.0115
net	-10.0115
▁partner	-10.012
▁ran	-10.0133
▁Peter	-10.0148
▁missing	-10.0148
ph	-10.0149
▁Car	-10.0152
▁host	-10.0167
▁solar	-10.0167
▁prove	-10.0174
▁identity	-10.018
▁caught	-10.0181
ee	-10.0183
Re	-10.0189
▁willing	-10.0189
▁herself	-10.0191
▁exchange	-10.0191
▁2016	-10.0195
▁treated	-10.0199
▁anyway	-10.0206
▁excellent	-10.0208
▁Ko	-10.0209
▁mission	-10.0214
▁totally	-10.0226
▁Big	-10.0228
▁mobile	-10.0246
▁Green	-10.0246
▁flat	-10.0253
ron	-10.0256
▁ended	-10.0263
▁se	-10.0274
▁mode	-10.0277
▁Institute	-10.0291
see	-10.0291
ko	-10.0295
▁contrast	-10.0302
If	-10.0302
▁salt	-10.0306
▁alcohol	-10.0314
▁significantly	-10.0315
▁prior	-10.0316
▁ideal	-10.0318
▁concern	-10.0321
con	-10.0328
▁AI	-10.0333
▁helping	-10.0337
▁massive	-10.0338
▁worry	-10.0343
▁exposure	-10.0348
▁Back	-10.035
▁cast	-10.0351
mer	-10.036
▁effectively	-10.0363
▁intelligence	-10.0364
▁extreme	-10.0367
▁civil	-10.038
▁suggests	-10.0381
▁creative	-10.0399
▁Mac	-10.0403
▁distribution	-10.0403
▁debate	-10.0407
ping	-10.0408
▁none	-10.0412
▁adults	-10.0428
▁therapy	-10.0428
▁Using	-10.0436
▁infection	-10.0438
▁crisis	-10.0447
▁soft	-10.045
▁previously	-10.0453
▁10.	-10.0457
▁Russian	-10.0464
▁prefer	-10.0467
▁practices	-10.0475
back	-10.0479
that	-10.0481
▁patterns	-10.0483
▁bigger	-10.0483
▁presented	-10.0492
▁arm	-10.0495
▁wine	-10.0498
▁storage	-10.0504
▁smart	-10.0505
▁diseases	-10.0511
▁organizations	-10.0512
ho	-10.0515
▁layer	-10.0519
▁existence	-10.0542
▁continues	-10.0547
▁Union	-10.0552
▁begins	-10.0555
▁spirit	-10.0556
▁Add	-10.0564
▁prepared	-10.0565
▁universe	-10.0566
org	-10.0568
▁detail	-10.0572
▁operations	-10.0572
▁appearance	-10.0579
▁closer	-10.058
▁Web	-10.0581
▁Tuesday	-10.0589
▁teach	-10.059
au	-10.0592
▁Ben	-10.06
▁returned	-10.0603
▁Did	-10.0607
▁noise	-10.0608
▁Press	-10.0611
▁opposite	-10.0618
ible	-10.0619
▁occurs	-10.0621
▁criminal	-10.0626
▁explained	-10.0629
▁Ka	-10.0633
▁hurt	-10.0645
▁movies	-10.0655
▁28	-10.0665
▁bought	-10.067
▁south	-10.0675
▁interview	-10.0676
▁increases	-10.0686
▁station	-10.0688
▁database	-10.0688
▁frequently	-10.0692
▁king	-10.0693
▁root	-10.0698
▁operation	-10.0702
▁advanced	-10.0703
▁responsibility	-10.0705
▁solutions	-10.0706
▁Finally	-10.0713
ja	-10.0718
▁north	-10.0718
▁commonly	-10.0723
▁aspects	-10.0732
12	-10.0744
16	-10.0746
▁mis	-10.0748
▁components	-10.075
▁bacteria	-10.0762
▁necessarily	-10.0768
▁resistance	-10.077
▁Ho	-10.0772
▁ourselves	-10.0774
▁virus	-10.0785
▁native	-10.0785
▁focused	-10.0787
▁Air	-10.079
our	-10.0792
▁discuss	-10.0795
▁lay	-10.0796
▁Journal	-10.0811
▁adult	-10.0814
▁formed	-10.0817
ger	-10.0819
▁Note	-10.0819
▁seconds	-10.0835
▁genetic	-10.084
▁appeared	-10.0841
ang	-10.085
▁element	-10.0859
▁aid	-10.087
▁kid	-10.0876
▁Wednesday	-10.088
▁Windows	-10.0884
▁Perhaps	-10.0887
▁sick	-10.0891
▁visual	-10.0892
▁authority	-10.0894
▁suddenly	-10.0896
iv	-10.0899
▁numerous	-10.0903
▁River	-10.0903
▁hundred	-10.0903
istic	-10.0908
▁load	-10.0909
▁respond	-10.091
▁fell	-10.092
▁shop	-10.0925
ong	-10.0927
▁contract	-10.0928
▁soul	-10.0929
▁determined	-10.093
▁flight	-10.0931
▁Robert	-10.0934
▁random	-10.0937
▁Bill	-10.0937
▁taxes	-10.0939
▁master	-10.0939
{	-10.0943
▁solve	-10.0944
▁spring	-10.0948
▁carried	-10.095
▁stars	-10.0953
▁depends	-10.0955
ow	-10.0958
▁competition	-10.0968
▁intended	-10.0968
▁pictures	-10.0969
▁assume	-10.0969
▁Free	-10.0976
field	-10.0993
▁27	-10.0994
ey	-10.0995
▁sentence	-10.0999
▁involves	-10.1001
▁Social	-10.1002
▁(19	-10.1006
dy	-10.1008
▁bag	-10.101
▁sample	-10.1014
▁stick	-10.1014
▁square	-10.1022
▁bio	-10.1022
▁2006	-10.1023
▁plenty	-10.1033
▁request	-10.1035
11	-10.1057
▁administration	-10.1063
▁Sam	-10.107
▁feelings	-10.1077
side	-10.1092
▁false	-10.1093
40	-10.1095
▁$1	-10.1097
use	-10.1112
а	-10.1117
▁technical	-10.1123
▁buying	-10.114
you	-10.1141
ble	-10.1141
▁minimum	-10.1141
red	-10.1148
▁Sea	-10.1152
▁identified	-10.1166
▁fields	-10.1167
▁worst	-10.1172
▁Sa	-10.1178
▁typical	-10.118
-1	-10.1189
▁noticed	-10.1193
▁introduced	-10.1198
oc	-10.1199
80	-10.1202
▁r	-10.1205
▁justice	-10.1206
▁sight	-10.121
▁wave	-10.1212
▁killing	-10.1213
po	-10.1214
▁rain	-10.1216
▁cup	-10.1222
▁exact	-10.1231
▁1,	-10.1231
ek	-10.1232
▁score	-10.1233
▁sports	-10.1235
▁situations	-10.1237
▁operating	-10.1245
▁parent	-10.1251
▁mix	-10.1256
▁gender	-10.1267
▁technique	-10.1277
▁resulting	-10.128
free	-10.1281
sa	-10.1283
▁accepted	-10.1284
▁Party	-10.1286
tion	-10.1287
▁served	-10.1288
▁Government	-10.1289
▁tasks	-10.1294
▁apart	-10.1299
▁represent	-10.1307
▁^	-10.1307
▁teams	-10.1312
▁bone	-10.1325
▁comfortable	-10.1326
▁Review	-10.1328
▁throw	-10.133
▁river	-10.1333
▁hundreds	-10.1338
▁Human	-10.1339
▁stated	-10.1343
▁Next	-10.1346
▁concerns	-10.1351
▁belief	-10.1361
▁Thursday	-10.1361
house	-10.1363
▁cheap	-10.1372
▁fix	-10.1379
sen	-10.1383
▁Street	-10.1386
▁Second	-10.1391
▁anxiety	-10.1393
ze	-10.1394
▁pair	-10.1397
▁medicine	-10.1399
▁upper	-10.1403
▁Data	-10.1407
▁sides	-10.1407
▁married	-10.1407
▁obviously	-10.1412
▁electric	-10.1412
▁valuable	-10.1417
▁print	-10.1418
ability	-10.1421
▁sky	-10.1421
!”	-10.1422
▁Up	-10.1429
▁interests	-10.1432
He	-10.1433
▁album	-10.144
▁select	-10.1447
ative	-10.1453
▁owner	-10.1454
▁kinds	-10.1455
well	-10.1456
▁strange	-10.1465
▁external	-10.1469
▁practical	-10.1471
▁2017	-10.1474
▁William	-10.148
▁transfer	-10.1483
▁motor	-10.1489
▁USA	-10.1495
▁fly	-10.1497
▁Right	-10.1498
▁fill	-10.1503
▁description	-10.1504
ot	-10.1504
▁input	-10.1509
▁injury	-10.1512
▁shift	-10.1522
▁Jews	-10.1527
▁calling	-10.1527
14	-10.1528
▁constantly	-10.1528
▁writer	-10.1533
▁agreement	-10.1539
▁somewhere	-10.1541
▁immune	-10.1543
▁garden	-10.1544
▁possibility	-10.1548
▁hell	-10.1549
▁PM	-10.1555
▁essay	-10.1555
▁army	-10.1564
▁)	-10.157
▁twice	-10.1573
▁taught	-10.1574
▁Unfortunately	-10.1575
▁na	-10.1582
▁accurate	-10.1583
ip	-10.1586
▁episode	-10.1594
▁Per	-10.1595
▁Though	-10.1602
▁generate	-10.1608
90	-10.1613
▁fixed	-10.1637
▁relative	-10.1639
50	-10.1651
▁Art	-10.1654
▁performed	-10.1662
▁island	-10.1663
ification	-10.167
▁plus	-10.1671
▁pan	-10.1672
▁circumstances	-10.1674
▁depression	-10.1694
▁consumption	-10.1695
▁chain	-10.1696
▁CO	-10.1697
▁fairly	-10.1701
ised	-10.1709
▁Under	-10.1719
▁greatest	-10.1722
▁math	-10.173
▁views	-10.1732
▁liquid	-10.1734
▁efficient	-10.1735
▁pop	-10.1744
▁Su	-10.1756
▁net	-10.1761
▁observed	-10.1762
▁tips	-10.1765
▁academic	-10.1766
▁Keep	-10.1767
▁director	-10.1769
▁articles	-10.1774
▁80	-10.178
ide	-10.1786
▁realized	-10.1786
▁turning	-10.1786
▁finished	-10.1787
▁26	-10.1793
▁forest	-10.1793
▁Roman	-10.1794
▁seriously	-10.1799
▁Saturday	-10.1817
▁entry	-10.1824
▁loan	-10.183
▁surgery	-10.1838
▁button	-10.184
▁era	-10.1848
18	-10.1855
▁consequences	-10.1861
ring	-10.1862
▁tiny	-10.1869
▁wearing	-10.1869
bar	-10.1871
▁struggle	-10.1872
▁dance	-10.1874
▁Check	-10.1886
▁phase	-10.1888
▁sister	-10.1889
▁explore	-10.1891
▁links	-10.1918
▁Look	-10.1926
▁usual	-10.1926
▁firm	-10.1938
▁choices	-10.1939
▁Best	-10.1943
▁snow	-10.1946
▁Li	-10.1946
▁drinking	-10.1949
gen	-10.195
▁fail	-10.1952
▁Anonymous	-10.1954
▁shouldn	-10.1955
▁replace	-10.196
()	-10.196
ji	-10.1963
▁PC	-10.1964
▁follows	-10.1967
▁unable	-10.1969
▁anywhere	-10.197
▁Bar	-10.1974
▁officials	-10.1974
▁stone	-10.1977
▁understood	-10.1981
▁clothes	-10.1981
▁iron	-10.1982
▁default	-10.1984
▁degrees	-10.1985
mon	-10.1992
uk	-10.1997
▁empty	-10.1999
▁surprise	-10.2001
60	-10.2003
▁millions	-10.2007
▁Despite	-10.2013
о	-10.2013
17	-10.2016
▁songs	-10.2017
▁2000	-10.2024
▁somewhat	-10.2027
▁strategies	-10.2032
▁capable	-10.2034
▁bear	-10.2034
▁Such	-10.2034
▁selling	-10.2039
▁runs	-10.2048
▁fundamental	-10.2051
!!	-10.2051
▁technologies	-10.2051
▁facts	-10.2052
▁posts	-10.2053
▁promote	-10.2055
▁experts	-10.2058
▁television	-10.2058
▁library	-10.206
▁plot	-10.2063
▁Power	-10.2065
set	-10.2073
▁supported	-10.2074
war	-10.2076
▁2004	-10.2076
▁2020	-10.2085
▁leadership	-10.2085
▁units	-10.2093
▁lie	-10.2099
▁largely	-10.21
▁tissue	-10.2104
▁zero	-10.2105
▁horse	-10.2107
▁combined	-10.2113
▁corner	-10.2113
▁processing	-10.2124
▁Iran	-10.2125
▁En	-10.2127
▁neck	-10.2132
▁Middle	-10.214
▁improved	-10.2145
▁selection	-10.2154
▁frame	-10.2156
▁apparently	-10.2158
▁Greek	-10.2161
▁recommended	-10.2162
▁ear	-10.2163
▁Britain	-10.2165
▁secure	-10.2172
▁suggested	-10.2173
@	-10.2174
▁gene	-10.2183
▁survive	-10.2187
▁muscles	-10.2194
▁vast	-10.2203
▁Book	-10.2215
▁plays	-10.2226
▁Jan	-10.2237
▁harm	-10.2239
mi	-10.224
▁2019	-10.2243
▁2005	-10.2247
▁Texas	-10.2247
▁extent	-10.2252
▁battery	-10.2254
ver	-10.2262
▁Ro	-10.2263
ped	-10.2265
е	-10.2265
▁resource	-10.227
▁ultimately	-10.2271
▁widely	-10.2271
▁weekend	-10.2277
ci	-10.2279
▁Lo	-10.2284
ina	-10.2286
▁principle	-10.229
▁funds	-10.229
ure	-10.2298
▁escape	-10.2302
▁magic	-10.2306
▁Still	-10.2308
▁recognize	-10.2312
▁sets	-10.2313
ig	-10.2315
▁evolution	-10.2324
▁atmosphere	-10.2326
▁birds	-10.2329
▁Mary	-10.2331
▁driver	-10.2333
▁suffering	-10.2335
▁judge	-10.2341
▁detailed	-10.2342
▁Change	-10.2353
mm	-10.2354
▁mom	-10.2355
▁electricity	-10.2356
▁medium	-10.2356
▁losing	-10.2361
ship	-10.2374
▁Tom	-10.2375
▁70	-10.2376
▁sharing	-10.238
▁potentially	-10.2383
▁AM	-10.2383
▁wonderful	-10.2388
▁diabetes	-10.2389
▁harder	-10.2393
▁transport	-10.2395
99	-10.2399
▁disorder	-10.2408
▁item	-10.2424
▁System	-10.2425
ov	-10.2434
down	-10.2435
▁switch	-10.2437
▁pet	-10.244
24	-10.244
▁enemy	-10.245
▁encourage	-10.2451
ft	-10.2456
▁normally	-10.2457
▁Ne	-10.2458
▁folks	-10.246
▁grew	-10.247
▁thin	-10.2473
▁connect	-10.2481
▁Old	-10.2484
▁Project	-10.2487
▁County	-10.2487
▁Ma	-10.2487
▁200	-10.2497
▁1)	-10.2498
▁essentially	-10.2504
▁Love	-10.2504
▁aspect	-10.2506
que	-10.2507
▁Men	-10.2509
▁Christmas	-10.2519
▁format	-10.2519
▁maximum	-10.252
▁Ad	-10.2522
▁exposed	-10.2525
tro	-10.2528
▁Bible	-10.253
let	-10.2531
▁ocean	-10.2537
▁camp	-10.2539
▁considering	-10.2545
▁structures	-10.2546
▁90	-10.2549
▁spiritual	-10.2552
▁Ca	-10.2555
▁banks	-10.2555
▁legs	-10.2569
▁beat	-10.2576
▁Find	-10.2581
ab	-10.2581
▁mainly	-10.2583
ging	-10.2583
▁fans	-10.2586
▁experiment	-10.2588
ius	-10.2599
▁favor	-10.2604
▁messages	-10.2606
▁skill	-10.2611
▁Spanish	-10.2611
▁letters	-10.2628
▁crucial	-10.263
lu	-10.2632
▁Council	-10.2637
▁referred	-10.2638
ps	-10.2641
And	-10.2645
▁funny	-10.2645
▁illegal	-10.2649
▁prison	-10.266
name	-10.2662
▁explanation	-10.2663
▁Super	-10.2665
▁yellow	-10.2669
▁Bush	-10.267
▁crazy	-10.2672
▁seat	-10.2675
▁beauty	-10.2687
▁auto	-10.2688
▁thank	-10.269
▁principles	-10.269
▁owners	-10.2691
▁explains	-10.2691
▁controlled	-10.2699
han	-10.2699
▁proposed	-10.2705
▁eggs	-10.2707
▁sequence	-10.2716
01	-10.2718
▁matters	-10.2719
▁park	-10.2727
▁Iraq	-10.273
ran	-10.2731
▁oxygen	-10.2731
▁moon	-10.2738
▁prepare	-10.2739
▁neither	-10.275
ham	-10.2751
▁tea	-10.2752
▁script	-10.2755
▁Ex	-10.2758
▁Top	-10.2759
▁crowd	-10.2764
▁da	-10.2765
▁efficiency	-10.2767
▁Open	-10.2771
▁procedure	-10.2771
ker	-10.2778
­	-10.2779
▁Amazon	-10.2779
▁Page	-10.2779
▁weak	-10.2781
▁organic	-10.2787
▁plane	-10.2788
▁expert	-10.2789
▁engage	-10.2789
ach	-10.2794
:00	-10.2795
▁approximately	-10.2796
pi	-10.2797
▁pulled	-10.2803
▁wealth	-10.2809
▁fashion	-10.281
▁sector	-10.2811
▁naturally	-10.2812
▁linked	-10.2817
▁carefully	-10.2817
▁reader	-10.2823
work	-10.2828
▁discussed	-10.283
▁god	-10.283
▁stood	-10.2831
ff	-10.2831
▁lies	-10.2832
▁Dis	-10.2844
▁rely	-10.285
▁institutions	-10.2852
▁grade	-10.2856
ED	-10.2857
with	-10.2858
▁minor	-10.2866
▁Se	-10.2874
▁noted	-10.2878
▁latter	-10.2879
▁grown	-10.2879
▁posted	-10.2881
ward	-10.2885
▁ha	-10.2892
▁transition	-10.2893
ably	-10.2897
70	-10.2897
▁sad	-10.2913
▁nations	-10.2919
▁Central	-10.2924
▁percentage	-10.2925
▁THE	-10.293
▁Long	-10.2934
▁videos	-10.2939
vo	-10.294
▁Answer	-10.2942
▁perfectly	-10.2945
▁kitchen	-10.2951
▁artist	-10.2952
▁meal	-10.2956
▁alive	-10.2959
▁soldiers	-10.296
▁Jack	-10.2961
▁pure	-10.2964
▁amounts	-10.2964
▁payment	-10.2966
!)	-10.2968
▁reducing	-10.2973
head	-10.2976
▁primarily	-10.2981
ud	-10.2983
▁Da	-10.2983
▁border	-10.2988
▁EU	-10.2991
▁:)	-10.2993
ator	-10.2994
▁increasingly	-10.2997
32	-10.2999
▁emotions	-10.3005
▁anymore	-10.3009
▁Thomas	-10.3011
▁walls	-10.3012
▁advance	-10.3013
▁brief	-10.3015
▁pool	-10.3016
▁hole	-10.3023
▁dealing	-10.3024
car	-10.3024
▁watched	-10.303
▁markets	-10.3032
▁characteristics	-10.3036
▁brown	-10.3037
▁Step	-10.3047
▁recorded	-10.305
▁ride	-10.305
▁victim	-10.3051
▁trans	-10.3053
TS	-10.3058
right	-10.3059
che	-10.3061
▁ends	-10.3066
▁somehow	-10.3067
▁documents	-10.3071
▁exists	-10.3072
▁literally	-10.3073
▁buildings	-10.3079
▁port	-10.308
▁giant	-10.3083
▁Times	-10.3089
▁compare	-10.3096
▁regions	-10.3098
▁35	-10.311
▁weren	-10.3111
▁afraid	-10.3111
▁manager	-10.3117
▁Remember	-10.3122
▁accounts	-10.3126
▁boys	-10.3128
▁offering	-10.313
▁urban	-10.3132
▁suffer	-10.3133
ile	-10.3136
▁smile	-10.3141
▁Ni	-10.3142
▁emergency	-10.3142
▁le	-10.3143
bi	-10.3148
▁younger	-10.3152
▁Yeah	-10.3153
▁Microsoft	-10.3156
▁annual	-10.3156
▁clients	-10.3162
▁profit	-10.3162
▁smell	-10.3166
▁risks	-10.3169
vi	-10.3174
▁destroy	-10.3176
za	-10.3176
▁vital	-10.3176
▁frequency	-10.3191
▁automatically	-10.3193
▁walked	-10.3196
13	-10.3196
▁smoke	-10.3198
▁stupid	-10.32
ified	-10.32
▁refer	-10.3204
▁completed	-10.3206
▁infrastructure	-10.3207
▁occurred	-10.3208
wood	-10.3211
▁jump	-10.3219
▁listening	-10.322
75	-10.3221
ens	-10.3225
▁thousand	-10.3226
`	-10.3231
▁finish	-10.3235
▁photos	-10.3236
▁machines	-10.3236
ny	-10.3247
don	-10.3252
▁readers	-10.3257
▁purposes	-10.326
▁arrived	-10.3264
▁Group	-10.3265
▁reduction	-10.3275
▁Women	-10.3277
▁bread	-10.3278
▁portion	-10.3279
lan	-10.3288
▁Ta	-10.3289
▁languages	-10.3293
pre	-10.3297
▁shit	-10.3303
▁route	-10.3305
▁protected	-10.3311
▁domestic	-10.3313
▁mark	-10.3314
▁height	-10.3318
▁murder	-10.3318
▁string	-10.3324
▁agreed	-10.3326
▁decade	-10.3332
22	-10.3335
To	-10.3335
ical	-10.3336
▁spoke	-10.3336
▁framework	-10.3343
▁Service	-10.3344
yn	-10.3349
▁Name	-10.3352
port	-10.3352
▁tough	-10.3352
▁ring	-10.3362
▁Lu	-10.3364
▁College	-10.3365
▁Pa	-10.3368
▁colors	-10.3369
▁View	-10.337
▁collect	-10.3375
▁Har	-10.3381
▁Asia	-10.339
▁contribute	-10.339
▁leg	-10.3392
▁merely	-10.34
▁Figure	-10.3404
There	-10.3406
tor	-10.3415
▁proof	-10.3419
▁authors	-10.3424
▁comparison	-10.3424
cha	-10.343
▁regularly	-10.3432
▁Smith	-10.3437
▁remaining	-10.3441
▁reasonable	-10.345
▁origin	-10.345
▁evening	-10.3454
▁feedback	-10.346
mar	-10.3482
▁village	-10.3486
ino	-10.3487
▁consumer	-10.3489
▁creates	-10.349
▁express	-10.3493
▁funding	-10.3493
▁conclusion	-10.3494
▁sin	-10.3495
▁profile	-10.3502
▁cloud	-10.3505
▁afford	-10.3506
▁Ra	-10.3508
▁represents	-10.3515
▁32	-10.3517
▁Having	-10.3517
hi	-10.3519
ER	-10.352
▁Bank	-10.3525
▁industrial	-10.3531
▁dinner	-10.3532
▁tradition	-10.3543
▁Association	-10.3555
light	-10.3558
▁replaced	-10.3561
▁moves	-10.3571
▁Share	-10.3575
▁miss	-10.3579
▁Soviet	-10.3581
▁Brown	-10.3596
▁consistent	-10.36
▁UN	-10.3602
▁Muslim	-10.361
▁Security	-10.3611
▁chosen	-10.3615
▁argue	-10.3617
▁bunch	-10.3626
▁Call	-10.3627
ries	-10.3632
▁inner	-10.3634
board	-10.3635
<	-10.3636
▁sensitive	-10.3637
▁crew	-10.3639
▁conduct	-10.364
▁surprised	-10.3646
▁football	-10.3648
▁sale	-10.3651
▁stands	-10.3652
▁originally	-10.3654
gar	-10.3654
▁homes	-10.3657
▁complicated	-10.3657
▁sand	-10.3675
nt	-10.3679
▁Article	-10.3679
▁pot	-10.3681
▁agency	-10.3689
wa	-10.3693
▁Du	-10.3694
▁Mexico	-10.3696
▁hidden	-10.3697
▁west	-10.3701
▁revealed	-10.3701
▁awareness	-10.3703
ins	-10.3708
mail	-10.372
▁bringing	-10.3724
▁Ba	-10.3727
▁obtain	-10.3731
▁Light	-10.3731
▁download	-10.3736
▁bird	-10.3742
▁consumers	-10.3742
▁deliver	-10.3743
▁estimated	-10.3746
▁joined	-10.3746
▁broad	-10.3753
▁Was	-10.3756
▁careful	-10.3757
▁Martin	-10.3758
▁sorry	-10.376
▁officer	-10.3763
▁confidence	-10.377
▁closely	-10.3772
▁joint	-10.3775
21	-10.3778
▁Without	-10.3778
▁chronic	-10.3779
▁corporate	-10.3786
45	-10.3786
▁session	-10.3788
▁Republican	-10.3791
▁films	-10.3795
▁gay	-10.3795
▁literature	-10.3796
▁combat	-10.3799
▁stuck	-10.3804
-3	-10.3811
▁engineering	-10.3821
▁stream	-10.3835
▁Va	-10.3836
▁honest	-10.3841
▁indicate	-10.3841
▁facing	-10.3844
▁participants	-10.3846
▁resolution	-10.3848
23	-10.3852
▁?	-10.3854
▁brings	-10.3857
00	-10.3858
ose	-10.3859
▁senior	-10.3859
▁update	-10.3861
ns	-10.3861
ue	-10.3862
▁keeps	-10.3865
▁bus	-10.3878
▁chief	-10.3879
ez	-10.3882
▁appreciate	-10.3883
▁genes	-10.3886
SA	-10.3888
▁Society	-10.3891
▁visible	-10.3892
▁committed	-10.3892
▁Food	-10.3893
▁component	-10.3895
related	-10.3901
▁farm	-10.3902
▁formation	-10.3903
▁stronger	-10.3903
▁concepts	-10.3904
▁index	-10.3905
▁club	-10.3912
▁cutting	-10.3914
▁programming	-10.3919
▁define	-10.3929
▁investigation	-10.3933
▁figures	-10.3933
▁chapter	-10.3935
▁immediate	-10.3947
▁weird	-10.3947
▁virtual	-10.3949
▁department	-10.395
▁danger	-10.3954
▁Richard	-10.3954
▁package	-10.3957
chi	-10.3959
▁split	-10.3966
form	-10.3967
rate	-10.3967
▁okay	-10.3971
▁candidate	-10.3974
▁classic	-10.3975
▁Island	-10.3978
▁45	-10.3978
▁accident	-10.3979
▁mixed	-10.3979
▁Federal	-10.3989
▁reflect	-10.3994
▁stomach	-10.3995
▁employee	-10.4
▁schedule	-10.4
▁sc	-10.4004
▁healthcare	-10.4004
ki	-10.4006
▁Dec	-10.4006
▁acts	-10.4014
▁moments	-10.4017
▁remained	-10.4017
▁Being	-10.4028
▁enhance	-10.403
▁Source	-10.4033
▁artists	-10.4034
▁survey	-10.4038
tra	-10.4038
▁Should	-10.4038
ville	-10.4044
▁gift	-10.4046
▁Education	-10.4049
▁clinical	-10.4055
▁surrounding	-10.4055
27	-10.406
▁Click	-10.406
▁hardware	-10.4061
ST	-10.4063
▁falling	-10.4064
▁tour	-10.4065
▁opposed	-10.4065
▁holds	-10.4067
▁quiet	-10.4068
▁Chi	-10.4073
▁mo	-10.4074
▁variable	-10.4084
▁seeking	-10.4089
▁Master	-10.4091
▁domain	-10.4092
▁youth	-10.4094
▁array	-10.4098
▁blind	-10.4103
▁End	-10.4104
▁bright	-10.4111
▁paint	-10.4119
bit	-10.4124
dis	-10.4125
▁Image	-10.4127
▁500	-10.4135
▁install	-10.4139
▁Mc	-10.4144
ep	-10.4149
▁unknown	-10.4151
▁emissions	-10.4152
▁illness	-10.4154
▁communicate	-10.4155
▁cheese	-10.4157
▁lesson	-10.4157
▁shut	-10.4162
fi	-10.4163
▁decline	-10.4164
▁acting	-10.4179
▁Lake	-10.4181
▁supporting	-10.4183
▁Paris	-10.4185
▁tank	-10.4192
▁NOT	-10.4194
Do	-10.4196
▁Whether	-10.42
▁enable	-10.4201
▁audio	-10.4208
▁conducted	-10.4209
▁equivalent	-10.4215
▁busy	-10.4215
▁fellow	-10.4217
▁implementation	-10.4218
▁doctors	-10.4219
▁stores	-10.422
▁Again	-10.4224
▁discover	-10.423
▁imp	-10.4232
▁destroyed	-10.4235
▁raw	-10.4245
▁29	-10.4248
▁Children	-10.425
▁powers	-10.4252
▁Information	-10.4256
▁talked	-10.4265
▁grass	-10.4269
▁revolution	-10.4272
ap	-10.4272
▁chest	-10.4273
▁Harry	-10.4274
CA	-10.4274
▁Army	-10.4277
▁refers	-10.4279
▁fluid	-10.4283
▁mountain	-10.4289
king	-10.4292
▁cream	-10.4298
▁lifestyle	-10.4301
▁vegetables	-10.4304
▁bi	-10.4311
▁ban	-10.4313
▁roll	-10.433
ase	-10.4335
▁Think	-10.4337
▁victims	-10.434
▁vehicles	-10.4345
ray	-10.4346
-2	-10.4348
ven	-10.4348
▁Three	-10.4351
▁officers	-10.4353
ea	-10.4353
▁remote	-10.4354
▁limits	-10.4355
▁Korea	-10.4356
▁smooth	-10.4356
▁nose	-10.4357
▁Joe	-10.4357
▁thread	-10.4357
▁ill	-10.4365
▁reform	-10.4367
▁listed	-10.4368
▁delivery	-10.4373
But	-10.4376
▁movements	-10.4378
▁Italian	-10.4383
26	-10.439
▁Space	-10.4397
▁entered	-10.4399
▁shooting	-10.441
ay	-10.4411
▁excited	-10.4415
That	-10.4416
▁1990	-10.4419
▁selected	-10.4422
▁dating	-10.4426
▁nine	-10.4426
▁attached	-10.4429
▁logic	-10.4429
▁twenty	-10.443
▁fund	-10.4433
▁broke	-10.4434
▁Dan	-10.4435
▁j	-10.4436
▁Bi	-10.4443
▁announced	-10.4444
▁philosophy	-10.4447
▁Work	-10.4448
▁11.	-10.4456
▁log	-10.4457
▁channel	-10.4459
▁recovery	-10.4461
isation	-10.4462
▁rose	-10.4462
▁wake	-10.4464
▁Florida	-10.4464
▁stored	-10.4467
▁electrical	-10.447
▁trend	-10.447
▁Author	-10.4473
▁Ri	-10.4474
▁cap	-10.4475
▁u	-10.4482
▁findings	-10.4483
box	-10.4487
▁circle	-10.4495
▁Show	-10.4496
▁outcome	-10.45
▁producing	-10.4504
ura	-10.4504
▁2)	-10.4505
▁troops	-10.4505
▁networks	-10.451
▁behaviour	-10.4511
▁revenue	-10.4513
▁plain	-10.4516
▁du	-10.4519
▁Sha	-10.4523
level	-10.4527
▁Charles	-10.4531
▁forever	-10.4533
▁theme	-10.4537
")	-10.4539
De	-10.454
▁assets	-10.454
▁Game	-10.4541
▁mistake	-10.455
ations	-10.4552
▁tested	-10.4555
▁z	-10.4558
▁joy	-10.4558
▁ingredients	-10.456
▁expressed	-10.4561
▁bridge	-10.4563
ane	-10.4566
▁Tri	-10.4567
▁winning	-10.4568
▁category	-10.4569
book	-10.4571
▁rarely	-10.4573
▁everyday	-10.4575
▁regardless	-10.4575
jo	-10.4583
▁pointed	-10.4586
▁pen	-10.4587
point	-10.4591
48	-10.4591
▁clock	-10.4592
▁mechanism	-10.4599
▁assist	-10.4601
more	-10.4602
▁Jo	-10.4605
▁Bay	-10.4605
▁implement	-10.4606
▁steel	-10.4617
ological	-10.4619
▁Connect	-10.4625
▁cooking	-10.4629
▁monitor	-10.463
▁boat	-10.4632
▁vitamin	-10.4634
▁instructions	-10.4638
▁temperatures	-10.4638
▁houses	-10.4639
▁honor	-10.4639
▁blame	-10.4642
▁vary	-10.4642
▁forth	-10.4643
▁Bio	-10.4646
▁hide	-10.4648
▁achieved	-10.4648
▁democracy	-10.4654
ney	-10.466
▁im	-10.4663
▁Lee	-10.4669
▁phrase	-10.4685
▁coverage	-10.4688
ou	-10.4691
36	-10.4694
▁correctly	-10.4694
▁Land	-10.4695
▁computers	-10.4697
▁charged	-10.4697
▁assessment	-10.47
▁everywhere	-10.4705
▁driven	-10.4706
fa	-10.471
▁thick	-10.471
▁ignore	-10.471
ik	-10.4712
▁Australian	-10.4717
▁east	-10.4722
▁agent	-10.4723
mp	-10.4725
▁stable	-10.4731
▁Cor	-10.4741
▁launch	-10.4746
▁maintenance	-10.4747
▁zone	-10.4748
▁saved	-10.475
▁flag	-10.475
ged	-10.4756
▁biological	-10.4758
▁passing	-10.4758
▁Fire	-10.4763
▁interface	-10.4767
▁picked	-10.4768
▁generated	-10.4776
ara	-10.4782
▁chicken	-10.4787
▁Design	-10.4787
▁2002	-10.4787
▁signed	-10.479
▁Blue	-10.4791
▁relations	-10.4792
▁restaurant	-10.4793
▁Islam	-10.4801
lic	-10.4806
▁claimed	-10.481
▁narrative	-10.4811
▁tip	-10.4813
▁valid	-10.4814
▁gap	-10.4815
▁drawn	-10.4816
▁educational	-10.4817
▁repair	-10.4824
▁returns	-10.4826
▁enjoyed	-10.4826
▁formal	-10.4834
▁estate	-10.4835
▁rapidly	-10.4841
▁Wall	-10.4847
38	-10.4856
▁suit	-10.4856
▁luck	-10.4857
▁successfully	-10.4858
▁positions	-10.486
▁aircraft	-10.486
▁boost	-10.486
▁angle	-10.4873
▁Control	-10.4875
fer	-10.4875
▁recognized	-10.4876
▁electronic	-10.4878
▁personality	-10.4887
▁Chapter	-10.4888
▁finger	-10.4894
▁extended	-10.49
▁Scholar	-10.4903
▁storm	-10.4903
For	-10.4908
▁aside	-10.4915
▁mood	-10.4919
29	-10.4921
▁establish	-10.4921
ari	-10.4927
▁aim	-10.4932
▁silver	-10.4933
▁Public	-10.4935
▁Company	-10.4938
▁trading	-10.4938
▁fault	-10.4939
▁Henry	-10.4941
▁egg	-10.4943
▁Catholic	-10.4947
si	-10.4948
▁ratio	-10.4948
▁admit	-10.4953
ru	-10.4956
▁angry	-10.4956
▁ho	-10.4964
▁dropped	-10.4965
▁permanent	-10.4967
▁Try	-10.4969
▁beliefs	-10.497
▁Canadian	-10.4975
▁ma	-10.4976
pp	-10.4989
▁cent	-10.4997
▁promise	-10.5003
▁regard	-10.5011
▁trained	-10.5012
▁musical	-10.5013
So	-10.5014
▁burn	-10.5016
▁regime	-10.5017
▁flying	-10.5025
▁routine	-10.5027
▁survival	-10.5028
▁expand	-10.503
▁operate	-10.5032
▁menu	-10.5032
▁university	-10.5036
▁yesterday	-10.5036
▁everybody	-10.5038
▁installed	-10.5038
▁earn	-10.5041
▁divided	-10.5049
▁hang	-10.505
▁Te	-10.5052
ky	-10.5053
▁sufficient	-10.5059
hand	-10.5073
▁bound	-10.5081
▁tired	-10.5098
▁decrease	-10.51
▁Additionally	-10.5102
▁formula	-10.5105
▁Gu	-10.5106
▁OK	-10.5112
▁burning	-10.5114
▁western	-10.5114
▁narrow	-10.5116
▁App	-10.5116
▁ending	-10.5118
▁rid	-10.512
▁serving	-10.5121
tu	-10.5121
▁chocolate	-10.5125
int	-10.5126
47	-10.5126
▁min	-10.5131
▁dust	-10.5131
▁writers	-10.5133
▁comfort	-10.5137
▁suspect	-10.5137
▁whenever	-10.5137
▁Cat	-10.515
▁Supreme	-10.5152
▁opposition	-10.5162
44	-10.5167
▁strike	-10.5168
▁calm	-10.5168
▁professor	-10.5177
▁fingers	-10.5177
▁liver	-10.5177
▁breathing	-10.5183
▁sharp	-10.5186
▁Anti	-10.5187
▁terrible	-10.5189
▁psychological	-10.5189
▁100%	-10.5196
▁parallel	-10.5198
▁blocks	-10.5198
▁custom	-10.5202
34	-10.5205
▁Would	-10.5205
▁capture	-10.5211
▁mess	-10.5217
gi	-10.5222
kin	-10.5223
95	-10.5224
▁roof	-10.5225
▁authorities	-10.5226
▁interaction	-10.5231
▁drawing	-10.5233
▁agencies	-10.5234
▁heavily	-10.5234
▁concentration	-10.5239
▁tight	-10.5241
▁Chicago	-10.5246
▁anger	-10.5247
▁CD	-10.5251
▁recall	-10.5253
▁tone	-10.5256
▁Photo	-10.5261
▁relief	-10.5261
▁Mike	-10.5262
▁equally	-10.5262
▁deeper	-10.5264
▁panel	-10.5265
▁collected	-10.5265
eg	-10.5268
49	-10.5273
▁quote	-10.5274
▁gear	-10.5276
▁attitude	-10.5276
▁Office	-10.5279
▁tech	-10.5287
▁Minister	-10.5289
▁containing	-10.5291
▁personally	-10.5294
▁Everyone	-10.5295
▁fuck	-10.5296
37	-10.5299
pping	-10.5304
tin	-10.5305
▁12.	-10.5306
▁depth	-10.5309
ID	-10.5309
▁hasn	-10.5312
▁awesome	-10.5316
▁shoes	-10.5316
lon	-10.5321
ties	-10.5321
▁Development	-10.5327
▁breast	-10.5329
▁topics	-10.533
▁district	-10.5332
▁repeat	-10.5332
▁blow	-10.534
▁wondering	-10.5349
▁union	-10.5352
▁rising	-10.5354
ok	-10.5354
▁chose	-10.5355
called	-10.5356
▁Scott	-10.5358
▁destruction	-10.5362
▁poverty	-10.5362
▁housing	-10.5362
ned	-10.5363
▁obtained	-10.5365
▁lunch	-10.5371
yl	-10.5373
▁proven	-10.5374
▁seeds	-10.5375
▁2003	-10.5379
ade	-10.5381
▁//	-10.5391
▁connections	-10.5392
▁MS	-10.5392
▁subjects	-10.5394
▁Hu	-10.5396
▁medication	-10.5398
▁pregnancy	-10.5399
▁reliable	-10.5399
▁Clinton	-10.5399
bb	-10.541
▁usage	-10.5411
▁distinct	-10.5412
zo	-10.5413
▁tries	-10.5413
▁introduction	-10.542
33	-10.542
▁smoking	-10.542
▁conference	-10.5427
▁centuries	-10.5427
▁heads	-10.5436
long	-10.5444
▁branch	-10.5444
▁legislation	-10.5445
▁participate	-10.5446
▁Frank	-10.5447
▁approaches	-10.5447
▁edition	-10.5448
▁suitable	-10.5448
▁lights	-10.5453
39	-10.5453
low	-10.5461
get	-10.5462
▁streets	-10.5469
▁deeply	-10.547
▁truck	-10.547
▁challenging	-10.5473
46	-10.5474
▁Create	-10.5479
▁attempts	-10.548
uch	-10.5482
▁radiation	-10.5483
▁warning	-10.5484
▁whereas	-10.5485
▁waves	-10.5486
▁nearby	-10.5486
▁charges	-10.5488
08	-10.5492
▁plate	-10.5493
▁weapon	-10.5494
▁gotten	-10.5494
▁fewer	-10.5497
▁Log	-10.5502
▁particles	-10.5505
▁depend	-10.5511
ING	-10.5516
▁shoot	-10.5519
zi	-10.5521
edit	-10.5525
▁bowl	-10.5525
▁nervous	-10.5529
▁Technology	-10.5529
How	-10.553
AR	-10.553
even	-10.5533
85	-10.5536
▁architecture	-10.5548
▁childhood	-10.5549
tz	-10.5552
▁statements	-10.5553
42	-10.5554
br	-10.5564
▁pounds	-10.5564
▁Plan	-10.5568
28	-10.5569
▁Moreover	-10.5569
▁Table	-10.5569
▁missed	-10.5571
water	-10.5576
100	-10.5576
▁shopping	-10.5577
▁impression	-10.5577
▁disorders	-10.5578
64	-10.5585
и	-10.5585
pro	-10.559
▁Latin	-10.5591
▁planned	-10.5593
▁Learn	-10.5598
▁somebody	-10.5601
▁arguments	-10.5603
▁Chris	-10.561
ding	-10.561
▁gonna	-10.5616
▁conventional	-10.5617
▁Steve	-10.5618
â	-10.562
▁Tim	-10.5621
▁Vi	-10.5621
▁tape	-10.5622
▁appeal	-10.5623
▁involve	-10.5627
69	-10.5627
▁$2	-10.5628
▁tall	-10.5629
▁Van	-10.563
▁studied	-10.5635
31	-10.5639
▁reply	-10.5642
▁Ab	-10.5642
▁settings	-10.5642
▁assistance	-10.5643
▁symbol	-10.5644
ev	-10.565
▁strongly	-10.5651
▁pin	-10.5653
▁odd	-10.5655
▁adopted	-10.5656
▁sum	-10.566
▁transmission	-10.5661
▁row	-10.5664
▁chair	-10.5666
US	-10.5668
▁apps	-10.5675
▁guard	-10.568
They	-10.5683
▁breaking	-10.5686
hu	-10.5688
..."	-10.5688
▁31	-10.5689
some	-10.5689
mb	-10.569
uck	-10.5691
▁residents	-10.5693
▁cleaning	-10.5701
▁reviews	-10.5711
▁employment	-10.5712
▁Ver	-10.5715
py	-10.5715
43	-10.5716
▁Year	-10.5724
▁duty	-10.5724
#	-10.5725
▁difficulty	-10.5725
▁Egypt	-10.5729
▁List	-10.573
▁~	-10.5733
▁locations	-10.5733
ada	-10.5738
▁desired	-10.5741
▁foundation	-10.5742
▁nobody	-10.5743
▁scenario	-10.5744
▁Christians	-10.5746
▁territory	-10.5747
▁Jim	-10.5748
▁sustainable	-10.575
▁substance	-10.5754
▁pp	-10.5759
▁measured	-10.5759
ا	-10.5766
▁facilities	-10.5766
▁southern	-10.5767
97	-10.5768
sp	-10.5768
▁info	-10.5771
▁©	-10.5771
▁ID	-10.5774
▁exciting	-10.5776
▁dad	-10.5783
▁signals	-10.5789
▁incident	-10.5797
▁detect	-10.5797
class	-10.5797
▁wheel	-10.5799
▁Real	-10.5799
▁rice	-10.58
▁affects	-10.5804
▁sport	-10.5806
▁periods	-10.5808
▁ease	-10.5811
▁procedures	-10.5815
▁label	-10.5816
▁governments	-10.5817
▁Gar	-10.582
▁monitoring	-10.5822
gy	-10.5823
▁pleasure	-10.5824
TM	-10.5825
▁shock	-10.5825
mit	-10.5829
▁Ru	-10.583
▁liked	-10.5833
▁(1	-10.5835
▁absolute	-10.5837
My	-10.5841
▁flu	-10.5847
▁Ke	-10.5848
▁eliminate	-10.5854
▁Po	-10.5859
▁consciousness	-10.586
top	-10.586
IN	-10.5864
▁asks	-10.5865
▁diverse	-10.5874
65	-10.5875
LE	-10.5875
ric	-10.5876
▁receiving	-10.5882
▁windows	-10.5882
val	-10.5882
▁flowers	-10.589
▁northern	-10.5892
▁consists	-10.5895
▁Report	-10.5895
▁passion	-10.5897
▁prime	-10.5899
▁Empire	-10.5902
▁Comment	-10.5906
▁Related	-10.5906
▁ordered	-10.5906
ions	-10.5908
EN	-10.5911
▁Code	-10.5913
this	-10.5916
rk	-10.5917
▁interact	-10.5917
▁register	-10.5918
▁cook	-10.5919
68	-10.5921
▁sa	-10.5922
▁landscape	-10.5922
▁welcome	-10.5922
▁Help	-10.5922
▁classroom	-10.5923
▁bottle	-10.5923
▁(2	-10.5924
▁clothing	-10.5925
▁dress	-10.5928
▁laid	-10.5928
▁Online	-10.5931
▁coast	-10.5932
▁Medical	-10.5935
▁greatly	-10.5936
ford	-10.5938
AM	-10.594
▁cats	-10.5946
▁politicians	-10.5947
▁pushed	-10.5947
what	-10.595
▁dedicated	-10.5953
▁lessons	-10.5955
improve	-10.5958
stone	-10.5959
09	-10.596
qui	-10.5965
▁Bob	-10.5967
▁involving	-10.597
▁studying	-10.5976
▁Through	-10.5982
▁liberal	-10.5985
67	-10.5989
▁improvement	-10.5997
ita	-10.6002
▁Age	-10.6007
▁lift	-10.6014
▁describes	-10.6025
▁colour	-10.6025
▁comprehensive	-10.6029
▁DC	-10.603
▁investors	-10.6036
▁inspired	-10.6044
▁objective	-10.6045
▁differ	-10.6045
▁drivers	-10.6048
▁unusual	-10.6049
cy	-10.6049
Oh	-10.6056
▁chemicals	-10.6057
▁scenes	-10.6065
▁sleeping	-10.6066
fe	-10.6068
▁Pat	-10.6072
▁lying	-10.6073
▁roots	-10.6077
ball	-10.6078
▁conservative	-10.6078
American	-10.6078
▁beneficial	-10.6078
▁fruits	-10.6081
▁butter	-10.6083
▁Given	-10.6084
66	-10.6086
!!!	-10.6087
▁faced	-10.6092
▁currency	-10.6092
▁mirror	-10.6093
ani	-10.6095
▁Democrats	-10.6099
▁lo	-10.6104
▁functional	-10.6106
▁Wa	-10.6108
▁hoping	-10.6108
ice	-10.6112
non	-10.6112
▁sending	-10.6125
oo	-10.6128
▁Senate	-10.6129
du	-10.613
▁confused	-10.6132
▁organized	-10.6135
▁Republic	-10.6135
▁column	-10.6139
▁partners	-10.6139
▁Media	-10.6139
ris	-10.6144
ians	-10.6145
cho	-10.6147
▁intellectual	-10.6151
▁IT	-10.6154
bu	-10.6155
▁farmers	-10.6156
▁Civil	-10.6159
▁glad	-10.616
▁recognition	-10.6168
▁Global	-10.617
▁bones	-10.6171
▁Start	-10.6171
▁variables	-10.6171
▁dreams	-10.6173
▁tongue	-10.6178
she	-10.6182
▁carrying	-10.6185
▁Rock	-10.6186
▁Play	-10.6187
▁Museum	-10.6188
▁tomorrow	-10.6191
▁incredibly	-10.6198
ai	-10.6205
▁Hall	-10.6205
:30	-10.6211
▁Johnson	-10.6213
96	-10.6217
uff	-10.6217
log	-10.622
▁peak	-10.6232
▁Sp	-10.6238
88	-10.6239
▁predict	-10.624
▁reveal	-10.6244
▁inches	-10.6246
▁Energy	-10.625
▁hyper	-10.6253
▁cable	-10.6259
▁represented	-10.6262
▁Young	-10.6262
▁engaged	-10.6263
▁elected	-10.6267
▁responses	-10.6267
▁pregnant	-10.6268
▁Pi	-10.6275
▁violent	-10.6277
▁falls	-10.6277
PA	-10.628
▁manual	-10.6281
▁hotel	-10.6284
▁2,	-10.6286
▁Video	-10.6286
▁regulations	-10.6287
▁calories	-10.6288
▁iPhone	-10.6288
▁errors	-10.629
▁chances	-10.6295
▁injuries	-10.6298
▁ca	-10.6299
▁expectations	-10.6304
▁Business	-10.6307
▁expansion	-10.6308
07	-10.6309
▁grand	-10.631
▁Guide	-10.6311
▁filter	-10.6313
▁spin	-10.6314
▁fourth	-10.6316
▁samples	-10.6317
▁professionals	-10.6317
▁saving	-10.6317
▁improving	-10.6318
▁intense	-10.6319
▁defeat	-10.6323
▁300	-10.6324
02	-10.6326
cent	-10.6327
▁tail	-10.6327
ala	-10.6333
▁underlying	-10.6339
▁#1	-10.6339
▁36	-10.6342
▁relation	-10.6347
▁Shi	-10.6348
itis	-10.6354
▁Los	-10.6354
▁Kingdom	-10.636
▁Music	-10.636
▁mistakes	-10.636
▁updated	-10.6363
state	-10.6364
▁Pe	-10.6368
▁differently	-10.6368
▁bike	-10.6369
▁hadn	-10.6371
35	-10.6373
As	-10.6377
▁centre	-10.6383
▁dollar	-10.6385
▁manufacturing	-10.639
▁Network	-10.6391
▁Far	-10.6392
▁proud	-10.6392
▁Grand	-10.6392
▁versions	-10.6392
▁seed	-10.6393
▁lab	-10.6398
ery	-10.64
▁chart	-10.6403
▁semi	-10.6405
▁1980	-10.6406
▁worried	-10.641
▁Democratic	-10.6412
▁corn	-10.6418
▁extensive	-10.6431
▁shoulder	-10.6436
life	-10.6437
▁Moon	-10.6443
▁Head	-10.6444
gan	-10.6444
▁regional	-10.6445
vin	-10.6446
á	-10.6447
▁rural	-10.6451
▁Students	-10.6453
▁license	-10.6456
▁physics	-10.6458
ella	-10.6459
▁faces	-10.646
▁exception	-10.6472
05	-10.6474
▁dynamic	-10.6475
="	-10.6476
▁enemies	-10.6482
▁wisdom	-10.6482
▁1970	-10.6483
▁Asian	-10.6485
▁loop	-10.6485
▁notion	-10.6489
▁permission	-10.6493
▁pack	-10.6494
▁diversity	-10.6495
▁household	-10.6504
▁painting	-10.6509
▁commit	-10.6511
▁Sh	-10.6512
▁friendly	-10.6513
wing	-10.6513
cus	-10.6517
dia	-10.6518
▁composition	-10.6523
▁rapid	-10.6525
scale	-10.6531
▁laugh	-10.6534
▁proteins	-10.6541
86	-10.6542
▁guns	-10.6543
ken	-10.6544
▁Adam	-10.6545
▁Ed	-10.6561
?)	-10.6566
▁Islamic	-10.6571
▁loose	-10.6577
ever	-10.6577
▁developers	-10.6577
▁cognitive	-10.6577
▁Daniel	-10.6578
▁Could	-10.6578
▁Comments	-10.6585
▁candidates	-10.6592
type	-10.6598
▁13.	-10.6598
▁trick	-10.6598
▁tube	-10.6604
▁Constitution	-10.6606
▁populations	-10.6606
▁agents	-10.6606
▁Rights	-10.6607
▁kick	-10.6617
are	-10.6618
▁delivered	-10.662
▁33	-10.6621
▁marked	-10.6622
med	-10.6625
ag	-10.6626
▁ordinary	-10.6632
▁pushing	-10.6635
▁motivation	-10.6638
▁bo	-10.6638
▁launched	-10.6639
Be	-10.6646
▁healing	-10.6647
▁victory	-10.6649
▁writes	-10.6655
▁syndrome	-10.6659
▁Furthermore	-10.6659
▁Justice	-10.666
▁mail	-10.666
▁Republicans	-10.666
▁declared	-10.6661
▁secondary	-10.6662
iz	-10.6662
▁adds	-10.6664
▁sheet	-10.6665
▁goods	-10.6665
law	-10.6668
▁advantages	-10.6668
▁humanity	-10.6669
▁versus	-10.6669
▁recording	-10.667
ini	-10.6673
▁memories	-10.668
gue	-10.6681
▁categories	-10.6681
▁craft	-10.6684
▁yeah	-10.6684
CH	-10.6686
▁trigger	-10.669
▁unlike	-10.669
▁Foundation	-10.6691
▁suppose	-10.6693
▁discovery	-10.6694
▁diagnosis	-10.6703
▁stages	-10.6705
lock	-10.6708
▁2001	-10.6708
hr	-10.6713
▁physically	-10.6713
▁till	-10.6714
▁Mal	-10.6716
▁guidelines	-10.6717
▁roles	-10.6723
▁mask	-10.6729
▁excess	-10.6731
▁Professor	-10.6734
▁fees	-10.6735
89	-10.6736
▁Director	-10.6737
▁cake	-10.6739
▁votes	-10.6742
▁Italy	-10.6744
amp	-10.6745
OS	-10.6748
▁Search	-10.675
▁passage	-10.6755
▁Key	-10.6758
▁flavor	-10.6758
ula	-10.6762
▁theories	-10.6765
▁hire	-10.6765
▁habits	-10.677
▁advertising	-10.6775
▁Spain	-10.6777
IS	-10.6778
rin	-10.6782
▁pace	-10.6783
▁executive	-10.6784
▁unlikely	-10.6784
78	-10.6788
IT	-10.6791
making	-10.6792
gu	-10.6795
▁configuration	-10.6796
▁defend	-10.6803
▁Set	-10.6804
cing	-10.6806
▁indicates	-10.6806
ight	-10.6807
▁Type	-10.6807
▁loud	-10.681
ata	-10.6811
-12	-10.6813
▁informed	-10.6816
▁loans	-10.6819
▁Joseph	-10.682
41	-10.682
▁Force	-10.6842
59	-10.6843
▁throat	-10.6844
▁Royal	-10.6844
▁replacement	-10.6853
98	-10.686
▁fiction	-10.686
▁fake	-10.6863
af	-10.6864
list	-10.687
▁sp	-10.687
bel	-10.6871
ious	-10.6879
▁wire	-10.6883
▁Indeed	-10.6884
▁apartment	-10.6887
▁Ireland	-10.6892
ory	-10.6894
▁Things	-10.6898
▁infections	-10.6902
▁savings	-10.6904
▁outcomes	-10.6906
▁hardly	-10.6908
▁maintaining	-10.6912
▁Virginia	-10.6913
▁initially	-10.6914
▁reputation	-10.6914
▁par	-10.6919
▁Inter	-10.6919
-10	-10.6927
▁burden	-10.6928
sis	-10.6929
▁concrete	-10.6935
▁Ask	-10.6939
▁34	-10.694
ama	-10.6944
▁evaluation	-10.6946
▁Question	-10.6949
▁nutrients	-10.6955
▁artificial	-10.6959
tri	-10.6962
▁Ten	-10.6963
▁Dark	-10.6965
▁Consider	-10.6966
▁cultures	-10.6966
▁principal	-10.6969
▁IP	-10.6971
▁reverse	-10.6973
▁covers	-10.6978
▁Police	-10.6979
▁curious	-10.6981
▁bond	-10.6982
▁Common	-10.6987
▁succeed	-10.6993
▁Inc	-10.6993
▁harmful	-10.7003
▁roughly	-10.7009
key	-10.7011
▁beach	-10.7011
▁NASA	-10.7011
▁Later	-10.7013
▁Family	-10.7014
▁preparation	-10.7022
iness	-10.7022
▁Management	-10.7022
▁cry	-10.7023
▁extension	-10.7026
▁Wi	-10.7031
▁journal	-10.7031
▁vaccine	-10.7037
84	-10.7037
▁warming	-10.705
63	-10.7054
▁happiness	-10.7054
▁invest	-10.7058
▁Fa	-10.7058
▁disaster	-10.7059
who	-10.7062
▁Sure	-10.7062
▁password	-10.7063
▁Tu	-10.7068
56	-10.7074
▁Team	-10.7074
lar	-10.7075
▁OS	-10.7075
▁Retrieved	-10.7076
04	-10.7077
▁Very	-10.7078
▁Par	-10.7078
▁joke	-10.7079
▁gut	-10.708
▁Test	-10.708
▁ships	-10.7084
▁demands	-10.7085
▁1999	-10.7086
par	-10.7088
pm	-10.7091
▁answered	-10.7092
▁tooth	-10.7093
ming	-10.7094
▁Sub	-10.7098
▁independence	-10.7098
▁presentation	-10.7104
berg	-10.7104
ren	-10.7104
ā	-10.7112
ola	-10.7124
03	-10.7131
▁issued	-10.7133
air	-10.7135
wi	-10.7136
▁innovation	-10.7138
art	-10.7141
▁afternoon	-10.7142
van	-10.7149
▁commitment	-10.715
▁Live	-10.7151
▁mixture	-10.7153
▁derived	-10.7155
74	-10.7157
from	-10.7158
▁barely	-10.7159
▁extend	-10.7166
uring	-10.7167
▁contained	-10.7172
▁bomb	-10.7173
▁Member	-10.7175
▁babies	-10.7175
▁privacy	-10.7175
▁grab	-10.7175
▁sudden	-10.7177
▁refused	-10.7177
▁overcome	-10.7179
▁consideration	-10.718
▁Southern	-10.7187
▁guitar	-10.7194
▁supports	-10.7194
▁attend	-10.7195
▁quarter	-10.7196
read	-10.7199
000	-10.7203
▁Care	-10.7203
▁abilities	-10.7203
▁colleagues	-10.7206
▁Korean	-10.7207
▁consist	-10.7209
▁Gold	-10.7211
▁grant	-10.7212
▁arrest	-10.7212
▁coal	-10.7213
▁poem	-10.7217
▁Ku	-10.7218
AP	-10.7223
▁Place	-10.7223
▁import	-10.7225
▁mar	-10.7229
style	-10.7231
oid	-10.7233
▁ongoing	-10.7237
73	-10.724
▁fa	-10.7244
AD	-10.7248
▁1:	-10.725
▁letting	-10.7252
▁Little	-10.7258
▁competitive	-10.7265
▁directed	-10.7265
▁worldwide	-10.7267
▁universal	-10.7268
ising	-10.7272
▁Yu	-10.7274
▁Queen	-10.7277
MA	-10.7278
▁Learning	-10.7281
▁RE	-10.7281
▁papers	-10.7286
▁Ti	-10.7286
▁ages	-10.7287
▁mad	-10.7287
▁Nature	-10.7288
▁Ge	-10.729
When	-10.7294
▁assigned	-10.7295
▁demonstrate	-10.73
▁dependent	-10.7307
▁recipe	-10.7308
▁Much	-10.7308
▁sought	-10.7309
▁stem	-10.7309
▁crimes	-10.7312
ct	-10.7314
nes	-10.7322
▁transportation	-10.7323
har	-10.7325
▁density	-10.7325
▁dose	-10.7326
▁believes	-10.7329
54	-10.7331
06	-10.7336
▁Min	-10.7336
part	-10.7336
▁Vol	-10.7338
▁experiments	-10.7338
▁km	-10.7344
▁reaching	-10.7348
▁doors	-10.735
▁breaks	-10.7356
▁editor	-10.7359
▁studio	-10.7363
▁Give	-10.7364
▁worship	-10.7364
▁Syria	-10.7365
▁Among	-10.7366
▁confirmed	-10.7367
▁Word	-10.7369
▁websites	-10.7373
83	-10.7379
known	-10.7381
▁algorithm	-10.7388
53	-10.7391
▁pollution	-10.7399
▁Him	-10.7399
▁Gen	-10.74
▁hero	-10.7402
ments	-10.7405
▁opinions	-10.7407
▁suffered	-10.7415
▁Pacific	-10.7416
▁Hill	-10.7418
▁(1)	-10.742
og	-10.7421
▁attractive	-10.7422
▁disk	-10.7424
▁toxic	-10.7424
55	-10.7425
▁Muslims	-10.7428
▁fabric	-10.7429
▁API	-10.7429
▁wise	-10.743
▁cuts	-10.7432
▁deaths	-10.7432
▁supplies	-10.7432
post	-10.7437
▁Bur	-10.7441
ple	-10.7443
▁Ch	-10.7446
▁employed	-10.7447
▁frequent	-10.7451
▁racial	-10.7452
tter	-10.7453
▁phenomenon	-10.7455
▁adjust	-10.7455
▁hence	-10.7456
▁Write	-10.7456
▁Prime	-10.7457
▁ethnic	-10.7459
▁Four	-10.746
▁Need	-10.7461
▁Watch	-10.7461
▁alert	-10.7462
▁Sal	-10.7462
79	-10.7463
▁Never	-10.7465
▁birthday	-10.7469
▁Holy	-10.7469
▁encounter	-10.7474
▁·	-10.7476
▁Program	-10.7477
▁controls	-10.7481
▁lawyer	-10.7482
▁interpretation	-10.7482
table	-10.7483
▁decent	-10.7488
2.	-10.7489
aw	-10.7491
▁Sch	-10.7492
▁File	-10.7493
▁rent	-10.7508
▁extract	-10.7509
▁captured	-10.7512
sion	-10.7516
▁intake	-10.7517
▁intervention	-10.7517
AC	-10.7518
94	-10.7522
▁Meanwhile	-10.7524
AS	-10.7525
▁perception	-10.7528
▁owned	-10.753
act	-10.753
▁provider	-10.7531
▁fee	-10.7532
▁Kim	-10.7535
▁absence	-10.7535
▁silence	-10.7535
▁pm	-10.7535
▁Mad	-10.7537
▁transformation	-10.7538
▁Ph	-10.7541
▁orders	-10.7548
len	-10.755
▁ta	-10.7551
▁gained	-10.7553
▁Andrew	-10.7558
▁ultimate	-10.756
AT	-10.7561
▁poly	-10.7562
sha	-10.7563
▁elections	-10.7564
▁Bra	-10.7567
▁MP	-10.7567
▁suicide	-10.7569
▁repeated	-10.7571
▁scheme	-10.7574
▁guilty	-10.7574
nic	-10.7576
▁talks	-10.7581
▁voters	-10.7581
▁facility	-10.7581
▁committee	-10.7581
▁Has	-10.7581
▁rough	-10.7584
▁neuro	-10.7584
▁react	-10.7586
ette	-10.7588
▁habit	-10.7588
ther	-10.7597
MS	-10.7597
▁division	-10.7598
▁wedding	-10.76
▁scope	-10.7602
bra	-10.7607
▁reporting	-10.7607
▁armed	-10.7607
▁AND	-10.7608
era	-10.7608
▁minds	-10.761
▁deck	-10.7613
▁criteria	-10.7615
▁dialogue	-10.7616
▁1998	-10.7616
▁01	-10.7619
57	-10.762
▁Plus	-10.7624
82	-10.7625
▁tag	-10.763
▁association	-10.7633
▁neighborhood	-10.7633
▁circuit	-10.7636
they	-10.7638
▁drama	-10.7638
▁Sir	-10.7639
▁dying	-10.764
▁elsewhere	-10.764
▁lit	-10.764
▁treatments	-10.7641
▁https	-10.7643
92	-10.7645
▁payments	-10.7646
▁Pan	-10.7648
▁infected	-10.7648
ob	-10.765
▁ni	-10.7651
▁consume	-10.7654
▁instruction	-10.7661
▁dish	-10.7661
▁voting	-10.7662
▁pilot	-10.7663
▁Anyway	-10.7664
▁visited	-10.7666
ram	-10.7666
▁Rome	-10.7671
▁Commission	-10.7673
▁Nov	-10.7673
ify	-10.7676
▁collapse	-10.7678
Con	-10.768
▁disagree	-10.768
oma	-10.7681
mark	-10.7681
▁guarantee	-10.7686
▁mechanical	-10.7687
▁produces	-10.7695
▁draft	-10.7696
▁sing	-10.7696
▁tension	-10.7703
▁targets	-10.7707
87	-10.7715
▁generations	-10.7717
tal	-10.7717
▁hall	-10.7718
▁rational	-10.7718
▁magnetic	-10.772
51	-10.7727
▁wash	-10.7729
▁fought	-10.7732
77	-10.7732
▁medications	-10.7733
▁instruments	-10.7734
▁Everything	-10.7735
▁Matt	-10.7739
sch	-10.774
▁Gi	-10.7743
▁3)	-10.7746
▁boss	-10.775
ware	-10.7753
▁superior	-10.7753
▁painful	-10.7756
az	-10.7758
▁holes	-10.7762
ib	-10.7764
▁Oct	-10.7764
▁statistics	-10.7766
Me	-10.7771
such	-10.7772
5%	-10.7773
app	-10.7774
pen	-10.7775
▁instrument	-10.7776
▁industries	-10.7778
Well	-10.7779
▁puts	-10.778
▁Unlike	-10.7781
new	-10.779
qua	-10.7792
▁vulnerable	-10.7792
ition	-10.7792
▁talent	-10.7793
▁CA	-10.7797
▁coach	-10.7799
▁nerve	-10.78
▁lady	-10.7805
▁Mon	-10.7806
▁Date	-10.7807
▁Arab	-10.7812
▁horror	-10.7814
▁engagement	-10.7817
▁Mi	-10.7819
▁serves	-10.7825
ans	-10.7826
▁estimate	-10.7829
▁Aug	-10.783
▁Natural	-10.7831
▁finds	-10.7833
▁14.	-10.7835
▁significance	-10.7837
▁ka	-10.7841
fish	-10.7842
▁Cross	-10.7845
▁Java	-10.7845
pers	-10.7847
cal	-10.7852
▁argued	-10.7853
-6	-10.7859
▁lucky	-10.7861
▁Several	-10.7861
▁Medicine	-10.7861
▁judgment	-10.7862
▁implemented	-10.7863
▁48	-10.7863
▁para	-10.7865
▁ears	-10.7866
▁performing	-10.7867
▁newspaper	-10.7872
▁Mel	-10.7875
take	-10.7877
▁Death	-10.7878
▁rear	-10.7879
▁yield	-10.7881
▁exit	-10.7881
room	-10.7884
▁YouTube	-10.7884
▁observe	-10.7885
▁Road	-10.7898
▁granted	-10.7904
ction	-10.7906
▁Studies	-10.7908
OR	-10.791
▁Mars	-10.791
▁gradually	-10.7911
▁Often	-10.7911
▁proved	-10.7912
ica	-10.7916
▁2:	-10.7916
▁attract	-10.7917
▁Israeli	-10.7923
▁meaningful	-10.7932
RI	-10.7934
run	-10.7936
▁HIV	-10.7937
▁arrive	-10.7938
EC	-10.7947
▁orange	-10.795
▁examine	-10.7954
▁fantastic	-10.7956
▁Alex	-10.7957
▁translation	-10.7961
▁interactions	-10.7962
▁Col	-10.7963
▁resulted	-10.7965
▁crash	-10.7969
ants	-10.797
▁Story	-10.7971
▁bathroom	-10.798
▁regulation	-10.7982
▁Wikipedia	-10.7995
▁accessible	-10.7995
▁layers	-10.7995
▁minister	-10.7996
tan	-10.8001
▁meals	-10.8003
▁choosing	-10.8004
▁steam	-10.8004
▁chat	-10.8005
su	-10.8006
▁browser	-10.8007
how	-10.8011
ily	-10.8022
Mo	-10.8026
ero	-10.8041
mann	-10.8041
illa	-10.8043
▁Credit	-10.8044
▁shell	-10.8045
▁wanting	-10.8045
58	-10.8047
▁wage	-10.8051
▁mechanisms	-10.8052
72	-10.8054
▁apparent	-10.8054
gg	-10.806
▁pa	-10.8065
▁impressive	-10.8065
▁User	-10.807
ons	-10.8074
▁stability	-10.8076
▁Wood	-10.8077
▁holiday	-10.808
including	-10.8085
ene	-10.8087
▁guidance	-10.8088
▁Support	-10.809
fully	-10.8095
▁Heart	-10.8096
Co	-10.8098
▁requirement	-10.8098
▁representation	-10.8098
▁Ga	-10.8101
▁Irish	-10.8104
▁feeding	-10.8108
▁Donald	-10.8112
▁searching	-10.8113
yan	-10.8113
▁Full	-10.8115
▁capabilities	-10.8124
town	-10.8125
rich	-10.8132
▁creatures	-10.8137
▁orbit	-10.8139
▁intelligent	-10.8141
▁trends	-10.8141
ich	-10.8142
world	-10.8143
▁assault	-10.8143
▁raising	-10.8143
▁League	-10.8149
▁oral	-10.8151
▁Linux	-10.8153
76	-10.8157
▁Jones	-10.8157
71	-10.8161
SE	-10.8164
▁37	-10.8171
▁grid	-10.8173
▁aggressive	-10.8178
▁cure	-10.8181
▁slave	-10.8183
▁evaluate	-10.8185
▁contemporary	-10.8185
▁approved	-10.8186
▁trail	-10.819
▁Mu	-10.8192
▁mortgage	-10.8198
▁Modern	-10.8198
▁1960	-10.8199
▁losses	-10.8199
▁hook	-10.82
▁threats	-10.82
▁excessive	-10.8201
▁Model	-10.8203
▁Special	-10.8204
▁Nothing	-10.8205
bed	-10.8206
▁lifetime	-10.8209
▁beer	-10.821
▁Valley	-10.8211
▁damaged	-10.8221
lay	-10.8222
▁struck	-10.8222
▁Rather	-10.8223
▁ownership	-10.8223
▁tied	-10.8223
▁Study	-10.8224
▁Language	-10.8224
▁Er	-10.8224
▁Feb	-10.8225
▁stroke	-10.8227
▁Follow	-10.8227
rian	-10.823
91	-10.823
▁arrested	-10.823
▁Carolina	-10.8234
human	-10.8237
▁lips	-10.8247
▁jail	-10.8247
▁uniform	-10.8248
▁(18	-10.8253
ux	-10.8258
being	-10.8259
▁TO	-10.8261
▁witness	-10.8262
▁channels	-10.8264
ug	-10.827
▁parameters	-10.8273
▁legitimate	-10.8273
▁Order	-10.8275
▁fed	-10.8275
▁hip	-10.8285
▁marks	-10.829
▁resolve	-10.8291
▁tons	-10.8292
▁edit	-10.8292
▁BC	-10.8296
▁Too	-10.8298
▁Jun	-10.8301
ku	-10.8307
▁shares	-10.8309
▁distinction	-10.8313
▁cheaper	-10.8313
▁spell	-10.8317
ular	-10.832
▁criticism	-10.8321
▁Ser	-10.8326
▁Non	-10.8328
▁cr	-10.8329
▁stations	-10.8331
▁Committee	-10.8333
▁Main	-10.8335
pin	-10.8336
▁laser	-10.8336
ei	-10.8337
▁desert	-10.834
▁actors	-10.834
▁assess	-10.8341
cer	-10.8343
▁oh	-10.8343
▁tri	-10.8348
▁adapt	-10.8351
▁Dar	-10.8352
▁prominent	-10.8358
▁divide	-10.8359
str	-10.836
▁cord	-10.836
zy	-10.836
row	-10.8363
▁investigate	-10.8364
▁ruling	-10.8371
▁Had	-10.8373
▁continuous	-10.8375
▁accomplish	-10.8375
▁mini	-10.8376
▁acceptable	-10.8377
▁inform	-10.8382
▁tap	-10.8382
▁confusion	-10.8383
▁applies	-10.8383
▁CEO	-10.8384
▁hat	-10.8385
▁1/2	-10.8386
▁Contact	-10.8386
▁priority	-10.8387
ros	-10.8387
81	-10.8387
▁phones	-10.8389
▁Pakistan	-10.8393
▁Hey	-10.8394
▁damn	-10.8394
▁boxes	-10.8396
▁Third	-10.8398
▁covering	-10.8402
▁Northern	-10.8408
▁enforcement	-10.8408
▁Ja	-10.8409
▁platforms	-10.8412
mus	-10.8413
▁bother	-10.8415
ual	-10.8415
ration	-10.8417
IP	-10.8417
bin	-10.8422
▁horses	-10.8424
▁substantial	-10.8426
▁wing	-10.8429
1.	-10.8432
▁Sign	-10.8434
▁bra	-10.8434
▁collective	-10.8437
power	-10.8438
▁vol	-10.8441
2)	-10.8444
▁equation	-10.8445
▁reactions	-10.8445
var	-10.8446
▁AD	-10.8446
▁voltage	-10.8449
▁intent	-10.8449
▁drives	-10.845
▁fiber	-10.8451
▁Reading	-10.8452
▁attacked	-10.8452
▁dramatic	-10.8458
▁flesh	-10.8458
▁addiction	-10.8458
▁temporary	-10.8461
PS	-10.8462
▁shower	-10.8463
▁county	-10.8466
▁Blog	-10.8468
▁mono	-10.8469
▁logical	-10.8472
▁crop	-10.8477
▁shame	-10.8483
▁experiencing	-10.8483
▁sorts	-10.8488
▁assumed	-10.8496
▁accuracy	-10.8498
ix	-10.8505
▁ads	-10.8506
▁Come	-10.8507
▁Boston	-10.8509
▁convinced	-10.8511
▁Angel	-10.8513
CC	-10.8517
▁PS	-10.852
▁sauce	-10.8521
▁Night	-10.8523
▁shelter	-10.8524
▁container	-10.8524
▁Father	-10.8526
ick	-10.8526
▁IN	-10.853
▁38	-10.8531
▁Further	-10.8533
▁proposal	-10.8535
▁adopt	-10.854
▁Hard	-10.8543
▁monthly	-10.8544
▁Bad	-10.8546
▁concerning	-10.8549
▁deals	-10.8552
▁expenses	-10.8553
▁el	-10.8555
▁(2)	-10.8557
▁beneath	-10.8559
▁fraud	-10.8559
▁disc	-10.8559
▁wa	-10.8559
▁NO	-10.8559
▁Board	-10.856
▁fucking	-10.8566
▁Down	-10.8566
▁150	-10.8569
▁democratic	-10.8573
ub	-10.8584
▁tracks	-10.8586
▁preserve	-10.8587
▁emphasis	-10.8589
▁visitors	-10.859
cc	-10.8594
▁providers	-10.8596
▁incredible	-10.8597
ell	-10.8605
▁Si	-10.8607
just	-10.8608
SC	-10.8612
▁>>	-10.8613
▁Ya	-10.8616
aries	-10.8617
▁lock	-10.862
▁DO	-10.8621
▁Ocean	-10.8622
▁modified	-10.8623
▁Francisco	-10.8623
▁Jackson	-10.8624
▁thinks	-10.8628
▁ought	-10.8628
▁influenced	-10.8629
▁protecting	-10.8631
▁Ray	-10.8637
▁Max	-10.8638
ano	-10.8639
▁establishment	-10.8639
▁examination	-10.8639
ute	-10.864
▁occasionally	-10.8641
▁struggling	-10.8648
▁nutrition	-10.8653
▁Val	-10.8654
▁van	-10.8656
▁Em	-10.8656
▁upset	-10.8658
ough	-10.8659
▁kingdom	-10.8661
▁expertise	-10.8662
▁dental	-10.8662
RA	-10.8663
▁toilet	-10.8664
▁thrown	-10.8677
▁Due	-10.8678
62	-10.8679
del	-10.8679
▁hunting	-10.8681
▁conversion	-10.8687
▁roads	-10.8688
▁viewed	-10.8697
Ma	-10.8702
▁subsequent	-10.8702
▁addressed	-10.8704
made	-10.8707
▁demonstrated	-10.8707
▁Tell	-10.8708
▁meta	-10.8708
eb	-10.8709
▁Mag	-10.8711
▁agenda	-10.8712
▁Ve	-10.8712
▁fate	-10.8713
▁honey	-10.8714
des	-10.8715
▁powder	-10.8719
▁em	-10.872
▁attempted	-10.872
▁replied	-10.8725
▁virtually	-10.8728
LA	-10.8729
▁passes	-10.8731
▁mouse	-10.8732
▁distributed	-10.8733
ec	-10.8734
▁lowest	-10.8735
aka	-10.8737
▁focusing	-10.8738
▁radical	-10.8738
▁injured	-10.874
-5	-10.8741
▁dates	-10.8745
▁reward	-10.8746
▁possibilities	-10.8751
▁shadow	-10.8751
▁recover	-10.8754
▁bin	-10.8754
SP	-10.8754
▁magazine	-10.8757
▁Edward	-10.8763
▁conservation	-10.8764
▁Son	-10.8766
▁restrictions	-10.8767
matic	-10.877
PM	-10.8777
ami	-10.8779
▁bills	-10.8779
▁enormous	-10.878
▁entering	-10.8784
▁pocket	-10.8789
▁agricultural	-10.879
sta	-10.879
▁specified	-10.879
▁mainstream	-10.879
▁Eric	-10.8792
▁Text	-10.8792
▁indicated	-10.8794
▁convert	-10.8795
om	-10.8795
▁purchased	-10.88
▁65	-10.8801
▁persons	-10.8806
▁silent	-10.8806
▁Posts	-10.8812
▁bug	-10.8822
▁pit	-10.8823
▁nest	-10.8827
▁recommendations	-10.8828
▁precise	-10.8832
▁Eastern	-10.8832
New	-10.8836
▁celebrate	-10.8837
▁compound	-10.8838
▁tears	-10.8841
1,	-10.8843
▁strategic	-10.8843
▁Captain	-10.8846
▁Blood	-10.8847
▁delay	-10.8848
▁Sarah	-10.8857
▁Line	-10.8859
▁sections	-10.8859
▁speaker	-10.8861
▁maintained	-10.8862
▁insight	-10.8862
▁Join	-10.8867
▁collaboration	-10.8868
ect	-10.8869
▁summary	-10.887
▁stack	-10.8875
zz	-10.8876
▁Community	-10.8881
▁minimal	-10.8885
▁assistant	-10.8885
▁introduce	-10.8887
▁respectively	-10.8887
▁suggestions	-10.8888
▁alarm	-10.8888
▁sword	-10.8891
▁climb	-10.8891
▁innocent	-10.8894
▁Low	-10.8896
gh	-10.8901
Fi	-10.8903
▁III	-10.8904
▁tab	-10.8904
▁Doctor	-10.8905
▁Link	-10.8905
cap	-10.8906
▁applying	-10.8906
▁council	-10.8907
▁engaging	-10.8907
▁Ken	-10.8908
▁worker	-10.8909
▁flash	-10.8918
▁belt	-10.8921
▁surely	-10.8922
▁Vietnam	-10.8922
Why	-10.8923
rick	-10.8925
▁Early	-10.8926
▁reflection	-10.8926
▁pulling	-10.8927
▁actor	-10.8928
CO	-10.8929
▁1996	-10.8935
Yes	-10.8936
▁inspiration	-10.8938
▁accused	-10.8939
▁confident	-10.894
▁tends	-10.8944
▁Revolution	-10.8947
▁singing	-10.8948
▁continuing	-10.8949
▁exercises	-10.8949
▁cluster	-10.8949
uri	-10.8955
▁transaction	-10.8958
MP	-10.896
ae	-10.8962
▁darkness	-10.8968
▁stretch	-10.897
▁filling	-10.897
▁checked	-10.8973
▁spectrum	-10.8976
▁spaces	-10.8976
▁compete	-10.8978
▁Services	-10.8978
tain	-10.898
▁brothers	-10.898
▁Nick	-10.8981
▁seats	-10.8982
▁boot	-10.8984
▁handling	-10.8986
▁participation	-10.8986
▁removal	-10.8986
▁technological	-10.8986
▁retain	-10.8987
▁strain	-10.8987
▁conscious	-10.8987
▁sake	-10.8988
▁founded	-10.8988
▁protest	-10.8989
▁Christianity	-10.8992
▁strict	-10.8994
▁loving	-10.8995
zer	-10.8995
Ra	-10.8998
▁finance	-10.9001
▁Something	-10.9004
▁Self	-10.9006
▁harsh	-10.901
▁evolved	-10.9011
▁existed	-10.9012
▁attempting	-10.9012
od	-10.9012
▁Sen	-10.9014
▁juice	-10.9016
tar	-10.902
▁amongst	-10.902
▁Nor	-10.9023
▁mg	-10.9023
▁tracking	-10.9026
▁po	-10.9026
▁Okay	-10.9026
▁1997	-10.9027
▁punishment	-10.9027
▁composed	-10.903
▁employer	-10.903
▁Small	-10.9031
▁belong	-10.9033
▁precisely	-10.9036
ox	-10.9037
▁Club	-10.9039
bot	-10.9041
▁grain	-10.9041
▁texture	-10.9042
▁references	-10.9046
▁installation	-10.9046
▁organ	-10.9049
▁preferred	-10.9054
▁implications	-10.9054
▁resist	-10.9057
▁managers	-10.9057
▁analyze	-10.9061
▁moderate	-10.9063
source	-10.9064
▁drinks	-10.9066
▁encouraged	-10.9075
▁addresses	-10.9075
html	-10.908
tes	-10.9086
▁Boy	-10.909
▁Print	-10.9093
▁identical	-10.9093
▁observation	-10.9093
▁landing	-10.9093
ria	-10.9095
▁gather	-10.9096
▁destination	-10.9096
▁brilliant	-10.9096
▁Way	-10.91
▁mining	-10.9102
▁Mother	-10.9109
▁Port	-10.9111
lie	-10.9116
▁39	-10.9118
▁desk	-10.9119
▁printed	-10.9119
▁execution	-10.9119
▁labour	-10.912
sk	-10.9124
▁arts	-10.9125
An	-10.9132
▁fired	-10.9132
▁vice	-10.9135
gate	-10.9135
▁COVID	-10.9136
▁Chief	-10.9137
▁MA	-10.9138
▁Based	-10.9139
▁checking	-10.9141
win	-10.9144
▁molecules	-10.9145
▁agriculture	-10.9146
▁mold	-10.9147
▁productivity	-10.9147
▁stops	-10.9148
▁span	-10.9148
‘	-10.9149
Google	-10.9149
bound	-10.915
ena	-10.9152
▁Say	-10.9152
▁Ste	-10.9156
hard	-10.9158
▁productive	-10.9159
lam	-10.9159
▁prescription	-10.916
▁lens	-10.916
▁attorney	-10.9162
cat	-10.9165
▁quit	-10.9166
▁Dead	-10.9166
▁Number	-10.917
▁integrated	-10.9174
▁Cu	-10.9181
▁bull	-10.9183
▁lets	-10.9184
▁stayed	-10.9184
▁75	-10.9185
▁abstract	-10.9186
▁staying	-10.9188
2,	-10.9188
▁pride	-10.9188
▁spoken	-10.9196
▁ok	-10.9199
▁probability	-10.92
▁subtle	-10.9202
ches	-10.9202
ett	-10.9206
oon	-10.9209
▁fantasy	-10.9214
▁Afghanistan	-10.9214
▁Hollywood	-10.9214
61	-10.9214
▁impacts	-10.9215
▁consistently	-10.9217
▁engines	-10.9218
▁settled	-10.9218
▁def	-10.9219
▁hanging	-10.9223
▁sh	-10.9228
▁Stephen	-10.9228
▁inflammation	-10.9229
▁flower	-10.923
link	-10.9234
AL	-10.9238
▁Library	-10.9244
▁Mrs	-10.9246
ES	-10.9248
tel	-10.9254
▁settle	-10.9255
▁Battle	-10.9256
▁Card	-10.9256
▁Fi	-10.9257
▁Nations	-10.9259
▁behaviors	-10.9268
▁mystery	-10.9268
▁considerable	-10.9269
▁observations	-10.9281
▁approval	-10.9282
▁bite	-10.9283
▁adequate	-10.9288
▁hopes	-10.9289
self	-10.9292
▁rating	-10.9294
▁Select	-10.9295
▁Santa	-10.9297
▁inflation	-10.9298
▁Saint	-10.9301
▁Han	-10.9303
▁1950	-10.9303
▁separated	-10.9304
▁sink	-10.9304
▁plug	-10.9307
▁shake	-10.9309
▁commenting	-10.9311
▁targeted	-10.9311
▁integration	-10.9313
▁lake	-10.9313
cur	-10.9315
All	-10.9318
▁pursue	-10.9318
ign	-10.9319
rus	-10.9327
▁Angeles	-10.9328
▁spots	-10.9329
-4	-10.933
▁actively	-10.9331
▁environments	-10.9332
▁profits	-10.9335
text	-10.9336
▁balanced	-10.9344
Ro	-10.9354
▁Trans	-10.9356
▁branches	-10.9357
▁associate	-10.9359
active	-10.936
▁tune	-10.936
▁scientist	-10.9361
▁module	-10.9362
▁crops	-10.9363
▁bath	-10.9363
6%	-10.9363
▁15.	-10.9364
▁quantity	-10.9364
▁fossil	-10.937
▁lists	-10.9372
▁marine	-10.9373
▁linear	-10.9373
▁treating	-10.9374
▁perceived	-10.9376
▁referring	-10.9379
▁Cancer	-10.9379
▁traveling	-10.9382
▁th	-10.9385
▁shots	-10.9387
▁heaven	-10.9389
▁panic	-10.939
▁fascinating	-10.9391
▁imagination	-10.9391
▁bonds	-10.9396
▁Prince	-10.94
▁Put	-10.94
▁importantly	-10.9402
▁restore	-10.9406
▁£	-10.9412
NA	-10.9413
▁Pen	-10.9413
▁42	-10.9414
step	-10.9414
▁rape	-10.9415
rid	-10.9419
▁Academy	-10.9419
▁shield	-10.9423
▁OF	-10.9428
▁50%	-10.9431
▁anybody	-10.9439
▁golden	-10.9442
▁Jane	-10.9442
▁Spirit	-10.9447
▁graph	-10.9447
▁Brian	-10.9458
▁Wal	-10.9458
▁mountains	-10.946
good	-10.9462
▁ba	-10.9463
▁dominant	-10.9465
▁pipe	-10.9466
▁Ly	-10.9469
▁contribution	-10.9469
nk	-10.947
▁hits	-10.9472
3%	-10.9474
▁Bitcoin	-10.9475
▁removing	-10.9475
▁managing	-10.9477
▁adventure	-10.9477
▁Cal	-10.9481
▁surprising	-10.9483
▁setup	-10.9485
▁SO	-10.9488
▁Fe	-10.9489
▁closing	-10.9489
▁ignored	-10.949
▁bags	-10.9493
▁Actually	-10.9493
▁Comp	-10.9494
▁ko	-10.9496
bus	-10.9498
nar	-10.9499
▁entertainment	-10.9503
▁arise	-10.9508
▁intensity	-10.9508
▁Market	-10.9508
born	-10.9509
▁threatened	-10.951
▁pitch	-10.9511
▁400	-10.9512
je	-10.9516
▁poetry	-10.9517
nce	-10.9517
▁Python	-10.9521
test	-10.9523
“	-10.9528
▁District	-10.953
there	-10.9533
code	-10.9536
▁headed	-10.9536
ack	-10.9537
▁Download	-10.9537
▁complexity	-10.9539
▁instances	-10.954
▁64	-10.9545
▁cameras	-10.9546
▁supplement	-10.9547
▁laptop	-10.9555
-8	-10.9557
▁gravity	-10.9558
1)	-10.9558
page	-10.9562
ography	-10.9564
tr	-10.9574
▁limitations	-10.9575
shi	-10.9577
lia	-10.9582
▁variation	-10.9583
▁thereby	-10.9585
▁measurement	-10.9588
▁shorter	-10.9591
▁Class	-10.9595
▁explaining	-10.9595
7%	-10.9596
TC	-10.9599
▁quantum	-10.9601
▁keys	-10.9602
▁mature	-10.9602
▁earned	-10.9602
nu	-10.9605
▁44	-10.9606
▁relate	-10.9611
face	-10.9611
▁1000	-10.9611
▁representative	-10.9613
▁empire	-10.9615
▁Besides	-10.9615
▁flexible	-10.9615
▁Nu	-10.9616
▁ski	-10.9624
rie	-10.9626
▁10%	-10.9631
▁meetings	-10.9631
▁begun	-10.9634
▁55	-10.9635
ral	-10.9641
▁curve	-10.9642
▁navigation	-10.9643
▁Michigan	-10.9643
▁transactions	-10.9645
▁slavery	-10.9648
▁locked	-10.9649
▁cm	-10.9651
▁Mis	-10.9652
▁neutral	-10.9654
▁breakfast	-10.9657
▁corruption	-10.9658
▁coat	-10.9658
ets	-10.9659
▁structural	-10.9663
▁Hand	-10.9666
^	-10.9671
star	-10.9674
game	-10.9677
▁wet	-10.9677
▁$3	-10.968
▁wider	-10.968
▁Looking	-10.968
▁Run	-10.9682
▁engineers	-10.9684
▁citizen	-10.9687
▁abortion	-10.969
specific	-10.9695
▁eastern	-10.9696
cast	-10.9697
▁Following	-10.9698
▁boundaries	-10.97
▁Brazil	-10.97
▁diagnosed	-10.9709
▁forgotten	-10.9711
▁creature	-10.9714
▁tunnel	-10.9714
▁widespread	-10.9714
▁courses	-10.9714
-11	-10.9715
▁Android	-10.9717
Le	-10.9719
▁maps	-10.9724
▁entity	-10.9728
▁SE	-10.9729
▁lung	-10.973
▁alter	-10.9734
▁ethical	-10.9738
▁innovative	-10.9742
▁entrance	-10.9742
▁preventing	-10.9742
▁seemingly	-10.9743
▁insulin	-10.9743
▁oven	-10.9743
▁reduces	-10.9743
▁Until	-10.9743
▁shipping	-10.9744
▁newly	-10.9745
▁knee	-10.9746
▁broadcast	-10.9751
▁PA	-10.9755
sky	-10.9756
▁Phil	-10.9756
ju	-10.9756
▁copyright	-10.9757
▁ST	-10.9762
▁rocks	-10.9763
▁binding	-10.9765
ups	-10.9768
eh	-10.9772
▁hybrid	-10.9774
mat	-10.9774
▁Mind	-10.9774
▁satellite	-10.9775
RC	-10.9778
fu	-10.9778
▁acknowledge	-10.9779
▁fallen	-10.9784
▁moisture	-10.9785
▁excuse	-10.9786
▁intention	-10.9789
▁dig	-10.9793
▁export	-10.9798
▁league	-10.9799
▁regarded	-10.98
▁grave	-10.9801
▁transform	-10.9801
▁pink	-10.9803
▁directory	-10.9805
▁Win	-10.9808
▁surrounded	-10.9808
▁slip	-10.9814
▁Fox	-10.9814
ates	-10.9815
vis	-10.9815
▁2021	-10.9816
gal	-10.9817
93	-10.9822
bble	-10.9823
▁Simon	-10.9824
▁ju	-10.9824
▁convey	-10.9824
▁URL	-10.9825
▁alien	-10.9825
▁abandoned	-10.9825
▁registered	-10.9826
▁courts	-10.9828
▁rocket	-10.983
▁Cell	-10.983
▁Color	-10.9833
▁mere	-10.984
▁entitled	-10.9843
▁scores	-10.9843
▁presidential	-10.9845
▁Imagine	-10.9845
▁temple	-10.9846
▁pump	-10.9846
▁Louis	-10.9851
▁ME	-10.9855
▁grasp	-10.9857
▁Allah	-10.9859
▁vessels	-10.9864
▁comic	-10.9864
▁asset	-10.9865
▁rank	-10.9868
▁chip	-10.9868
gra	-10.9869
-20	-10.9871
▁drops	-10.9871
ture	-10.9872
▁Carl	-10.9876
▁instant	-10.9877
▁Bu	-10.9882
▁essence	-10.9886
▁Ki	-10.9887
▁opponent	-10.989
▁("	-10.9899
▁Pay	-10.9902
IC	-10.9903
▁Talk	-10.9907
~	-10.9907
osis	-10.9912
put	-10.9915
▁Saudi	-10.9916
▁behave	-10.9917
▁Price	-10.9918
▁wealthy	-10.9918
▁offensive	-10.9918
▁figured	-10.9919
▁designs	-10.9919
▁paragraph	-10.9919
▁ticket	-10.992
▁manufacturers	-10.9921
▁(3	-10.9921
▁fitness	-10.9923
ole	-10.9926
▁estimates	-10.9931
▁Stone	-10.9931
▁cholesterol	-10.9931
▁Atlantic	-10.9934
▁heading	-10.9938
▁dear	-10.994
▁genre	-10.9942
▁updates	-10.9943
▁Turkey	-10.9944
▁crack	-10.9944
▁combine	-10.9946
▁detection	-10.9946
▁offense	-10.9948
▁submit	-10.9958
▁ISBN	-10.9959
▁hydrogen	-10.9959
▁possess	-10.9968
▁requests	-10.9969
▁experimental	-10.9975
▁meters	-10.9975
▁males	-10.9976
▁assembly	-10.9978
▁discrimination	-10.9978
▁physician	-10.9979
▁Off	-10.9981
fire	-10.9983
▁tables	-10.9984
eo	-10.9984
ore	-10.9989
ado	-10.9991
▁centers	-10.9992
▁settlement	-10.9995
▁conversations	-10.9997
▁sensor	-11
▁Elizabeth	-11.0002
▁fever	-11.0004
▁minority	-11.0006
pl	-11.0011
▁trials	-11.0012
▁directions	-11.0015
▁progressive	-11.0015
▁visiting	-11.0016
▁Computer	-11.0018
▁constructed	-11.002
▁Wild	-11.0023
▁Field	-11.0024
Man	-11.0026
▁09	-11.0031
▁immigration	-11.0032
▁buried	-11.0032
▁patch	-11.0036
▁nurse	-11.0038
▁yard	-11.0038
▁expense	-11.0039
▁safely	-11.0039
▁absorb	-11.004
▁acids	-11.0042
▁Point	-11.0044
▁throwing	-11.0044
tech	-11.0044
▁historic	-11.0044
▁emotion	-11.0045
▁corporations	-11.0048
▁folder	-11.0053
▁Total	-11.0055
▁riding	-11.0056
▁mild	-11.006
▁simultaneously	-11.0064
tle	-11.0065
▁Op	-11.0068
▁trace	-11.0068
▁returning	-11.0074
▁mod	-11.0076
ele	-11.0076
▁presents	-11.0078
av	-11.008
▁awful	-11.008
▁Child	-11.0083
▁gods	-11.0084
▁scared	-11.0085
ters	-11.0091
▁retirement	-11.0091
▁bow	-11.0092
▁vi	-11.0092
▁Return	-11.0095
▁romantic	-11.0096
▁Matthew	-11.0097
▁static	-11.0097
hole	-11.0097
▁factory	-11.0097
gram	-11.01
▁graduate	-11.0103
▁effectiveness	-11.0103
▁_	-11.0104
▁08	-11.0106
▁ensuring	-11.0106
▁LA	-11.0106
▁sessions	-11.0107
▁distinguish	-11.0109
▁workplace	-11.0112
▁calculate	-11.0117
▁speakers	-11.0122
tation	-11.0123
▁Getting	-11.0124
och	-11.0124
▁compounds	-11.0125
▁tin	-11.0125
▁Native	-11.0125
▁contributed	-11.0126
▁slight	-11.0127
path	-11.0128
▁tower	-11.0128
▁protocol	-11.0131
▁Oil	-11.0133
oh	-11.0134
€	-11.0136
▁Mor	-11.0138
▁aimed	-11.0138
▁$\	-11.014
TA	-11.014
▁terminal	-11.0142
onic	-11.0144
▁kidney	-11.0145
▁popularity	-11.0147
▁Local	-11.0149
▁duration	-11.0151
▁focuses	-11.0153
▁lighting	-11.0156
?!	-11.0158
Ha	-11.0158
dom	-11.0164
▁Policy	-11.0165
▁divine	-11.0165
▁calculated	-11.0168
▁Ram	-11.0171
▁confirm	-11.018
iff	-11.018
▁minimize	-11.0185
▁Know	-11.0187
▁trauma	-11.0187
▁killer	-11.0187
▁bias	-11.0191
▁Level	-11.0192
▁construct	-11.0193
▁curriculum	-11.0195
▁jury	-11.0196
▁None	-11.0197
▁immigrants	-11.0197
▁True	-11.02
▁Cho	-11.02
▁Different	-11.021
▁Pet	-11.021
▁delicious	-11.021
▁Dutch	-11.0211
▁tie	-11.0212
▁cute	-11.0213
▁reveals	-11.0213
▁bars	-11.0215
▁scan	-11.0215
▁fool	-11.0221
▁convince	-11.0221
▁utilize	-11.0221
▁blast	-11.0224
▁gaming	-11.0225
▁Hell	-11.0227
▁wondered	-11.0229
▁slaves	-11.0232
▁printing	-11.0237
tus	-11.0237
▁supporters	-11.024
▁vacation	-11.0241
ika	-11.0242
▁mu	-11.0244
iva	-11.0244
▁Digital	-11.0245
▁isolated	-11.0246
▁institution	-11.0249
▁corresponding	-11.0251
▁Hospital	-11.0255
gent	-11.0255
rant	-11.0257
▁steal	-11.0257
▁aims	-11.0258
pha	-11.0259
▁publication	-11.026
▁Za	-11.0263
▁AC	-11.0271
▁sweat	-11.0271
▁texts	-11.0272
▁Rose	-11.0273
mic	-11.0274
▁viruses	-11.0274
▁Case	-11.0277
ida	-11.0278
▁Fair	-11.028
▁gathering	-11.0284
▁interior	-11.0285
▁calcium	-11.0285
▁Future	-11.0285
▁consent	-11.0285
▁Action	-11.0286
▁Georgia	-11.0289
▁fails	-11.0292
▁Visit	-11.0293
most	-11.0293
▁flip	-11.0294
▁wound	-11.0294
▁Cap	-11.0295
▁sentences	-11.0298
▁emerging	-11.03
▁Secretary	-11.0301
▁mat	-11.0301
▁fishing	-11.0302
▁cock	-11.0303
▁Site	-11.0306
▁myth	-11.0307
▁processed	-11.0308
▁rooms	-11.0309
▁deserve	-11.031
▁segment	-11.0311
▁engineer	-11.0314
▁mathematical	-11.0315
▁heating	-11.0321
▁realm	-11.0324
where	-11.0327
ii	-11.0327
▁pe	-11.0328
▁remarkable	-11.0331
▁prize	-11.0334
▁IS	-11.0335
▁admitted	-11.0337
las	-11.0339
▁00	-11.0343
NC	-11.0346
▁macro	-11.0348
La	-11.0349
▁insights	-11.035
ima	-11.0356
▁repeatedly	-11.0358
▁Week	-11.0359
pan	-11.036
late	-11.0361
▁1995	-11.0362
▁Rob	-11.0362
▁wings	-11.0363
▁keyboard	-11.0363
▁SP	-11.0367
▁Others	-11.0368
▁classical	-11.037
▁del	-11.037
▁rail	-11.0371
▁rescue	-11.0373
▁Greece	-11.0376
ati	-11.0381
▁Similarly	-11.0383
▁Trade	-11.0384
▁Turn	-11.0385
▁burned	-11.0392
▁Ohio	-11.0393
▁ridiculous	-11.0396
▁contributions	-11.0397
▁Cost	-11.0397
▁acquire	-11.0403
▁gate	-11.0403
▁proportion	-11.0405
▁qualities	-11.0406
▁oldest	-11.0406
▁generic	-11.0407
▁Environmental	-11.0407
Don	-11.0408
▁investing	-11.0409
gon	-11.0409
▁promoting	-11.0409
▁terror	-11.041
▁exam	-11.041
▁genuine	-11.0412
▁communications	-11.0415
▁traits	-11.0415
▁Questions	-11.0418
▁Fund	-11.0421
▁uncomfortable	-11.0421
▁governor	-11.0424
▁Posted	-11.0424
▁honestly	-11.0425
IL	-11.0426
▁gathered	-11.0427
▁difficulties	-11.043
OL	-11.0431
▁NY	-11.0432
▁embrace	-11.0434
lib	-11.0435
dic	-11.0436
▁Colorado	-11.0437
▁consequence	-11.0437
▁3,	-11.0446
file	-11.0447
▁Sorry	-11.0452
▁measurements	-11.0456
▁supplements	-11.0456
▁Area	-11.0457
Ex	-11.0458
▁op	-11.0461
▁Tax	-11.0463
ancy	-11.0463
▁facilitate	-11.0464
▁batteries	-11.0468
▁Wilson	-11.0468
space	-11.0474
▁ke	-11.0479
▁biology	-11.0479
▁Building	-11.048
▁glasses	-11.0482
▁pandemic	-11.0483
▁swimming	-11.0483
CT	-11.0484
▁regulate	-11.0484
ome	-11.0485
other	-11.0487
▁su	-11.0487
▁suggesting	-11.049
▁gang	-11.0491
meter	-11.0491
ulation	-11.0496
▁identification	-11.0498
▁utility	-11.0498
3.	-11.0498
▁invention	-11.05
▁remembered	-11.0501
▁bands	-11.0508
▁nuts	-11.0508
▁lean	-11.051
▁peer	-11.0513
▁sizes	-11.0513
▁spine	-11.0513
▁premium	-11.0513
200	-11.0514
▁Section	-11.0515
▁involvement	-11.0516
DE	-11.0517
▁je	-11.0518
▁investments	-11.0518
▁bullet	-11.0518
▁discipline	-11.0519
oy	-11.052
▁www	-11.0522
▁mile	-11.0526
▁tonight	-11.0531
▁sacrifice	-11.0532
▁Pu	-11.0533
▁Short	-11.0538
DS	-11.0542
▁emerged	-11.0543
▁toys	-11.0543
▁insects	-11.0547
▁outer	-11.0548
▁elite	-11.0548
ski	-11.0549
.....	-11.055
tis	-11.0556
▁Mexican	-11.056
▁horrible	-11.056
▁unemployment	-11.056
▁Cha	-11.056
▁magical	-11.056
▁heal	-11.0561
▁slide	-11.0564
▁mill	-11.0565
▁realistic	-11.0566
Pro	-11.0566
▁dishes	-11.0566
▁tackle	-11.0566
ax	-11.0572
▁ver	-11.0575
▁Cy	-11.0576
▁pile	-11.0576
cle	-11.0582
▁airport	-11.0583
ural	-11.0588
Bo	-11.0591
▁distant	-11.0591
▁invasion	-11.0591
mu	-11.0591
▁Daily	-11.0594
▁deny	-11.0596
ency	-11.0597
▁incorporate	-11.0597
▁vertical	-11.0597
▁prevention	-11.0599
▁Sep	-11.0601
▁calendar	-11.0606
▁whilst	-11.0606
▁Disney	-11.0607
▁matches	-11.0608
▁sunlight	-11.0608
▁Dream	-11.0611
▁voted	-11.0611
IM	-11.0611
▁Avoid	-11.0613
▁friendship	-11.0614
▁Miss	-11.0614
▁restaurants	-11.0615
▁tear	-11.0615
▁shirt	-11.0616
▁Ok	-11.062
▁cyber	-11.0622
▁optimal	-11.0622
▁copper	-11.0623
▁tale	-11.0629
ban	-11.063
▁glucose	-11.0638
▁copies	-11.0638
▁brands	-11.0639
▁Bridge	-11.064
▁silly	-11.0642
▁binary	-11.0645
▁females	-11.0646
▁characteristic	-11.0646
▁odds	-11.0646
▁Fu	-11.0646
▁icon	-11.065
▁concluded	-11.0651
▁Parliament	-11.0653
▁Kar	-11.0654
▁enables	-11.0654
▁Lincoln	-11.0655
▁acquired	-11.0656
▁refuse	-11.0658
▁posting	-11.0665
▁shaped	-11.0668
▁Amendment	-11.0669
▁arrival	-11.0669
▁reasoning	-11.0669
▁Taylor	-11.0669
▁expanded	-11.067
▁discussions	-11.0671
▁organs	-11.0671
cut	-11.0675
▁hiding	-11.0675
▁Major	-11.0686
mor	-11.0692
▁query	-11.0693
▁Within	-11.0694
▁brush	-11.0696
ks	-11.0697
▁welfare	-11.07
any	-11.0702
▁Jacob	-11.0703
▁drag	-11.0703
▁servers	-11.0704
▁dozen	-11.0704
▁constitutional	-11.0705
▁displayed	-11.0707
uc	-11.0708
vy	-11.0709
▁sees	-11.0709
▁instantly	-11.0711
▁ruled	-11.0711
▁den	-11.0713
▁contest	-11.0714
▁Usually	-11.0716
▁timing	-11.0716
▁Garden	-11.0717
▁globe	-11.0719
▁picking	-11.0719
▁ya	-11.0723
▁dirt	-11.0724
▁jaw	-11.0725
RP	-11.0726
She	-11.0728
▁denied	-11.0732
▁Organization	-11.0732
▁Williams	-11.0732
lat	-11.0734
die	-11.0734
▁Jeff	-11.0735
▁Ali	-11.0737
▁personnel	-11.074
▁Cup	-11.0746
▁Scotland	-11.0747
▁marijuana	-11.0747
▁promised	-11.0748
▁drove	-11.0749
▁thumb	-11.0753
▁documentation	-11.0753
▁unfortunately	-11.0753
ese	-11.0755
▁Making	-11.0757
IA	-11.0758
minute	-11.076
▁gentle	-11.0761
▁venture	-11.0764
ust	-11.0764
▁bell	-11.0766
▁holy	-11.0769
▁Trust	-11.0769
▁flour	-11.0772
▁HTML	-11.0772
▁forests	-11.0774
▁habitat	-11.0778
▁discussing	-11.078
ras	-11.0781
▁asleep	-11.0782
▁defendant	-11.0784
▁twist	-11.0789
aki	-11.0793
eth	-11.0795
▁convenient	-11.0796
hood	-11.0797
▁doi	-11.08
▁robot	-11.0801
▁hi	-11.0802
▁Ever	-11.0803
▁consumed	-11.0804
▁strip	-11.0806
▁Want	-11.081
▁Hence	-11.0811
▁prayer	-11.0811
▁06	-11.0811
▁CPU	-11.0813
▁Below	-11.0813
▁Ash	-11.0815
▁alongside	-11.0816
▁Rick	-11.0816
▁apple	-11.0819
its	-11.0819
▁Games	-11.082
▁mice	-11.0822
▁dumb	-11.0826
▁vacuum	-11.0827
▁Travel	-11.0827
EL	-11.0827
hour	-11.0827
▁parking	-11.0833
▁crown	-11.0834
▁beans	-11.0836
-7	-11.0838
▁Nazi	-11.0841
▁Che	-11.0841
▁41	-11.0841
▁determining	-11.0843
▁Choose	-11.0843
▁Writing	-11.0846
▁exhibit	-11.0846
ending	-11.0846
▁Davis	-11.0847
▁badly	-11.0851
▁Micro	-11.0858
cher	-11.0863
4.	-11.0865
hal	-11.0866
▁Ze	-11.0868
▁balls	-11.0869
ened	-11.0871
/10	-11.0871
▁traditions	-11.0871
-18	-11.0873
▁steady	-11.0875
▁membrane	-11.0875
▁rec	-11.0877
▁Fall	-11.0878
▁unexpected	-11.0881
▁minerals	-11.0881
DA	-11.0887
▁detected	-11.0889
▁universities	-11.0891
▁Hitler	-11.0891
▁boring	-11.0891
▁Someone	-11.0893
▁stocks	-11.0893
▁crap	-11.0894
bs	-11.0896
▁trap	-11.0897
▁forming	-11.0903
real	-11.0904
value	-11.091
▁relax	-11.0911
▁neighbors	-11.0912
▁node	-11.0913
▁pretend	-11.0915
▁te	-11.092
rum	-11.0921
▁Administration	-11.0923
▁console	-11.0923
▁correlation	-11.0923
▁acute	-11.0923
▁interpret	-11.0924
▁wars	-11.0925
▁readily	-11.0926
▁worn	-11.0927
▁substances	-11.0927
▁styles	-11.0929
▁scratch	-11.0929
ement	-11.0933
▁resort	-11.0935
▁Bro	-11.0935
ath	-11.0937
▁preparing	-11.0939
▁indication	-11.0939
▁decay	-11.0939
▁rubber	-11.0939
▁palm	-11.094
ME	-11.0941
▁functioning	-11.0945
▁02	-11.0946
▁hunt	-11.0947
play	-11.0948
▁Stop	-11.0948
▁monster	-11.0951
ening	-11.0954
kan	-11.0955
▁lungs	-11.0955
▁concert	-11.0955
▁flood	-11.0957
▁commission	-11.0963
▁dirty	-11.0964
▁Ban	-11.0966
care	-11.0966
lands	-11.0968
▁Analysis	-11.0971
▁Machine	-11.0972
▁Hope	-11.0972
aging	-11.0972
▁Ac	-11.0972
▁coin	-11.0974
▁Jump	-11.0974
▁lovely	-11.0974
▁Whatever	-11.098
▁Really	-11.098
▁terrorist	-11.0982
▁justify	-11.0986
▁flexibility	-11.0987
▁affordable	-11.0992
▁Yo	-11.0993
▁Fan	-11.0994
▁knock	-11.0994
▁Ryan	-11.0994
▁''	-11.0995
only	-11.0995
▁reaches	-11.0997
▁failing	-11.0997
▁hormone	-11.1
▁graphics	-11.1002
▁1994	-11.1004
▁hungry	-11.1008
mes	-11.101
▁rolling	-11.1017
▁burst	-11.1019
ality	-11.1022
ock	-11.1023
▁43	-11.1023
▁renewable	-11.1024
▁spray	-11.1027
▁breathe	-11.1033
▁societies	-11.1036
▁precious	-11.1036
▁possession	-11.1038
▁leap	-11.1039
lor	-11.1039
▁hitting	-11.1042
▁occasion	-11.1042
▁thoroughly	-11.1042
▁Tra	-11.1045
▁MD	-11.1046
▁constitution	-11.1047
▁continent	-11.1048
foot	-11.1049
▁representing	-11.105
pri	-11.1053
▁tissues	-11.1054
▁grip	-11.1056
▁layout	-11.1056
ls	-11.1056
▁Ju	-11.1059
▁loves	-11.1061
▁checks	-11.1062
52	-11.1065
▁Cook	-11.1065
▁mathematics	-11.1068
▁meditation	-11.1068
▁claiming	-11.1068
▁contrary	-11.1069
▁baseball	-11.107
▁3:	-11.1073
▁Ye	-11.1074
▁Tony	-11.1075
▁automatic	-11.1075
mg	-11.1077
tive	-11.1078
▁Cold	-11.108
▁divorce	-11.1083
▁}	-11.1087
▁Bear	-11.109
▁improvements	-11.1099
data	-11.1101
▁Copyright	-11.1101
und	-11.1103
▁washing	-11.1104
til	-11.1105
yo	-11.1105
▁retail	-11.1109
▁Com	-11.111
▁solving	-11.1114
▁quest	-11.1114
▁Depend	-11.1117
▁unnecessary	-11.1118
▁Math	-11.1118
▁hill	-11.112
▁07	-11.1122
▁$5	-11.1127
▁remind	-11.1127
▁pulse	-11.1128
▁loaded	-11.1132
▁46	-11.1133
▁favourite	-11.1135
▁forum	-11.1135
9%	-11.1137
nn	-11.1139
cra	-11.1139
▁MO	-11.1142
▁Ron	-11.1143
lus	-11.1147
▁nowhere	-11.115
base	-11.1151
▁Treatment	-11.1151
▁gray	-11.1152
▁Better	-11.1153
▁employers	-11.1154
▁4,	-11.1155
▁der	-11.1165
▁controlling	-11.1166
▁literary	-11.1167
▁frozen	-11.1168
ique	-11.1168
ked	-11.117
▁molecular	-11.1172
▁des	-11.1174
▁accurately	-11.1175
gle	-11.1176
▁followers	-11.1177
ister	-11.1179
▁que	-11.118
ef	-11.1182
▁rejected	-11.1182
▁Vo	-11.1182
▁measuring	-11.1183
boy	-11.1184
▁Agency	-11.1187
▁Dave	-11.1187
card	-11.119
phone	-11.1192
via	-11.1193
▁compromise	-11.1198
▁avatar	-11.12
▁psychology	-11.12
▁integrity	-11.12
▁featured	-11.1201
cu	-11.1201
▁towns	-11.1202
▁gains	-11.1203
▁opens	-11.1203
▁occurring	-11.1207
▁Ford	-11.1208
▁shade	-11.1208
▁Five	-11.121
▁hopefully	-11.1212
▁dense	-11.1213
▁explosion	-11.1216
▁separation	-11.1216
▁sheep	-11.1218
cker	-11.1222
▁warrant	-11.1226
▁Para	-11.1227
▁complain	-11.123
▁scary	-11.124
▁equality	-11.1241
▁bonus	-11.1246
▁characterized	-11.1247
▁identifying	-11.1249
▁Dragon	-11.1252
▁guest	-11.1252
hen	-11.1252
▁golf	-11.1253
Al	-11.1255
▁developer	-11.1255
▁Access	-11.1255
date	-11.1257
high	-11.1263
.00	-11.1265
▁exploration	-11.1266
▁thirty	-11.1266
▁sacred	-11.1266
elle	-11.1267
▁Jason	-11.1267
▁contracts	-11.1267
▁knife	-11.1269
▁annoying	-11.1272
▁sensitivity	-11.1272
▁organisms	-11.1272
▁peaceful	-11.1274
▁cave	-11.1274
ith	-11.1277
▁wages	-11.1278
▁cooling	-11.1281
▁qualified	-11.1282
▁shed	-11.1284
din	-11.1285
▁shapes	-11.1285
sub	-11.1287
▁adaptation	-11.1289
▁Content	-11.1293
▁cloth	-11.1294
ora	-11.1299
▁CH	-11.13
▁Mass	-11.1302
▁Apr	-11.1308
rc	-11.131
pur	-11.1311
▁Br	-11.1315
▁Buy	-11.1316
▁describing	-11.1316
▁wildlife	-11.1317
▁bitter	-11.1318
▁pills	-11.1318
▁Bel	-11.1318
▁educated	-11.1319
▁Edit	-11.132
▁Plant	-11.1321
▁verse	-11.1323
rated	-11.1323
▁poorly	-11.1323
▁YOU	-11.1326
▁stones	-11.1326
▁favour	-11.1329
Po	-11.133
▁bat	-11.1332
▁treasure	-11.1333
verse	-11.1333
▁dioxide	-11.1333
▁implies	-11.1333
▁naked	-11.1333
▁FBI	-11.1335
▁campaigns	-11.1342
lit	-11.1344
▁Sand	-11.1347
00,000	-11.1348
▁robust	-11.1349
▁duties	-11.135
▁museum	-11.1354
▁converted	-11.1356
▁overwhelming	-11.1361
tur	-11.1362
▁gross	-11.1365
▁Mid	-11.1365
:10	-11.1366
lation	-11.1367
▁islands	-11.1372
▁Marine	-11.1374
▁Sta	-11.1375
▁2-	-11.1381
▁doctrine	-11.1383
▁yoga	-11.1383
▁Jul	-11.1384
RE	-11.1385
▁sophisticated	-11.1385
▁fence	-11.1386
aire	-11.1388
▁fifth	-11.1388
▁bold	-11.139
▁civilization	-11.1391
▁classified	-11.1392
TH	-11.1393
roll	-11.1399
-13	-11.1399
▁spouse	-11.14
kar	-11.1404
▁fl	-11.1406
mal	-11.141
▁drunk	-11.141
▁firms	-11.1411
▁mysterious	-11.1417
▁hypothesis	-11.1417
▁bid	-11.1417
case	-11.1417
▁Je	-11.1419
▁Obviously	-11.1421
stic	-11.1421
▁functionality	-11.1421
▁grace	-11.1422
▁racist	-11.1423
▁lands	-11.1426
▁chemistry	-11.1428
▁migration	-11.1428
ld	-11.1429
▁Bell	-11.143
▁Tar	-11.1432
▁Film	-11.1433
▁Zealand	-11.1433
▁greenhouse	-11.1436
▁Oxford	-11.1437
▁blend	-11.1438
▁Standard	-11.144
▁Email	-11.144
press	-11.144
▁assignment	-11.1441
▁invented	-11.1443
master	-11.1447
▁bits	-11.145
▁bedroom	-11.1451
▁eaten	-11.1452
▁Lin	-11.1454
▁Kong	-11.1459
▁Cloud	-11.1461
▁intend	-11.1462
▁promotion	-11.1463
▁nano	-11.1466
▁Ber	-11.1468
▁leaf	-11.1468
▁wrap	-11.147
▁Deep	-11.1473
▁backup	-11.1474
▁mm	-11.1477
▁objectives	-11.1478
▁scrap	-11.1479
”)	-11.148
load	-11.148
▁fo	-11.148
▁hydro	-11.1482
▁humor	-11.1482
place	-11.1482
▁frustration	-11.1484
PC	-11.1484
▁DVD	-11.1484
lly	-11.1485
500	-11.1486
▁cooked	-11.1492
▁chamber	-11.1495
▁Ger	-11.1496
▁arc	-11.1498
▁Multi	-11.1499
▁soap	-11.1501
▁substitute	-11.1501
▁seal	-11.1502
ame	-11.1502
8%	-11.1502
▁rush	-11.1506
▁Sex	-11.1507
▁profession	-11.1507
▁ecosystem	-11.1509
▁speaks	-11.151
▁avoiding	-11.1513
▁dragon	-11.1515
▁logo	-11.1515
▁Brain	-11.1516
▁Between	-11.1518
▁Pennsylvania	-11.1518
▁creativity	-11.1518
▁pizza	-11.1518
▁1993	-11.1519
version	-11.1521
▁invite	-11.1523
fall	-11.1526
▁solely	-11.1528
▁Books	-11.1529
about	-11.1531
tim	-11.1533
▁decides	-11.1535
▁fatigue	-11.1535
▁laboratory	-11.1536
▁tendency	-11.1536
▁si	-11.1537
▁thermal	-11.1537
▁responded	-11.1537
BA	-11.1539
▁planets	-11.154
print	-11.1542
▁assumption	-11.1544
▁vessel	-11.1544
▁barrier	-11.1544
ico	-11.155
▁Us	-11.1551
▁pointing	-11.1552
ean	-11.1553
▁fraction	-11.1553
▁folk	-11.1554
▁membership	-11.1555
▁volunteer	-11.1559
ude	-11.1559
▁athletes	-11.1562
▁bot	-11.1562
▁49	-11.1563
▁flows	-11.1565
▁restricted	-11.1565
ient	-11.1566
▁screw	-11.1569
▁capability	-11.157
▁1992	-11.1571
▁Dear	-11.1571
▁stolen	-11.1572
tte	-11.1574
▁Pra	-11.1578
▁symbols	-11.1579
▁attended	-11.1581
▁breeding	-11.1581
▁winner	-11.1582
▁satisfaction	-11.1588
▁Quick	-11.1589
▁SA	-11.1592
▁grows	-11.1593
++	-11.1597
▁titles	-11.1597
worth	-11.1597
DP	-11.1597
▁racism	-11.1604
▁Forest	-11.1604
▁wheat	-11.1604
ctor	-11.161
itz	-11.1612
▁Net	-11.1614
bl	-11.1616
▁powered	-11.1618
UR	-11.1619
▁exploring	-11.1621
ites	-11.1623
▁Anyone	-11.1624
▁Ball	-11.1625
▁chips	-11.1626
▁Images	-11.1626
▁swing	-11.1626
ache	-11.1627
ense	-11.1628
▁manifest	-11.163
▁Body	-11.163
▁metabolism	-11.1638
▁genome	-11.1639
▁verb	-11.1641
gel	-11.1642
wan	-11.1642
iest	-11.1646
▁Auto	-11.1648
▁survived	-11.1651
▁Skip	-11.1653
▁spreading	-11.1654
cor	-11.1654
▁threw	-11.1656
▁weakness	-11.1656
▁Guy	-11.1662
aya	-11.1665
▁initiative	-11.1667
▁Hor	-11.1669
▁wi	-11.1673
▁Jerusalem	-11.1673
▁Jordan	-11.1673
▁tobacco	-11.1673
▁placing	-11.1673
ern	-11.1674
▁carries	-11.1677
ony	-11.1677
acy	-11.1679
▁fits	-11.1682
▁exclusive	-11.1684
▁highlight	-11.1686
▁Rev	-11.1687
▁strengthen	-11.1688
▁Radio	-11.169
▁breed	-11.1691
▁adoption	-11.1693
▁Sky	-11.1696
▁Steven	-11.1697
▁wooden	-11.1698
▁Iron	-11.1699
▁episodes	-11.1704
▁soldier	-11.1704
▁bass	-11.1705
▁manufacturer	-11.1706
▁screening	-11.1707
▁obesity	-11.1708
▁invited	-11.1709
▁collecting	-11.171
▁affecting	-11.1711
▁Money	-11.1716
ering	-11.1716
▁pepper	-11.172
▁provision	-11.1721
▁Jean	-11.1721
▁permit	-11.1722
▁themes	-11.1724
▁03	-11.1726
▁Sleep	-11.1729
▁Box	-11.173
▁Personal	-11.1735
▁affairs	-11.1737
ivity	-11.1737
▁assuming	-11.1738
▁champion	-11.1742
▁computing	-11.1742
▁ceiling	-11.1743
▁decreased	-11.1743
▁Form	-11.1743
▁publicly	-11.1746
phy	-11.175
▁und	-11.1751
dra	-11.1751
ew	-11.1752
▁ye	-11.1754
2%	-11.1757
▁Arizona	-11.176
▁award	-11.1761
▁achievement	-11.1762
ass	-11.1763
▁poll	-11.1763
▁noble	-11.1764
▁Title	-11.1765
▁freely	-11.1767
▁mutual	-11.1768
▁85	-11.177
▁patent	-11.1776
▁editing	-11.1776
▁salary	-11.1778
▁Temple	-11.178
▁cult	-11.1782
▁raid	-11.1783
▁Bor	-11.1783
add	-11.1785
▁(“	-11.1787
▁touched	-11.1795
▁Nevertheless	-11.1795
trans	-11.1796
▁Spring	-11.1796
▁Unit	-11.1798
▁AP	-11.1798
ui	-11.1801
▁Ag	-11.1803
▁singer	-11.1803
▁Tor	-11.1803
▁accompanied	-11.1806
▁Gra	-11.1808
▁str	-11.1811
▁penalty	-11.1812
▁threshold	-11.1812
▁Gulf	-11.1814
▁Overall	-11.1815
cell	-11.1815
dies	-11.1817
▁endless	-11.1819
▁complications	-11.182
▁partially	-11.1821
dar	-11.1823
▁mi	-11.1823
▁Fig	-11.1824
▁va	-11.1827
▁animation	-11.183
▁handful	-11.1835
▁brave	-11.1835
▁emails	-11.1835
▁accomplished	-11.1838
▁efficiently	-11.1839
rt	-11.184
▁Disease	-11.1845
▁enterprise	-11.1845
▁reserved	-11.1846
▁tu	-11.1846
xi	-11.1847
▁wishes	-11.1853
▁pose	-11.1854
inch	-11.1857
▁McC	-11.1862
▁Sto	-11.1862
▁purchasing	-11.1865
▁Climate	-11.1865
▁grounds	-11.1866
▁partly	-11.1866
▁11,	-11.1866
▁besides	-11.1866
Go	-11.1869
▁BBC	-11.187
lies	-11.187
nal	-11.187
rn	-11.1873
▁sustain	-11.1873
nate	-11.1875
▁farming	-11.1875
▁Fast	-11.1876
▁strikes	-11.1877
▁bearing	-11.1877
▁abroad	-11.1877
person	-11.1878
▁joining	-11.1878
▁Magic	-11.1879
▁predicted	-11.188
▁encouraging	-11.1883
▁gently	-11.1883
▁Almost	-11.1884
▁Hebrew	-11.1885
▁reign	-11.1888
▁prey	-11.1891
▁PDF	-11.1893
▁jo	-11.1895
▁Golden	-11.1896
▁executed	-11.19
▁Harvard	-11.1901
▁Kennedy	-11.1901
▁controversial	-11.1901
▁hiring	-11.1901
▁Diet	-11.1902
▁broader	-11.1903
▁elderly	-11.1904
▁kit	-11.1905
▁Stay	-11.1908
▁examined	-11.191
▁sensors	-11.1911
▁spec	-11.1914
▁evident	-11.1914
ear	-11.1918
▁cooperation	-11.1919
tail	-11.192
▁rotation	-11.1921
▁hint	-11.1923
cri	-11.1924
▁contents	-11.1926
Not	-11.1928
lip	-11.1931
▁Eventually	-11.1936
▁inch	-11.1937
▁Ci	-11.1943
ifying	-11.1948
ien	-11.1948
▁translated	-11.195
ila	-11.1953
▁handed	-11.1955
▁shoulders	-11.1965
▁painted	-11.1966
▁pants	-11.1967
▁47	-11.1968
▁warned	-11.1968
▁Cre	-11.1968
tha	-11.1969
▁guests	-11.1969
▁Tea	-11.197
▁Software	-11.1972
▁trash	-11.1974
▁hormones	-11.1975
▁upcoming	-11.1981
▁Arm	-11.1984
:15	-11.1988
▁grocery	-11.199
▁gym	-11.199
▁opt	-11.199
▁Always	-11.199
▁ro	-11.1992
▁Gene	-11.1994
▁churches	-11.1994
▁stopping	-11.1994
▁meets	-11.1995
</	-11.1995
▁Peace	-11.1995
after	-11.1997
▁Iranian	-11.1998
3)	-11.2001
5,000	-11.2004
▁`	-11.2005
ces	-11.2007
▁availability	-11.2012
eri	-11.2014
cl	-11.2019
▁enabled	-11.202
▁legally	-11.2021
▁dont	-11.2022
▁clouds	-11.2024
▁telephone	-11.2026
▁dancing	-11.2026
▁Jay	-11.2026
▁Syrian	-11.2026
FC	-11.2027
▁05	-11.2027
▁banking	-11.2027
hat	-11.2028
▁evolutionary	-11.2028
▁tumor	-11.2029
▁crying	-11.2029
▁Economic	-11.203
vid	-11.2031
▁Smart	-11.2032
▁rope	-11.2034
▁weekly	-11.2034
friendly	-11.2035
fold	-11.2035
inter	-11.2035
▁Ann	-11.2037
ben	-11.2039
▁120	-11.2041
▁furniture	-11.2043
▁striking	-11.2043
▁confusing	-11.2044
▁1991	-11.2045
▁Hindu	-11.2048
▁briefly	-11.2049
vel	-11.2059
▁specialized	-11.206
▁vitamins	-11.206
rry	-11.2061
▁Navy	-11.2064
pat	-11.2066
▁Mat	-11.2067
.[	-11.2072
▁beside	-11.2074
▁$4	-11.2076
▁urge	-11.2076
▁Fed	-11.2077
▁pleasant	-11.2079
▁regret	-11.2079
zen	-11.208
▁Judge	-11.2081
▁brick	-11.2081
▁Anna	-11.2083
quality	-11.2083
One	-11.2087
▁1930	-11.209
berry	-11.2091
▁ob	-11.2094
▁render	-11.2094
▁Pin	-11.2095
school	-11.2096
▁ra	-11.2098
▁Mill	-11.2099
▁blank	-11.2102
▁reflected	-11.2103
site	-11.2104
Ho	-11.2109
▁SQL	-11.2109
dan	-11.2113
8)	-11.2114
lum	-11.2116
▁sole	-11.2118
▁LED	-11.2118
▁Dog	-11.2118
▁hospitals	-11.2119
▁3-	-11.2122
▁laughing	-11.2123
▁slower	-11.2124
▁20%	-11.2128
▁chill	-11.213
Ar	-11.2131
-15	-11.2131
▁demanding	-11.2133
jpg	-11.2134
▁Process	-11.2136
▁scholars	-11.214
▁bulk	-11.2143
▁RNA	-11.2144
▁dual	-11.2147
▁sphere	-11.2148
oe	-11.2148
▁drain	-11.2151
BS	-11.2151
OC	-11.2151
▁Philip	-11.2152
view	-11.2155
▁beings	-11.2156
▁fatty	-11.2157
IR	-11.2159
▁connecting	-11.216
▁pairs	-11.216
▁smiled	-11.216
rr	-11.2163
rim	-11.2167
▁knees	-11.2169
▁visits	-11.2172
▁acceptance	-11.2172
▁Fer	-11.2174
ace	-11.2179
▁bleeding	-11.2179
▁determination	-11.2179
try	-11.2185
ert	-11.2185
Un	-11.2186
▁Mount	-11.2188
▁Governor	-11.2188
▁extraordinary	-11.2188
aa	-11.2191
▁Neuro	-11.2192
▁interactive	-11.2193
lee	-11.2195
▁Allen	-11.22
▁16.	-11.2203
pt	-11.2205
▁compensation	-11.2206
▁cattle	-11.2207
▁Senator	-11.2208
▁underground	-11.2209
▁Six	-11.2212
▁pH	-11.2212
▁expecting	-11.2216
▁IV	-11.2221
▁pal	-11.2221
chen	-11.2223
▁Kids	-11.2226
nch	-11.2226
▁potatoes	-11.2228
ili	-11.2232
▁economics	-11.2233
▁Tips	-11.2234
pos	-11.2236
▁lawyers	-11.2239
▁likelihood	-11.2243
▁portfolio	-11.2243
▁Essay	-11.2243
▁legacy	-11.2243
▁transferred	-11.2244
▁1989	-11.2244
4%	-11.2246
▁spark	-11.2246
▁Columbia	-11.2246
▁variations	-11.2247
rio	-11.2249
▁scenarios	-11.2249
▁pound	-11.2249
▁(4	-11.2249
▁Den	-11.2251
▁reflects	-11.2254
▁tickets	-11.2256
▁Med	-11.226
▁tactics	-11.2261
▁varied	-11.2262
▁Count	-11.2267
▁fold	-11.2267
▁Hot	-11.227
▁est	-11.2272
▁Tech	-11.2274
▁cur	-11.2275
▁(5	-11.2276
1%	-11.2278
ress	-11.2279
▁diameter	-11.228
▁Alexander	-11.228
▁beef	-11.2281
▁comp	-11.2284
▁attributes	-11.2286
▁Centre	-11.2286
▁forcing	-11.2286
Mar	-11.2288
▁Greg	-11.2288
▁passive	-11.2291
▁Mas	-11.2292
lt	-11.2292
▁Jersey	-11.2298
▁clever	-11.2298
▁edges	-11.2302
▁authentic	-11.2302
▁occupation	-11.2303
▁scheduled	-11.2303
▁Continue	-11.2304
dal	-11.2304
▁appointment	-11.2306
▁Gas	-11.2307
▁accounting	-11.231
ically	-11.2311
▁Ham	-11.2314
▁inevitable	-11.2317
▁campus	-11.2317
▁distress	-11.2317
▁sheets	-11.2317
▁floating	-11.232
▁voices	-11.2324
300	-11.2325
▁pray	-11.2327
cies	-11.2332
▁twin	-11.2332
▁Cam	-11.2332
▁algorithms	-11.2334
▁commands	-11.2335
▁Practice	-11.2335
▁contributing	-11.2335
▁designer	-11.2336
▁pie	-11.2343
▁Living	-11.2343
▁panels	-11.2343
▁Understanding	-11.2345
▁homework	-11.2349
▁ch	-11.2351
▁shortly	-11.2352
▁Vitamin	-11.2354
▁0.0	-11.2354
rat	-11.2355
▁Indians	-11.2358
▁ties	-11.2362
away	-11.2365
tric	-11.2366
▁olive	-11.2366
▁Luke	-11.2368
▁buffer	-11.2372
amine	-11.2374
▁rolled	-11.2376
View	-11.2377
century	-11.2377
body	-11.238
▁theoretical	-11.2381
cept	-11.2382
▁Ol	-11.2383
▁Egyptian	-11.2384
band	-11.2385
ook	-11.2386
▁protective	-11.2386
▁dressed	-11.2389
▁Left	-11.2392
▁Pick	-11.2392
▁advise	-11.2393
▁Ob	-11.2394
ode	-11.2398
▁handled	-11.2398
▁counting	-11.24
▁province	-11.24
▁organisation	-11.2401
▁rivers	-11.2401
wide	-11.2402
▁Hy	-11.2402
ded	-11.2406
▁attraction	-11.2407
▁Forum	-11.2408
▁safer	-11.2408
▁circulation	-11.2409
▁execute	-11.241
▁grey	-11.2411
hin	-11.2413
ille	-11.2415
▁crossed	-11.2419
▁signature	-11.242
▁forgot	-11.2421
▁Coast	-11.2421
▁founder	-11.2423
kh	-11.2423
▁courage	-11.2424
home	-11.2424
▁suggestion	-11.2425
▁arch	-11.2426
▁Save	-11.2427
uv	-11.2429
▁Lewis	-11.2429
▁Solar	-11.2429
eng	-11.2429
▁disability	-11.243
▁upgrade	-11.2431
▁Secret	-11.2433
▁Albert	-11.2433
▁counts	-11.2434
▁corrupt	-11.2434
▁Taking	-11.2435
▁Mom	-11.2436
▁gifts	-11.2436
▁bubble	-11.2439
▁programme	-11.2443
▁defeated	-11.2443
▁Mountain	-11.2445
▁SC	-11.2446
▁mechanics	-11.2447
▁dropping	-11.2449
▁Hillary	-11.2449
▁Lady	-11.245
▁mineral	-11.2452
▁id	-11.2454
▁profound	-11.2456
▁width	-11.2462
▁consuming	-11.2462
ira	-11.2464
▁aged	-11.2465
▁tick	-11.2467
▁satisfied	-11.2469
▁Sat	-11.2472
ston	-11.2472
▁particle	-11.2473
ye	-11.2473
▁edited	-11.2475
▁viewing	-11.2477
▁Side	-11.248
▁Clean	-11.2484
▁Illinois	-11.2484
▁Ukraine	-11.2484
▁earliest	-11.2484
▁heritage	-11.2484
▁workout	-11.2485
▁dramatically	-11.2486
▁Sound	-11.2486
▁CNN	-11.2486
▁dimension	-11.2488
▁reminded	-11.2489
▁bugs	-11.2493
▁assumptions	-11.2494
gun	-11.2494
▁statistical	-11.2495
▁enjoying	-11.2498
▁motivated	-11.2499
▁ego	-11.2499
▁stepped	-11.2506
▁Hol	-11.2507
▁(3)	-11.2508
▁skip	-11.2515
▁meter	-11.2516
▁publish	-11.2517
▁1,000	-11.2519
▁Server	-11.2519
▁Final	-11.252
▁fe	-11.2521
▁Wars	-11.2522
▁viral	-11.2525
▁cups	-11.2526
▁dimensions	-11.2529
▁rep	-11.2531
▁alleged	-11.2531
▁neighbor	-11.2532
sign	-11.2537
▁drill	-11.2537
▁fur	-11.2539
▁requiring	-11.2541
▁testimony	-11.2541
▁trillion	-11.2541
▁declare	-11.2541
now	-11.2545
▁prone	-11.2547
SS	-11.2549
▁ed	-11.255
▁AT	-11.2551
sized	-11.2554
▁packed	-11.2556
▁foster	-11.2556
▁Fri	-11.2558
▁17.	-11.2559
▁Sin	-11.256
▁Iraqi	-11.2561
▁conflicts	-11.2563
▁facial	-11.2565
atory	-11.2565
sia	-11.2567
▁partial	-11.2567
▁surfaces	-11.2568
OM	-11.2568
▁Store	-11.2569
tics	-11.2571
▁tele	-11.2575
▁Fish	-11.2577
▁defensive	-11.2579
▁crystal	-11.258
▁cow	-11.2584
▁afterwards	-11.2585
▁critics	-11.2585
▁Fat	-11.2587
▁Jr	-11.2587
See	-11.2588
uf	-11.2592
▁Syn	-11.2593
▁royal	-11.2596
▁airplane	-11.2599
▁praise	-11.2599
▁countless	-11.2602
than	-11.2603
▁girlfriend	-11.2604
▁occupied	-11.2605
%)	-11.2606
▁closest	-11.2608
▁vaccines	-11.2609
EP	-11.261
▁Cons	-11.261
stra	-11.2614
▁cookies	-11.2614
▁Especially	-11.2617
▁magnet	-11.2619
gging	-11.2623
▁protests	-11.2623
size	-11.2626
▁neo	-11.2627
▁Hong	-11.2627
PO	-11.2629
▁AS	-11.2632
▁Working	-11.2632
▁Cut	-11.2632
lio	-11.2633
was	-11.2635
wise	-11.2638
▁Manager	-11.2639
▁;	-11.264
▁freeze	-11.264
kill	-11.2645
vol	-11.2645
▁attracted	-11.2646
▁fatal	-11.265
▁Current	-11.2653
▁regards	-11.2655
▁allies	-11.2655
▁harvest	-11.2655
mas	-11.2657
▁varies	-11.2657
▁Apparently	-11.2657
far	-11.2664
▁wins	-11.2665
▁commander	-11.2668
burn	-11.2674
▁urine	-11.2675
▁font	-11.2684
▁prop	-11.2686
▁gum	-11.2687
▁parameter	-11.269
▁ne	-11.2692
▁Mer	-11.2693
▁grateful	-11.2693
▁entities	-11.2693
mun	-11.2696
▁Example	-11.2696
hol	-11.2697
ato	-11.2698
▁purely	-11.2699
▁Series	-11.2701
▁quotes	-11.2701
Ba	-11.2701
when	-11.2704
ander	-11.2704
▁officially	-11.271
ل	-11.2712
▁cotton	-11.2712
nan	-11.2713
▁conspiracy	-11.2714
▁Berlin	-11.2721
action	-11.2721
▁Tan	-11.2724
▁Fort	-11.2725
▁#2	-11.2726
▁producer	-11.2726
▁belonging	-11.2727
3,	-11.2729
zu	-11.273
weight	-11.2731
esh	-11.2731
▁infant	-11.2731
▁autism	-11.2732
▁Gun	-11.2733
Sa	-11.2734
vert	-11.2735
rous	-11.2736
OP	-11.2736
▁lip	-11.2739
▁fears	-11.2741
▁Recent	-11.2745
▁disappear	-11.2745
ender	-11.2746
▁]	-11.2746
uz	-11.2747
▁Char	-11.2748
▁Wait	-11.2748
▁ritual	-11.2749
responsibilities	-11.2751
▁banned	-11.2751
▁passionate	-11.2754
▁artistic	-11.2756
▁dam	-11.2757
▁Engineering	-11.2759
▁void	-11.2762
▁bare	-11.2765
▁ugly	-11.277
▁interviews	-11.277
▁compelling	-11.277
CS	-11.2771
▁dried	-11.2771
▁Ur	-11.2773
▁behalf	-11.2775
▁tract	-11.2775
▁Happy	-11.2776
▁geo	-11.2777
▁reject	-11.2784
▁laughed	-11.2785
DR	-11.2785
▁eternal	-11.2789
▁scandal	-11.2789
▁occurrence	-11.2792
▁funded	-11.2794
▁boom	-11.2795
▁19.	-11.2795
▁Brand	-11.2807
▁chi	-11.2807
▁comparing	-11.2809
▁amendment	-11.281
▁suppress	-11.2812
▁joints	-11.2816
RS	-11.2824
▁cellular	-11.2825
ET	-11.2826
BC	-11.2828
▁promises	-11.2829
▁ranging	-11.2831
▁blanket	-11.2831
▁Welcome	-11.2834
ines	-11.2836
▁avoided	-11.2838
▁walks	-11.2838
▁vocal	-11.284
▁51	-11.284
▁fleet	-11.284
▁deposit	-11.284
▁surprisingly	-11.2842
gas	-11.2843
▁margin	-11.2843
▁refugees	-11.2845
talk	-11.2845
▁blocked	-11.2847
▁illusion	-11.2848
▁magnitude	-11.2848
▁thrive	-11.2848
▁festival	-11.2848
▁carrier	-11.2848
▁PR	-11.2848
▁mortality	-11.2848
FA	-11.2851
▁pur	-11.2852
▁heroes	-11.2856
▁labels	-11.2857
▁Risk	-11.2858
▁rhythm	-11.2858
▁Around	-11.2859
▁hired	-11.2862
cr	-11.2862
hl	-11.2863
▁kiss	-11.2866
▁rub	-11.2867
▁Defense	-11.2867
▁grammar	-11.2867
▁priest	-11.2868
▁arrangement	-11.2869
▁Season	-11.2871
▁filed	-11.2872
▁stake	-11.2874
▁pets	-11.2876
▁masses	-11.2876
logy	-11.2877
▁deadly	-11.2877
▁1.5	-11.288
-16	-11.2881
▁sons	-11.2881
jan	-11.2885
▁Arch	-11.2885
▁fires	-11.2886
▁disappeared	-11.2886
▁appetite	-11.2887
▁orientation	-11.2887
▁expose	-11.2888
▁cache	-11.2888
RO	-11.2894
▁tent	-11.2899
▁packages	-11.29
▁graphic	-11.29
fl	-11.2905
▁partnership	-11.2905
▁swim	-11.2906
▁liberty	-11.2906
▁Ah	-11.2908
▁Cambridge	-11.2911
word	-11.2911
▁brains	-11.2915
▁cart	-11.2917
▁producers	-11.2919
flow	-11.292
sex	-11.292
▁exploit	-11.2921
▁Researchers	-11.2923
▁expressions	-11.2925
▁52	-11.2925
▁sooner	-11.2926
▁synthetic	-11.2926
▁drew	-11.2926
▁tutorial	-11.2926
▁desktop	-11.2926
▁chaos	-11.2926
▁compliance	-11.293
▁equipped	-11.2932
▁250	-11.2935
▁aging	-11.2938
▁displays	-11.2943
▁administrative	-11.2945
▁Published	-11.2945
▁valley	-11.2946
▁torture	-11.2947
▁Pri	-11.2947
▁fu	-11.2949
▁insane	-11.2952
▁Basic	-11.2954
▁alternatives	-11.2957
itu	-11.2958
▁respective	-11.296
itch	-11.2961
▁ruin	-11.2963
▁conclusions	-11.2964
user	-11.2966
▁fancy	-11.2967
▁leverage	-11.2968
▁Physical	-11.2969
gov	-11.2978
▁useless	-11.2979
under	-11.2981
▁Generally	-11.2984
▁alternate	-11.2985
ump	-11.2986
rm	-11.2986
▁cabinet	-11.2987
▁dump	-11.2987
▁vegetable	-11.2988
LY	-11.2994
▁hammer	-11.2996
def	-11.2997
chy	-11.2998
▁controller	-11.3001
▁probe	-11.3003
▁Financial	-11.3005
▁Massachusetts	-11.3005
▁solved	-11.3006
0)	-11.3011
▁momentum	-11.3014
▁Wolf	-11.3014
▁appointed	-11.3016
▁expanding	-11.3018
also	-11.3019
▁Bal	-11.3019
▁Fo	-11.3019
▁Thr	-11.3022
CE	-11.3024
▁achieving	-11.3024
▁Movie	-11.3025
▁Basically	-11.3025
▁spare	-11.3026
hy	-11.3026
yes	-11.303
800	-11.3031
▁Currently	-11.3034
▁Job	-11.3035
▁encountered	-11.3037
...”	-11.3038
▁threatening	-11.3039
▁Rep	-11.3041
▁Kevin	-11.3045
▁Safety	-11.3045
▁unconscious	-11.3045
▁Lab	-11.3048
▁pour	-11.3049
▁circles	-11.305
▁trailer	-11.3052
ators	-11.3053
▁guilt	-11.3056
▁04	-11.3061
▁excitement	-11.3064
▁ghost	-11.3065
▁Country	-11.3065
▁unfair	-11.3065
lig	-11.3066
▁Core	-11.3069
cen	-11.307
▁Fred	-11.3072
▁gaze	-11.3072
▁documented	-11.3072
▁lighter	-11.3074
▁necessity	-11.3084
▁quietly	-11.3088
TP	-11.3088
▁approached	-11.3092
▁borders	-11.3092
▁fortune	-11.3095
▁template	-11.3097
▁trusted	-11.3098
say	-11.3099
▁outdoor	-11.31
▁yards	-11.3101
keeper	-11.3102
▁abnormal	-11.3104
▁elaborate	-11.3104
▁twelve	-11.3104
▁soup	-11.3104
ON	-11.3105
▁Pope	-11.3107
TV	-11.3109
▁Truth	-11.311
▁sends	-11.3111
▁desperate	-11.3114
white	-11.3115
▁Paper	-11.3116
9)	-11.3116
▁skilled	-11.3116
▁pig	-11.312
▁reminder	-11.3121
▁clip	-11.3122
rah	-11.3123
▁CT	-11.3123
▁Either	-11.3124
▁Summer	-11.3126
▁pale	-11.3131
▁operator	-11.3131
▁emerge	-11.3132
CK	-11.3133
open	-11.3138
▁Soon	-11.314
EA	-11.3143
▁monetary	-11.3144
▁promising	-11.3144
▁vocabulary	-11.3144
bol	-11.3144
▁steep	-11.3144
▁ancestors	-11.3144
▁genius	-11.3144
▁GDP	-11.3145
▁politically	-11.3146
▁rat	-11.3149
▁proceed	-11.3149
though	-11.3149
▁consult	-11.315
▁tolerance	-11.315
▁lu	-11.3151
▁Alaska	-11.3151
oli	-11.3152
▁practically	-11.3155
▁pi	-11.3159
▁fitting	-11.3162
ao	-11.3163
rit	-11.3163
▁Culture	-11.3164
▁equity	-11.3165
▁porn	-11.3166
▁antibiotics	-11.3166
chan	-11.3167
▁Winter	-11.3168
▁li	-11.3171
▁lap	-11.3174
fat	-11.3177
ill	-11.3178
▁implementing	-11.318
▁noun	-11.3182
▁Emperor	-11.3184
▁awkward	-11.3184
▁pursuit	-11.3184
▁trapped	-11.3185
▁lawsuit	-11.3186
▁announcement	-11.3187
NO	-11.3188
▁passengers	-11.3189
▁bay	-11.319
▁jar	-11.319
▁Unless	-11.3191
▁regulatory	-11.3191
▁attitudes	-11.3192
nia	-11.3193
▁casual	-11.3194
▁dynamics	-11.32
▁Kat	-11.3201
sco	-11.3201
▁Silver	-11.3205
▁Wil	-11.3206
▁Systems	-11.3206
▁concentrate	-11.3206
▁specialist	-11.3207
eck	-11.3208
▁melt	-11.3211
▁Large	-11.3213
▁sperm	-11.3213
ogen	-11.3217
▁pad	-11.3221
▁Rich	-11.3224
▁indigenous	-11.3225
▁altogether	-11.3225
▁Sci	-11.3225
▁uncertainty	-11.3225
▁tribes	-11.323
GB	-11.323
▁Town	-11.3232
▁Simple	-11.3232
▁explicitly	-11.3232
avi	-11.3233
▁$10	-11.3235
▁beta	-11.3238
els	-11.3241
▁jurisdiction	-11.3245
▁velocity	-11.3245
▁isolation	-11.3245
ying	-11.3246
AN	-11.3247
tile	-11.3249
400	-11.3249
▁judges	-11.3251
▁Editor	-11.3251
▁tremendous	-11.3255
▁dozens	-11.3257
▁shine	-11.3259
▁Universe	-11.3265
▁purple	-11.3265
▁respiratory	-11.3266
▁Ancient	-11.3266
note	-11.3268
burg	-11.3268
▁inspire	-11.3268
▁documentary	-11.3269
lot	-11.3269
▁4)	-11.3271
▁celebrated	-11.3273
▁evolve	-11.3274
▁jumped	-11.3275
▁gl	-11.3278
▁infinite	-11.328
bat	-11.3281
▁Anne	-11.3284
▁Gri	-11.3284
▁Camp	-11.3285
▁peers	-11.3288
TO	-11.329
▁Sk	-11.3292
▁Band	-11.3295
core	-11.3297
▁relatives	-11.3298
▁Maria	-11.3299
▁spite	-11.3299
▁races	-11.33
On	-11.3303
▁seasons	-11.3303
▁marry	-11.3305
▁acquisition	-11.3306
▁piano	-11.3306
http	-11.3307
▁max	-11.3309
▁Qui	-11.331
▁solo	-11.331
▁matching	-11.3312
▁printer	-11.3314
▁thesis	-11.3315
screen	-11.3315
▁bloggers	-11.3316
dimensional	-11.3318
▁26,	-11.3319
▁alike	-11.3323
▁libraries	-11.3326
▁1940	-11.3329
▁anonymous	-11.3329
▁supposedly	-11.333
month	-11.333
▁5,	-11.3331
▁hearts	-11.3333
▁lyrics	-11.3336
▁overview	-11.3336
▁barriers	-11.3336
▁speeds	-11.3341
▁worthy	-11.3342
▁Eat	-11.3345
▁GM	-11.3345
▁Shakespeare	-11.3347
▁competing	-11.3347
▁replacing	-11.3347
▁Square	-11.3347
▁calculator	-11.3347
▁inequality	-11.3347
▁occasions	-11.335
▁aesthetic	-11.3352
▁thy	-11.3353
▁Ice	-11.3354
▁suck	-11.3355
▁Articles	-11.3356
▁prospect	-11.3356
▁cycles	-11.3357
author	-11.3358
▁charging	-11.3359
ona	-11.3359
▁Update	-11.3361
▁varying	-11.3363
▁poet	-11.3364
▁wrapped	-11.3368
▁Person	-11.3368
map	-11.3368
Can	-11.337
LC	-11.3372
▁absorbed	-11.3372
▁attain	-11.3373
▁Miller	-11.338
▁ja	-11.338
▁float	-11.3381
▁discount	-11.3382
▁opponents	-11.3382
Let	-11.3384
▁influences	-11.3384
▁listing	-11.3384
▁Bon	-11.3386
▁captain	-11.3388
▁99	-11.339
▁hunger	-11.3399
▁crossing	-11.3404
▁lately	-11.3406
ison	-11.3407
▁defining	-11.3408
▁serial	-11.3409
▁digestive	-11.3409
▁Protection	-11.3409
▁Charlie	-11.3409
▁Discussion	-11.341
▁ALL	-11.3413
▁ce	-11.3417
▁exclusively	-11.342
▁Got	-11.3422
▁Enter	-11.3422
▁HD	-11.3422
▁Pain	-11.3424
▁Farm	-11.3428
▁Sri	-11.3428
ult	-11.3429
▁Alan	-11.343
▁inspection	-11.3431
▁surgeon	-11.3434
▁tags	-11.344
▁Gre	-11.3442
▁Animal	-11.3443
▁Del	-11.3446
▁castle	-11.3447
cin	-11.3448
▁var	-11.3449
▁arguing	-11.345
▁tropical	-11.345
▁phenomena	-11.345
▁origins	-11.3451
▁attribute	-11.3451
▁operational	-11.3451
▁publishing	-11.3455
▁viable	-11.3455
▁dietary	-11.3456
rine	-11.3459
▁q	-11.3459
▁ethics	-11.346
▁designated	-11.346
▁guaranteed	-11.3461
▁nodes	-11.3463
▁Similar	-11.3464
▁Along	-11.3465
▁Netflix	-11.347
▁Bruce	-11.3472
▁demo	-11.3478
▁prescribed	-11.3479
▁snake	-11.3479
qu	-11.348
▁terrorism	-11.3483
▁tar	-11.3484
▁Howard	-11.3486
▁Sar	-11.3486
▁Fr	-11.349
ale	-11.349
▁pat	-11.349
▁Fortunately	-11.3491
▁consensus	-11.3491
▁theater	-11.3491
▁petition	-11.3492
▁pension	-11.3492
▁defence	-11.3492
▁baking	-11.3492
▁submitted	-11.3492
▁integrate	-11.3494
▁pipeline	-11.3494
▁Examples	-11.3494
:20	-11.3495
▁devoted	-11.3498
nis	-11.3498
▁Duke	-11.35
▁por	-11.35
▁adapted	-11.3501
▁blade	-11.3501
......	-11.3502
▁jam	-11.3502
because	-11.3503
▁tub	-11.3504
▁22,	-11.3509
arian	-11.3511
▁portrait	-11.3512
▁Division	-11.3512
▁Scientists	-11.3512
▁Bull	-11.3518
▁Kra	-11.352
▁Upon	-11.3523
▁bears	-11.3525
▁wireless	-11.3526
ua	-11.3526
bad	-11.3526
▁Sur	-11.3528
▁offices	-11.3529
▁tribe	-11.3529
▁lol	-11.3529
▁specify	-11.353
▁loyal	-11.3532
▁neural	-11.3533
▁boyfriend	-11.3533
▁Dad	-11.3533
▁lazy	-11.3534
▁correction	-11.3534
Or	-11.3536
▁believing	-11.3537
▁cited	-11.3537
▁advances	-11.3539
▁Fla	-11.3541
gr	-11.3548
▁hoped	-11.3548
▁sir	-11.355
▁EC	-11.3551
▁Poly	-11.3552
▁blockchain	-11.3554
▁Otherwise	-11.3554
▁grains	-11.3555
▁FDA	-11.3556
tom	-11.3556
5)	-11.3558
▁ter	-11.3561
ered	-11.3568
kins	-11.3568
▁attributed	-11.3572
▁shocked	-11.3572
UL	-11.3573
▁registration	-11.3574
▁patience	-11.3574
▁perceive	-11.3577
▁14,	-11.3579
fin	-11.358
▁disabled	-11.3583
▁capitalism	-11.3584
frame	-11.3586
bert	-11.3586
especially	-11.3586
▁invested	-11.3589
▁establishing	-11.3589
▁Value	-11.3593
bri	-11.3594
▁Jon	-11.3595
▁dive	-11.3596
▁OR	-11.3597
▁Knight	-11.3597
▁imposed	-11.3598
▁pressed	-11.3598
▁classification	-11.36
itude	-11.3604
▁Hello	-11.3605
▁Wind	-11.3606
▁stressed	-11.3607
▁adverse	-11.3607
▁23,	-11.3608
dam	-11.3609
ENT	-11.3611
▁Song	-11.3613
▁6,	-11.3615
▁Testament	-11.3616
▁WordPress	-11.3616
▁metabolic	-11.3617
▁Arthur	-11.3617
▁transparent	-11.3617
▁shops	-11.3619
pes	-11.362
▁generating	-11.3624
lier	-11.3626
▁coins	-11.3626
through	-11.3629
▁jet	-11.363
▁tanks	-11.3631
▁mothers	-11.3631
By	-11.3632
,500	-11.3633
▁pill	-11.3634
▁modify	-11.3635
▁medieval	-11.3637
▁matrix	-11.3638
UN	-11.3638
mount	-11.3639
▁recipes	-11.3639
▁Flash	-11.364
▁Theory	-11.364
▁highway	-11.3643
▁ballot	-11.3643
tone	-11.3643
dor	-11.3646
▁Dean	-11.3646
oni	-11.3646
▁designers	-11.3648
▁DA	-11.3648
▁rewards	-11.3649
▁argues	-11.365
▁comedy	-11.3651
▁mentally	-11.3653
wall	-11.3653
▁desires	-11.3655
shaped	-11.3656
▁(0	-11.3658
▁farms	-11.3658
▁nitrogen	-11.3659
▁Introduction	-11.3662
▁bind	-11.3665
force	-11.3665
sure	-11.3665
▁25,	-11.367
dle	-11.3673
:13	-11.3674
▁st	-11.3675
▁surgical	-11.368
▁Pur	-11.3681
▁addressing	-11.3683
▁90%	-11.3683
▁char	-11.3684
▁Nation	-11.3685
hem	-11.3686
▁Seven	-11.3686
▁29,	-11.3688
▁dim	-11.3691
▁28,	-11.3695
ides	-11.3699
▁bottles	-11.3699
▁prevents	-11.3699
▁dairy	-11.3701
▁luxury	-11.3701
▁imaging	-11.3701
ote	-11.3702
▁soda	-11.3704
eat	-11.3704
▁Studio	-11.3705
▁Cover	-11.3705
yer	-11.3706
▁54	-11.3706
▁rings	-11.3707
▁robots	-11.3711
▁verify	-11.3713
▁amino	-11.372
▁interfere	-11.3722
▁Simply	-11.3722
▁straightforward	-11.3722
▁basketball	-11.3722
▁receives	-11.3723
▁reminds	-11.3723
▁puzzle	-11.3724
▁Product	-11.3724
ava	-11.3725
▁Visual	-11.3727
▁enhanced	-11.3728
▁Labor	-11.3728
▁spill	-11.3729
▁attacking	-11.3731
▁27,	-11.3733
▁12,	-11.3734
▁competitors	-11.3735
▁21,	-11.3736
▁Stock	-11.3738
▁beam	-11.374
▁philosophical	-11.3743
▁admission	-11.3744
▁Conference	-11.3744
▁ladies	-11.3745
▁wherever	-11.3745
▁Beyond	-11.3747
ature	-11.3749
▁teen	-11.3751
▁elect	-11.3751
anti	-11.3752
▁reserve	-11.3753
using	-11.3757
▁Training	-11.3759
▁mud	-11.3759
cons	-11.3764
script	-11.3765
▁Intelligence	-11.3765
▁accommodate	-11.3765
▁sneak	-11.3765
▁residence	-11.3765
▁Arctic	-11.3765
▁attachment	-11.3769
mine	-11.3777
sum	-11.3777
▁outstanding	-11.3778
▁missions	-11.3783
▁Ross	-11.3783
▁nutritional	-11.3783
▁podcast	-11.3786
▁anxious	-11.3786
▁prisoners	-11.3787
▁pr	-11.3788
change	-11.379
▁sequences	-11.379
▁optical	-11.3793
▁queen	-11.3794
▁witnessed	-11.3797
▁hung	-11.3797
▁beating	-11.3797
▁struggles	-11.3797
▁sensation	-11.3798
▁spinal	-11.3798
▁Rating	-11.3799
rac	-11.3799
range	-11.38
outs	-11.38
▁gaining	-11.3804
shot	-11.3807
▁owe	-11.381
▁lemon	-11.381
▁SS	-11.381
▁handy	-11.3811
▁conclude	-11.3811
▁elevated	-11.3813
▁inventory	-11.3813
ike	-11.3814
▁arranged	-11.382
ggle	-11.382
▁Less	-11.382
▁bent	-11.382
▁continuously	-11.3824
▁photographs	-11.3826
▁Eye	-11.3826
cia	-11.3828
▁faculty	-11.3829
▁embedded	-11.3829
▁alliance	-11.3829
rov	-11.3829
▁equations	-11.383
▁salad	-11.383
▁rage	-11.3831
▁Edition	-11.3832
▁behavioral	-11.3833
db	-11.3833
▁capitalist	-11.3837
:1	-11.3839
▁strings	-11.3839
▁guards	-11.384
▁retired	-11.3841
kes	-11.3845
▁subsequently	-11.3845
▁7,	-11.3845
▁plates	-11.3849
▁Resources	-11.385
▁surveillance	-11.385
▁inhabitants	-11.3851
rist	-11.3851
▁permitted	-11.3852
▁jacket	-11.3853
ost	-11.3854
PL	-11.3855
▁planted	-11.3856
▁automated	-11.3857
▁belly	-11.3858
▁paths	-11.3859
▁employ	-11.386
dale	-11.3861
▁pleased	-11.3862
ash	-11.3862
▁colon	-11.3862
▁technically	-11.3863
▁accepting	-11.3864
GA	-11.3864
cro	-11.3865
▁9,	-11.3865
▁gen	-11.3865
▁operators	-11.3865
▁Cl	-11.3866
▁strictly	-11.3866
otic	-11.3868
CI	-11.387
▁spelling	-11.387
▁underneath	-11.3872
▁mon	-11.3873
▁Moore	-11.3873
▁diagram	-11.3874
▁Phone	-11.3875
▁resume	-11.3875
▁representatives	-11.3875
▁relieve	-11.3876
:14	-11.3876
▁utilized	-11.3877
▁tire	-11.3878
▁1920	-11.388
left	-11.3884
▁armor	-11.3884
Who	-11.3886
TER	-11.3887
bro	-11.3891
▁pricing	-11.3894
front	-11.3896
▁processor	-11.3896
▁13,	-11.3899
duc	-11.39
hold	-11.3901
▁rental	-11.3902
▁Direct	-11.3902
Bu	-11.3902
▁Prior	-11.3904
▁Hal	-11.3906
▁vent	-11.3907
Lo	-11.3909
MO	-11.3909
anna	-11.3913
watch	-11.3914
▁dies	-11.3914
▁unity	-11.3914
▁demon	-11.3915
▁lacking	-11.3915
▁Roll	-11.3916
4)	-11.392
▁MR	-11.3922
aj	-11.3923
arm	-11.3927
▁Os	-11.3927
▁=>	-11.3928
("	-11.3931
dec	-11.3932
▁17,	-11.3933
Now	-11.3933
▁organize	-11.3935
▁photograph	-11.3936
▁deposits	-11.3937
▁ultra	-11.3937
▁Foreign	-11.3937
▁glory	-11.3937
have	-11.3939
▁landed	-11.3939
▁smartphone	-11.3941
▁namely	-11.3941
▁Susan	-11.3943
▁overnight	-11.3946
▁Recently	-11.3948
ges	-11.3948
▁Mix	-11.3951
▁occasional	-11.3958
▁deficiency	-11.3959
▁fifty	-11.3959
▁Focus	-11.3959
▁MI	-11.3959
▁cor	-11.3959
▁Political	-11.396
▁releases	-11.3962
▁vector	-11.3962
▁persistent	-11.3963
▁Ty	-11.397
Time	-11.3971
▁dough	-11.3971
title	-11.3976
▁4:	-11.3978
main	-11.3979
lang	-11.3979
▁Singapore	-11.398
▁relating	-11.398
▁waters	-11.3982
▁stimulate	-11.3984
▁FA	-11.3986
▁Anderson	-11.3986
▁transformed	-11.3987
▁highlights	-11.3988
▁Fun	-11.399
▁Path	-11.399
DC	-11.3991
craft	-11.3992
▁horizontal	-11.3995
pon	-11.3996
TE	-11.3996
piece	-11.3997
▁definitions	-11.3997
▁epi	-11.3998
▁DE	-11.4
▁Words	-11.4002
▁leather	-11.4002
▁varieties	-11.4002
▁streaming	-11.4002
▁garlic	-11.4002
▁mentor	-11.4003
▁->	-11.4004
▁enforce	-11.4005
▁59	-11.4005
▁clue	-11.4006
▁buttons	-11.4007
start	-11.401
▁Ky	-11.401
▁buyers	-11.4012
▁insert	-11.4015
▁notable	-11.4016
▁$100	-11.4017
▁designing	-11.4017
▁Philippines	-11.4019
driven	-11.4019
▁Rate	-11.402
▁approaching	-11.402
▁stairs	-11.402
▁franchise	-11.4024
▁generous	-11.4025
▁Pop	-11.4025
lessness	-11.4031
▁Luc	-11.4037
▁screaming	-11.4041
▁ceremony	-11.4046
▁indicating	-11.4046
ttle	-11.4047
▁charity	-11.4048
▁winds	-11.4048
▁discharge	-11.405
▁Probably	-11.405
▁teens	-11.405
▁reside	-11.4053
bell	-11.4055
atic	-11.4057
▁healthier	-11.4059
▁angel	-11.4064
-14	-11.4065
tical	-11.4067
▁participating	-11.4068
▁precision	-11.4068
▁dominated	-11.4071
▁locate	-11.4072
▁53	-11.4076
▁Years	-11.4077
▁rap	-11.4079
:11	-11.408
▁atoms	-11.4083
yr	-11.4083
▁satisfy	-11.4086
▁lib	-11.4089
▁explosive	-11.409
▁caution	-11.409
▁quantities	-11.409
▁flowing	-11.409
▁grabbed	-11.409
bal	-11.4091
▁clay	-11.4092
dict	-11.4094
▁Century	-11.4095
▁convicted	-11.4095
two	-11.4096
una	-11.4097
▁Beach	-11.4098
▁Male	-11.4101
▁electron	-11.4103
pass	-11.4104
▁cage	-11.4105
MB	-11.4105
▁ru	-11.411
▁abundance	-11.4112
▁comparable	-11.4112
▁propaganda	-11.4112
▁metals	-11.4112
▁dentist	-11.4114
▁boil	-11.4114
▁Cast	-11.4117
cm	-11.4118
600	-11.4119
▁wore	-11.4121
▁preference	-11.4123
▁Ana	-11.4124
gri	-11.4125
▁sits	-11.4125
▁researcher	-11.4127
▁pause	-11.4128
▁reset	-11.413
▁entries	-11.4134
▁governance	-11.4135
▁tan	-11.4135
rest	-11.4136
▁Lou	-11.4145
ago	-11.4147
▁inherent	-11.4147
sey	-11.4148
att	-11.415
▁defines	-11.4151
trop	-11.4151
▁Arabia	-11.4152
▁navigate	-11.4156
▁recruit	-11.4157
▁shallow	-11.4159
▁Nobody	-11.416
ographic	-11.416
-17	-11.416
▁Dun	-11.4162
▁legend	-11.4166
▁receiver	-11.4169
▁bust	-11.4173
▁19,	-11.4174
▁Challenge	-11.4179
▁influential	-11.4179
▁cardiovascular	-11.4179
▁damaging	-11.4179
▁sodium	-11.4179
tting	-11.418
:12	-11.4182
▁withdrawal	-11.4182
spec	-11.4183
nny	-11.4184
▁battles	-11.4185
▁lesser	-11.4186
▁fi	-11.4189
▁swelling	-11.4189
▁dispute	-11.4192
▁appealing	-11.4192
▁Bow	-11.4194
service	-11.4195
▁circular	-11.4201
MC	-11.4203
▁bang	-11.4203
▁mapping	-11.4204
▁anchor	-11.4205
▁Grade	-11.4206
▁offset	-11.4207
▁tender	-11.4207
▁Index	-11.4209
▁violation	-11.421
▁pressing	-11.4211
▁10,000	-11.4212
ffer	-11.4212
ake	-11.4213
▁preferences	-11.4216
▁valve	-11.4216
▁Provide	-11.4218
▁wheels	-11.4219
▁kills	-11.4221
hon	-11.4222
▁completion	-11.4223
▁56	-11.4224
izer	-11.4226
▁cough	-11.4226
▁integral	-11.4226
▁polar	-11.4226
NET	-11.4229
▁deemed	-11.4229
▁convention	-11.423
-21	-11.4232
km	-11.4233
▁firmly	-11.4234
▁16,	-11.4238
▁codes	-11.424
phi	-11.4241
▁Tre	-11.4243
▁CR	-11.4244
▁insult	-11.4245
▁bloom	-11.4246
▁practicing	-11.4246
order	-11.4246
▁colonies	-11.4247
gno	-11.4247
▁requested	-11.4247
▁attending	-11.4249
▁disappointed	-11.4249
cket	-11.425
▁30,	-11.4251
▁Station	-11.4255
▁(10	-11.4256
▁Speaking	-11.4256
▁Shin	-11.4256
aro	-11.4258
minded	-11.4259
▁Weight	-11.426
▁HA	-11.4262
▁independently	-11.4265
▁teaches	-11.4267
▁fiscal	-11.4268
▁garbage	-11.4268
▁compact	-11.427
graph	-11.4271
fo	-11.4271
▁Reserve	-11.4273
▁dare	-11.4274
▁mindset	-11.4279
▁mate	-11.4282
▁caring	-11.4286
een	-11.4286
▁8,	-11.4288
▁beloved	-11.4291
▁dealt	-11.4291
▁shoe	-11.4291
▁72	-11.4292
▁stance	-11.4292
▁1988	-11.4292
▁touching	-11.4297
▁duck	-11.4299
nie	-11.4299
▁Pass	-11.4301
▁coastal	-11.4301
▁columns	-11.4301
▁Alice	-11.4301
▁gaps	-11.4302
▁Tree	-11.4304
▁Cur	-11.4308
▁metaphor	-11.4308
▁lifted	-11.431
▁racing	-11.4314
▁unclear	-11.4315
▁frustrated	-11.4316
▁abandon	-11.4316
▁breakdown	-11.4316
▁Notice	-11.4317
▁grams	-11.4318
▁volunteers	-11.4322
png	-11.4322
lash	-11.4325
position	-11.4325
▁Tour	-11.4326
▁couples	-11.4329
▁USB	-11.433
▁signing	-11.4332
▁surge	-11.4333
fit	-11.4334
▁AR	-11.4335
▁economies	-11.4336
▁basket	-11.4336
▁litter	-11.4339
▁com	-11.434
▁exhibition	-11.4341
▁altered	-11.4342
will	-11.4346
▁hack	-11.4349
▁retreat	-11.4351
stock	-11.4353
▁Grant	-11.4355
▁easiest	-11.4358
▁accent	-11.4358
▁demographic	-11.4358
▁24,	-11.4359
▁wrist	-11.4359
▁Deal	-11.4362
▁Christopher	-11.4362
SM	-11.4363
▁Officer	-11.4366
▁penis	-11.4367
▁celebration	-11.4371
▁hatch	-11.4371
▁simulation	-11.4371
mel	-11.4372
▁scales	-11.4374
dog	-11.4377
mod	-11.4377
ulated	-11.4381
▁carpet	-11.4383
iti	-11.4384
▁considerably	-11.4384
▁provisions	-11.4387
san	-11.439
▁ge	-11.4391
▁Sports	-11.4392
▁certificate	-11.4394
▁Ring	-11.4396
▁modest	-11.4396
ulate	-11.4397
night	-11.4397
▁realise	-11.4398
▁loads	-11.4402
▁Sy	-11.4402
▁nodded	-11.4404
▁diagnostic	-11.4404
▁romance	-11.4404
▁Res	-11.4405
▁asthma	-11.4405
▁15,	-11.4407
▁Iowa	-11.4409
▁blogs	-11.441
▁colony	-11.4413
▁outline	-11.4414
▁impressed	-11.4414
▁buyer	-11.4417
▁ingredient	-11.4418
▁flame	-11.4419
^2	-11.4419
▁resident	-11.4426
▁nursing	-11.4426
▁Samuel	-11.4427
▁liability	-11.4427
▁suspected	-11.4427
▁devil	-11.443
▁reasonably	-11.4433
▁Drive	-11.4433
▁punch	-11.4434
ali	-11.4435
looking	-11.4438
▁slot	-11.4442
market	-11.4443
lim	-11.4444
ific	-11.4444
▁prevented	-11.4449
▁clause	-11.4449
▁convenience	-11.4449
▁Experience	-11.4449
▁ecological	-11.4449
▁garage	-11.445
uh	-11.4451
▁Movement	-11.4451
▁blocking	-11.4452
▁belongs	-11.4453
▁photography	-11.4459
▁nut	-11.446
still	-11.4461
▁accidents	-11.4463
▁zones	-11.4465
▁Marketing	-11.4465
ifies	-11.4466
▁Islands	-11.4466
▁Eli	-11.4469
▁costly	-11.4473
LI	-11.4474
maker	-11.4474
▁journalists	-11.4475
▁2012,	-11.4476
▁traditionally	-11.4477
▁resistant	-11.4477
imate	-11.4477
▁SEO	-11.4477
Pa	-11.4477
▁march	-11.448
▁pole	-11.4481
▁Clark	-11.4482
ars	-11.4484
▁Nice	-11.4487
rating	-11.4487
▁bacterial	-11.4488
Edit	-11.4488
▁counsel	-11.449
▁Wow	-11.4492
▁Mah	-11.4493
bury	-11.4494
▁advised	-11.4495
▁complaints	-11.4495
▁skull	-11.4495
▁tattoo	-11.4495
▁ideology	-11.4495
▁bend	-11.4496
▁Sciences	-11.4496
▁declined	-11.45
▁posture	-11.4502
▁morality	-11.4503
▁initiatives	-11.4503
▁switching	-11.4505
each	-11.4508
▁horizon	-11.4518
▁emotionally	-11.4518
▁Alzheimer	-11.4518
▁recycling	-11.4518
▁nightmare	-11.4518
▁Patrick	-11.4519
▁radar	-11.4519
here	-11.4521
▁Moses	-11.4523
omb	-11.4524
▁appreciated	-11.4525
▁billions	-11.4531
social	-11.4532
▁eager	-11.4533
▁digest	-11.4533
▁lecture	-11.4534
▁phrases	-11.4537
ici	-11.4537
:17	-11.454
▁HP	-11.454
At	-11.4541
▁Instagram	-11.4541
▁discomfort	-11.4541
▁cha	-11.4541
▁Seattle	-11.4542
▁Girl	-11.4544
▁Maryland	-11.4544
▁revolutionary	-11.4544
▁fin	-11.4544
▁nerves	-11.4545
EM	-11.4545
▁waited	-11.4548
eon	-11.4548
ied	-11.4549
oz	-11.4551
-9	-11.4553
▁hike	-11.4554
▁Kan	-11.4558
▁dude	-11.4561
▁lasting	-11.4561
Name	-11.4562
▁concentrated	-11.4562
▁spatial	-11.4564
▁Popular	-11.4564
▁Bureau	-11.4564
▁bucket	-11.4566
▁filters	-11.4566
▁laying	-11.4567
sar	-11.457
▁locally	-11.4572
bid	-11.4572
▁ti	-11.4573
:16	-11.4574
▁coding	-11.4577
▁fats	-11.4578
▁passenger	-11.4582
▁reads	-11.4582
▁Lower	-11.4583
▁cope	-11.4584
eau	-11.4585
ibility	-11.4585
pal	-11.4585
GS	-11.4586
▁coalition	-11.4588
▁Labour	-11.4588
▁600	-11.4588
▁Student	-11.4591
▁raises	-11.4593
▁Communist	-11.4593
▁electro	-11.4596
▁Bas	-11.4596
▁Gal	-11.4598
▁EM	-11.4599
▁Advanced	-11.4601
▁neurons	-11.4603
▁planes	-11.4605
▁800	-11.4607
▁Ant	-11.4608
tru	-11.4608
▁Mil	-11.4609
▁grades	-11.4609
▁Cool	-11.461
▁mobility	-11.4611
▁Douglas	-11.4611
▁mag	-11.4618
▁mandate	-11.462
▁Fear	-11.4621
▁Snow	-11.4622
▁attach	-11.4624
▁awake	-11.4624
▁debut	-11.4625
▁Map	-11.4626
media	-11.4628
▁trips	-11.4629
▁earthquake	-11.4629
aver	-11.4631
▁earnings	-11.4631
▁Abraham	-11.4634
▁Exercise	-11.4634
▁Subscribe	-11.4634
▁advocate	-11.4635
▁accordingly	-11.4635
biotic	-11.4635
▁souls	-11.4639
▁Buck	-11.464
▁echo	-11.464
▁NC	-11.4642
▁survivors	-11.465
▁companion	-11.4653
▁pu	-11.4654
▁similarly	-11.4655
col	-11.4655
▁collision	-11.4657
▁ignorance	-11.4657
▁kernel	-11.4657
▁deciding	-11.4657
stick	-11.4657
HA	-11.4659
▁demonstrates	-11.4659
▁align	-11.4661
▁silk	-11.4663
▁PhD	-11.4663
▁villain	-11.4664
▁pun	-11.4664
OK	-11.4665
▁massage	-11.4666
▁kinda	-11.4667
▁GOP	-11.4669
▁180	-11.4669
▁containers	-11.4673
▁longest	-11.4678
sses	-11.4679
▁Assembly	-11.4681
▁sustainability	-11.4681
▁1987	-11.4682
▁operated	-11.4682
▁Except	-11.4693
▁placement	-11.4694
zing	-11.4697
first	-11.47
group	-11.4702
▁sectors	-11.4702
▁Toronto	-11.4704
▁secular	-11.4704
▁firing	-11.4704
▁cried	-11.4705
▁compression	-11.4707
▁Environment	-11.4708
▁Rh	-11.4708
tag	-11.4709
▁impose	-11.471
▁glance	-11.471
▁delete	-11.4711
▁sore	-11.4714
▁Euro	-11.4715
▁makers	-11.4715
▁viewers	-11.4715
▁tricks	-11.4716
7)	-11.4716
▁Kate	-11.4718
▁constraints	-11.4719
▁57	-11.4719
▁Rule	-11.472
▁gases	-11.4721
▁ga	-11.4722
PubMed	-11.4723
Figure	-11.4724
▁corporation	-11.4725
▁hosts	-11.4727
▁Minnesota	-11.4727
▁nasty	-11.4727
▁Barack	-11.4728
▁newspapers	-11.4728
▁balloon	-11.4728
num	-11.4729
▁scent	-11.4732
▁consultant	-11.4732
▁terrorists	-11.4734
▁thorough	-11.4741
mile	-11.4742
▁Were	-11.4746
▁Kit	-11.4747
▁Object	-11.4748
▁inability	-11.4748
▁diamond	-11.4749
▁lawn	-11.4749
▁cruel	-11.475
▁injection	-11.475
▁Anthony	-11.4751
▁Sweden	-11.4751
▁applicable	-11.4751
▁abundant	-11.4751
▁transmitted	-11.4752
▁sustained	-11.4752
▁Morgan	-11.4753
▁translate	-11.4756
▁overseas	-11.476
nne	-11.476
gie	-11.476
▁challenged	-11.476
With	-11.4762
▁colonial	-11.4765
▁MC	-11.4766
▁Bus	-11.4767
▁stating	-11.4767
Of	-11.4767
profit	-11.477
used	-11.4771
▁Ministry	-11.4775
▁Freedom	-11.4775
NG	-11.4777
▁continually	-11.4778
▁Tower	-11.4779
:23	-11.478
▁preserved	-11.4785
▁demanded	-11.4789
▁targeting	-11.479
▁dangers	-11.4791
pic	-11.4791
ground	-11.4793
▁transit	-11.4795
▁transplant	-11.4796
▁Wisconsin	-11.4798
▁tragic	-11.4798
miss	-11.48
▁priorities	-11.48
▁scam	-11.4807
▁medicines	-11.4809
▁rival	-11.4812
eye	-11.4812
green	-11.4815
▁promoted	-11.4816
yard	-11.482
▁BE	-11.4821
▁virtue	-11.4821
▁cruise	-11.4822
▁scroll	-11.4822
▁loading	-11.4822
▁Isn	-11.4823
▁2.5	-11.4823
▁Sim	-11.4823
▁polls	-11.4824
▁relaxed	-11.4825
▁activists	-11.4827
week	-11.4827
▁casting	-11.4828
▁dye	-11.4829
your	-11.4837
▁united	-11.4838
▁Burn	-11.4839
▁Send	-11.4839
sie	-11.484
▁eliminated	-11.4843
▁labeled	-11.4843
▁aluminum	-11.4846
▁warfare	-11.4846
▁negotiations	-11.485
although	-11.485
:19	-11.4852
▁cease	-11.4852
section	-11.4853
▁80%	-11.4858
NT	-11.4858
cht	-11.4859
▁58	-11.486
his	-11.4862
▁diets	-11.4862
▁deer	-11.4864
wer	-11.4864
▁Drug	-11.4865
▁cop	-11.4867
▁Close	-11.4868
▁Episode	-11.4869
▁debris	-11.4869
▁Explain	-11.487
▁interference	-11.487
▁CC	-11.487
▁subscription	-11.487
▁generator	-11.487
▁UV	-11.4873
▁Poland	-11.4874
pot	-11.4876
▁Ven	-11.488
▁lightning	-11.488
▁reviewed	-11.4884
▁acted	-11.4884
▁snap	-11.4886
▁hop	-11.4887
ced	-11.4887
▁Motor	-11.4888
bre	-11.4891
nder	-11.4892
▁deficit	-11.4894
▁strive	-11.4895
▁Pol	-11.4896
▁manufacture	-11.4896
▁Heat	-11.4896
▁smallest	-11.4897
▁musicians	-11.4899
cake	-11.49
▁sw	-11.4905
▁Going	-11.4907
▁cleaner	-11.4907
cca	-11.4908
▁complaint	-11.4908
logic	-11.491
▁succeeded	-11.491
▁outfit	-11.491
▁basement	-11.491
▁paintings	-11.4911
aria	-11.4913
▁mixing	-11.4914
▁openly	-11.4916
▁Philadelphia	-11.4917
▁hatred	-11.4918
▁loyalty	-11.4918
▁epic	-11.4919
▁Document	-11.4923
▁dominate	-11.4923
▁dan	-11.4926
En	-11.4926
▁witnesses	-11.4927
▁molecule	-11.4927
▁dull	-11.4928
▁bump	-11.4929
▁gr	-11.4934
▁NA	-11.4936
▁sanctions	-11.4938
▁Capital	-11.494
▁junk	-11.4941
▁appreciation	-11.4941
▁flew	-11.4941
▁severity	-11.4942
▁Batman	-11.4944
▁Palestinian	-11.4948
▁deliberately	-11.4948
▁revealing	-11.495
▁murdered	-11.4952
▁mount	-11.4956
▁camps	-11.4956
wave	-11.4958
imp	-11.4959
SU	-11.4961
▁unto	-11.4961
▁freak	-11.4966
▁packaging	-11.4966
▁Francis	-11.4968
▁missile	-11.4969
▁wounded	-11.497
nel	-11.4972
ori	-11.4976
▁paste	-11.4976
▁Guard	-11.4977
stein	-11.4978
dling	-11.4978
▁vet	-11.4979
▁axis	-11.498
▁shortage	-11.4982
▁climbing	-11.4985
second	-11.4986
people	-11.4987
▁buzz	-11.4989
▁shook	-11.499
▁linguistic	-11.499
▁interpreted	-11.4993
▁theatre	-11.4995
▁answering	-11.4998
very	-11.4999
▁Customer	-11.5
▁resolved	-11.5001
▁recovered	-11.5001
party	-11.5001
▁ate	-11.5001
▁novels	-11.5002
▁shore	-11.5004
▁listened	-11.5004
▁nutrient	-11.5005
▁limiting	-11.5008
▁vibration	-11.5013
▁drought	-11.5014
gro	-11.5015
▁revelation	-11.5015
▁obstacles	-11.5016
check	-11.5017
▁Guardian	-11.5017
▁activate	-11.5019
▁nights	-11.502
▁maximize	-11.5025
▁earning	-11.5034
▁bases	-11.5035
▁Ap	-11.5036
▁OP	-11.5037
achi	-11.5038
▁tragedy	-11.5038
▁[–]	-11.5038
▁swear	-11.5039
▁vegan	-11.5039
-01	-11.5039
▁1986	-11.504
6)	-11.5042
ush	-11.5045
▁Tur	-11.5047
ologist	-11.5048
▁Bat	-11.505
▁bloody	-11.5051
▁30%	-11.5051
OT	-11.5053
▁Baby	-11.5055
▁95	-11.5057
olo	-11.5059
▁seeks	-11.5059
▁(6	-11.5061
▁enters	-11.5061
▁Military	-11.5062
▁plasma	-11.5062
▁clinic	-11.5063
▁hosting	-11.507
▁mutations	-11.5071
EX	-11.5071
"?	-11.5073
▁invisible	-11.5074
para	-11.5074
Com	-11.5074
url	-11.5075
▁von	-11.5077
CR	-11.508
▁Ted	-11.508
DO	-11.5082
▁woke	-11.5084
hor	-11.5085
▁investigating	-11.5086
▁Romney	-11.5086
▁discourse	-11.5087
▁quoted	-11.5087
nge	-11.5087
▁jumping	-11.5091
▁incentive	-11.5092
▁prompt	-11.5094
SH	-11.5094
▁Zo	-11.5098
▁Flu	-11.5098
iya	-11.5099
▁cousin	-11.5099
▁Khan	-11.5099
▁unions	-11.5099
▁symbolic	-11.5102
▁21.	-11.5102
▁Ms	-11.5106
▁Bol	-11.5106
▁exceptions	-11.5106
▁overhead	-11.5106
▁fuels	-11.5106
▁vapor	-11.5111
▁supplied	-11.5111
▁spiral	-11.5111
▁residential	-11.5111
▁Staff	-11.5113
▁awarded	-11.5113
▁Half	-11.5114
bil	-11.5115
▁destroying	-11.5115
▁tourism	-11.5116
▁calculations	-11.5124
▁tourists	-11.5125
▁advancement	-11.5127
▁assured	-11.5128
▁Mississippi	-11.5135
▁declaration	-11.5135
▁enabling	-11.5135
▁tournament	-11.5135
▁clarity	-11.5135
▁trunk	-11.5135
▁consistency	-11.5135
▁'12	-11.5137
▁1984	-11.5137
Hey	-11.5139
▁leak	-11.514
▁qua	-11.5142
▁conform	-11.5143
teen	-11.5144
ELL	-11.5145
▁ft	-11.5146
▁Lisa	-11.5146
▁staring	-11.5148
▁talented	-11.5149
HS	-11.515
▁sur	-11.515
TI	-11.515
hill	-11.5151
▁login	-11.5153
▁shy	-11.5154
CP	-11.5154
▁intentions	-11.5158
written	-11.5158
▁yeast	-11.516
▁Germans	-11.516
▁shifts	-11.5161
▁ci	-11.5161
▁Kelly	-11.5165
▁Screen	-11.5166
▁progression	-11.5172
IG	-11.5173
0%	-11.5175
▁Planet	-11.5179
▁clubs	-11.5179
▁modes	-11.518
▁Lion	-11.5183
▁Heaven	-11.5184
▁LE	-11.5188
Ta	-11.5191
▁affair	-11.5192
▁candy	-11.5193
(1)	-11.5195
:21	-11.5196
ATE	-11.5197
leg	-11.5198
▁cu	-11.5201
▁Len	-11.5201
ela	-11.5201
▁Der	-11.5202
▁induce	-11.5204
rig	-11.5207
grade	-11.5208
???	-11.5209
▁Jonathan	-11.5209
▁Senior	-11.5209
▁cliff	-11.5209
▁Professional	-11.5212
uma	-11.5213
▁stall	-11.5214
NS	-11.5216
▁Salt	-11.5217
▁electronics	-11.5217
▁dip	-11.5218
mis	-11.522
chu	-11.522
rup	-11.5222
▁sensory	-11.5223
▁herbs	-11.5224
▁holidays	-11.5225
▁originated	-11.5226
▁treaty	-11.5226
▁tens	-11.5227
rri	-11.5233
▁Regardless	-11.5234
▁fifteen	-11.5234
▁delivering	-11.5234
▁hills	-11.5234
mmer	-11.5237
elli	-11.5238
▁footage	-11.5239
▁wax	-11.5241
▁Indonesia	-11.5245
▁bench	-11.5247
▁mayor	-11.5247
▁illustrate	-11.5249
:18	-11.525
▁kg	-11.5252
unt	-11.5253
▁Additional	-11.5255
▁honour	-11.5258
▁temporarily	-11.5258
▁venue	-11.5258
▁immunity	-11.5259
▁uncle	-11.5259
▁Location	-11.526
▁recession	-11.526
▁gauge	-11.526
▁keen	-11.5264
▁Nar	-11.5264
▁assign	-11.5264
▁Channel	-11.5264
▁enzyme	-11.5268
▁faint	-11.5271
wind	-11.5272
▁needle	-11.5277
▁Same	-11.5277
▁sisters	-11.5278
ema	-11.528
▁socialist	-11.5282
▁dec	-11.5283
▁Survey	-11.5283
▁[...]	-11.5283
▁Gordon	-11.5283
▁Interview	-11.5283
▁complement	-11.5284
nom	-11.5284
▁Evolution	-11.5285
:22	-11.5285
▁incorporated	-11.5287
▁Complete	-11.5288
books	-11.5288
▁Fra	-11.5291
iki	-11.5293
▁fond	-11.5293
▁premise	-11.5293
▁barrel	-11.5295
▁sync	-11.5296
etic	-11.5297
standing	-11.5297
▁traveled	-11.53
▁Previous	-11.5304
▁Ce	-11.5306
▁susceptible	-11.5308
▁restoration	-11.5308
LS	-11.5308
▁Buddha	-11.5308
▁ph	-11.5309
▁rude	-11.5311
▁Kenya	-11.5311
adi	-11.5312
▁sexually	-11.5313
▁modeling	-11.5315
▁educate	-11.5315
▁Intel	-11.5315
▁euro	-11.5317
fest	-11.5319
▁titled	-11.5321
▁Problem	-11.5323
▁bore	-11.5323
▁prince	-11.5323
▁Hay	-11.5326
▁chapters	-11.5326
PE	-11.5327
▁Knowledge	-11.5333
▁Past	-11.5338
▁pond	-11.5339
▁68	-11.5339
▁colored	-11.534
▁lord	-11.5342
▁partition	-11.5342
▁GPS	-11.5343
▁disturbing	-11.5344
▁PO	-11.5344
▁calculation	-11.5344
oke	-11.5346
▁ABC	-11.5347
pad	-11.5347
▁suited	-11.5348
▁rows	-11.5348
▁explicit	-11.5348
▁alignment	-11.5349
▁rot	-11.5354
▁respected	-11.5356
▁cons	-11.5356
▁manually	-11.5357
sur	-11.5357
▁uncertain	-11.5357
▁hub	-11.5359
▁Face	-11.5359
show	-11.536
▁descriptions	-11.536
▁Leader	-11.536
▁therapeutic	-11.5362
▁consultation	-11.5363
▁DS	-11.5364
▁Picture	-11.537
▁Speed	-11.537
ann	-11.5374
▁CS	-11.5375
▁electrons	-11.5375
▁doses	-11.5377
▁rack	-11.5377
▁101	-11.5378
▁gardens	-11.5381
▁Moscow	-11.5383
▁Potter	-11.5384
▁conceptual	-11.5385
▁Woman	-11.5385
love	-11.5387
▁Results	-11.5387
▁hated	-11.5388
RT	-11.539
▁suspended	-11.5391
gna	-11.5391
gin	-11.5395
▁routes	-11.5396
▁chase	-11.5396
▁Kam	-11.5399
▁algebra	-11.5399
▁bees	-11.54
▁CIA	-11.5402
flu	-11.5402
tron	-11.5402
▁cigarettes	-11.5403
▁poster	-11.5404
MD	-11.5405
▁pla	-11.5406
▁imagined	-11.5407
▁grief	-11.5408
▁delicate	-11.5408
▁tourist	-11.5408
▁Hopefully	-11.5408
▁Darwin	-11.5408
speed	-11.5412
▁poison	-11.5415
▁simpler	-11.5417
▁Th	-11.542
▁concentrations	-11.542
▁horn	-11.5423
▁implant	-11.5424
▁flies	-11.5425
▁interventions	-11.5426
shire	-11.5426
God	-11.543
▁devastating	-11.5433
▁surviving	-11.5433
▁Shadow	-11.5433
▁Remove	-11.5435
▁lease	-11.5436
▁HR	-11.5436
ello	-11.5436
▁problematic	-11.5437
▁VI	-11.5438
▁advocates	-11.5438
nick	-11.544
Dis	-11.5442
DD	-11.5445
▁spirits	-11.5445
▁mac	-11.5446
▁bail	-11.5448
/2	-11.5449
▁justified	-11.5451
▁Sab	-11.5451
▁mounted	-11.5453
▁explored	-11.5453
▁sounded	-11.5454
▁Chu	-11.5454
Jo	-11.5455
▁beast	-11.5455
▁ال	-11.5456
aid	-11.5456
▁Eve	-11.5458
▁frustrating	-11.5459
▁Oregon	-11.5459
▁Release	-11.5459
▁prototype	-11.5459
▁absent	-11.5459
▁nonsense	-11.546
ink	-11.546
▁boundary	-11.5461
▁deadline	-11.5461
▁wipe	-11.5462
▁Horse	-11.5463
Ch	-11.5463
▁marginal	-11.5464
▁backed	-11.5465
▁Liberal	-11.5466
▁backwards	-11.5468
▁blessed	-11.5468
▁incorrect	-11.5468
▁Zi	-11.5471
jun	-11.5471
hop	-11.5475
▁2.0	-11.5478
▁shifting	-11.5478
▁mob	-11.5478
▁socially	-11.548
▁shifted	-11.5482
▁Arts	-11.5482
▁manipulation	-11.5484
▁palace	-11.5484
ume	-11.5484
▁intact	-11.5485
▁qualify	-11.5485
▁jack	-11.5486
▁imbalance	-11.5487
color	-11.5488
rel	-11.5491
▁thrust	-11.5494
▁Putin	-11.5495
ident	-11.5496
▁charm	-11.5497
▁entertaining	-11.5498
had	-11.5499
oi	-11.5502
▁manages	-11.5504
uro	-11.5505
▁gal	-11.5506
ré	-11.5508
▁introducing	-11.5509
▁opposing	-11.5509
▁courtesy	-11.5509
▁Inside	-11.551
▁Voice	-11.551
▁daughters	-11.5511
rock	-11.5514
▁acknowledged	-11.5516
▁analyzed	-11.5519
▁destructive	-11.5519
▁Qua	-11.5519
▁Finding	-11.552
root	-11.5521
▁scar	-11.5523
▁sticks	-11.5523
▁intensive	-11.5523
▁Blu	-11.5524
▁physicians	-11.5525
▁Cro	-11.5526
▁organism	-11.5528
ington	-11.5528
vie	-11.5529
▁distances	-11.5529
▁Race	-11.5529
▁inclusion	-11.5533
▁Block	-11.5533
▁exceed	-11.5533
▁cinema	-11.5534
▁eligible	-11.5535
▁clarify	-11.5535
▁mimic	-11.5535
▁submission	-11.5536
▁tide	-11.5536
stop	-11.5536
▁revision	-11.5537
big	-11.5538
gene	-11.5539
flat	-11.5539
▁qui	-11.5539
▁absorption	-11.5542
▁makeup	-11.5544
▁crawl	-11.5545
▁mega	-11.5545
▁Base	-11.5547
:25	-11.5548
▁strengths	-11.5552
Our	-11.5552
▁frames	-11.5552
▁Hit	-11.5556
▁aggregate	-11.556
▁controversy	-11.556
▁inevitably	-11.556
▁Magazine	-11.556
▁Bond	-11.5561
lian	-11.5561
▁bur	-11.5562
pr	-11.5563
▁Thor	-11.5563
ional	-11.5564
▁streams	-11.5566
▁manipulate	-11.5568
▁planting	-11.5568
▁Dy	-11.557
▁heated	-11.557
tax	-11.5574
▁atomic	-11.5576
▁ON	-11.5581
▁fame	-11.5583
▁historically	-11.5583
▁lend	-11.5584
▁66	-11.5585
▁allergies	-11.5586
▁Amy	-11.5591
▁incidents	-11.5591
▁criminals	-11.5591
▁fulfill	-11.5594
▁forty	-11.5595
▁woods	-11.5595
▁artwork	-11.5595
nz	-11.5597
▁Kin	-11.5598
▁Poor	-11.5598
▁Crime	-11.5602
▁assure	-11.5603
▁Walter	-11.5603
mont	-11.5605
▁severely	-11.5606
MR	-11.5606
string	-11.5607
▁Convention	-11.561
▁literacy	-11.5611
▁sampling	-11.5611
▁antenna	-11.5612
▁religions	-11.5612
▁dawn	-11.5613
▁nail	-11.5614
▁tomatoes	-11.5615
▁tense	-11.5615
▁segments	-11.5615
▁ranges	-11.5617
▁Mol	-11.562
▁investigated	-11.5623
▁strongest	-11.5624
▁”	-11.5626
▁wallet	-11.563
▁Adams	-11.5632
▁coil	-11.5632
SI	-11.5636
interest	-11.5637
▁Buddhist	-11.5637
▁Corporation	-11.5637
▁analyzing	-11.5637
▁stimulus	-11.5637
▁allergic	-11.5637
▁1979	-11.5639
▁Single	-11.5639
arrow	-11.5641
▁outbreak	-11.5641
▁Benefits	-11.5644
▁Wiki	-11.5644
RY	-11.5646
▁Walker	-11.5647
control	-11.5648
▁canal	-11.5657
▁outlet	-11.566
▁scare	-11.5661
▁absurd	-11.5661
UM	-11.5661
▁MB	-11.5662
▁anniversary	-11.5663
▁prejudice	-11.5663
▁smiling	-11.5663
▁certification	-11.5663
▁triangle	-11.5663
▁humble	-11.5663
▁Stories	-11.5663
▁jerk	-11.5664
▁Protect	-11.5667
▁Rod	-11.567
agon	-11.5671
round	-11.5672
▁restrict	-11.5672
▁hood	-11.5674
▁damages	-11.5677
▁realizing	-11.5679
▁arrow	-11.5679
▁obligation	-11.5682
▁credits	-11.5688
tie	-11.5688
▁Front	-11.5688
▁regulated	-11.5689
▁Dictionary	-11.5689
▁Physics	-11.5689
▁primitive	-11.5689
▁Scripture	-11.5689
▁scholarship	-11.569
▁Larry	-11.5691
▁couch	-11.5692
▁mammals	-11.5693
▁timeline	-11.5693
SL	-11.5694
▁dislike	-11.5694
▁Logo	-11.5694
ception	-11.5694
▁stir	-11.5696
▁accidentally	-11.5696
ching	-11.5696
▁Chan	-11.5697
horn	-11.5697
last	-11.5698
ried	-11.5699
▁delayed	-11.5699
▁visa	-11.57
▁temp	-11.5701
▁Row	-11.5702
-0	-11.5707
▁Steel	-11.5707
▁verbal	-11.5707
▁ser	-11.5708
▁tales	-11.5709
lines	-11.5711
▁adjusted	-11.5712
FP	-11.5713
▁dictionary	-11.5715
▁stunning	-11.5715
▁replies	-11.5715
▁wanna	-11.5715
▁conception	-11.5716
mid	-11.5716
▁distraction	-11.5719
▁secrets	-11.572
live	-11.5722
▁privilege	-11.5723
▁crush	-11.5723
▁Carter	-11.5725
▁tires	-11.5725
got	-11.5727
▁bitch	-11.5728
▁exhausted	-11.5728
▁google	-11.5729
▁washed	-11.5732
wel	-11.5732
▁newer	-11.5734
▁casino	-11.5735
▁Command	-11.5735
▁tricky	-11.5736
";	-11.5737
▁angles	-11.5738
▁Netherlands	-11.5741
▁Together	-11.5741
▁Definition	-11.5741
▁Turkish	-11.5741
▁civilian	-11.5741
▁Diego	-11.5742
▁1985	-11.5743
▁guides	-11.5745
iel	-11.5746
lab	-11.575
▁Works	-11.5751
▁Barry	-11.5753
▁Brad	-11.5753
▁reporter	-11.5754
▁subjective	-11.5757
▁unfortunate	-11.5757
▁Soul	-11.5761
▁chains	-11.5764
▁essays	-11.5765
▁Muhammad	-11.5767
▁Ontario	-11.5767
▁synthesis	-11.5767
▁Rachel	-11.5767
▁bundle	-11.5767
ched	-11.5767
▁Creative	-11.5767
▁Throughout	-11.5769
▁bombing	-11.577
Di	-11.5774
▁norm	-11.5774
ifier	-11.5775
▁persist	-11.5775
▁tablets	-11.5776
▁40%	-11.5777
makers	-11.5787
char	-11.5787
rite	-11.5787
aught	-11.579
▁Size	-11.579
▁Imperial	-11.5793
▁peanut	-11.5793
▁compost	-11.5794
▁9/11	-11.5794
▁actress	-11.5795
▁deployment	-11.5795
0°	-11.58
▁annually	-11.5801
▁Bid	-11.5803
fil	-11.5804
▁organisations	-11.5805
▁mum	-11.5807
▁illnesses	-11.5808
▁laughter	-11.5808
▁cartoon	-11.5815
▁Var	-11.5816
cover	-11.5817
▁compassion	-11.5817
▁Harris	-11.5817
▁epidemic	-11.5819
▁mandatory	-11.5819
▁Nutrition	-11.5819
▁gambling	-11.5819
▁insect	-11.5821
▁reproductive	-11.5821
▁cl	-11.5821
▁Des	-11.5821
building	-11.5826
??	-11.583
:45	-11.5831
▁Message	-11.5831
▁evaluated	-11.5832
▁thyroid	-11.5832
▁deployed	-11.5835
wit	-11.5837
▁triggered	-11.5838
▁manufactured	-11.5839
▁quo	-11.5842
▁patron	-11.5845
▁inquiry	-11.5845
▁Volume	-11.5845
walk	-11.5848
▁dismiss	-11.5849
▁Tiger	-11.585
▁civilians	-11.5852
uda	-11.5853
▁Metal	-11.5855
▁DM	-11.5856
▁Lar	-11.5856
▁Legal	-11.5856
▁reactor	-11.5857
▁sixth	-11.5858
▁pronounced	-11.5861
▁enzymes	-11.5861
▁trains	-11.5863
TR	-11.5864
▁apples	-11.5865
▁bored	-11.5865
▁shelf	-11.5868
▁revenge	-11.5872
▁Neither	-11.5872
PP	-11.5873
AY	-11.5874
lis	-11.5877
▁profitable	-11.588
▁Wales	-11.5882
▁lifting	-11.5882
▁hum	-11.5883
▁pays	-11.5885
▁hypo	-11.5885
▁pipes	-11.5885
->	-11.5886
▁Apart	-11.5887
▁colours	-11.589
FT	-11.5891
mos	-11.5894
dir	-11.5895
gers	-11.5896
▁arthritis	-11.5898
▁paradigm	-11.5898
▁Utah	-11.5898
▁harmony	-11.5898
▁Creating	-11.5899
▁hostile	-11.59
▁Ren	-11.59
▁permanently	-11.59
▁inhibit	-11.5901
▁spy	-11.5901
▁cheer	-11.5902
▁Biology	-11.5902
▁nicely	-11.5902
▁Category	-11.5902
▁upload	-11.5902
▁poems	-11.5905
▁monsters	-11.5905
▁stays	-11.5906
tell	-11.591
SO	-11.5913
▁brutal	-11.5913
▁vague	-11.5915
▁FI	-11.5916
▁stranger	-11.5918
roid	-11.592
▁Olympic	-11.5922
▁parliament	-11.5923
▁ignoring	-11.5924
▁automation	-11.5924
▁automobile	-11.5924
▁Democrat	-11.5925
▁Bri	-11.5926
▁journalist	-11.5927
▁districts	-11.5931
▁PD	-11.5931
ain	-11.5936
▁61	-11.5937
RR	-11.5938
▁Spi	-11.5938
▁Karl	-11.5939
▁oils	-11.594
▁drum	-11.5941
▁Sara	-11.5941
▁towel	-11.5942
▁analyses	-11.5944
▁18,	-11.5948
▁Updated	-11.5948
▁RO	-11.5949
eus	-11.595
▁villages	-11.595
▁nowadays	-11.5951
▁tightly	-11.5952
▁appearing	-11.5953
eva	-11.5955
▁waist	-11.5956
▁breach	-11.5956
▁Mus	-11.5958
▁Must	-11.5958
▁ion	-11.596
▁perspectives	-11.5963
▁counted	-11.5963
▁informal	-11.5964
▁archive	-11.5965
▁Die	-11.5966
▁downward	-11.5971
quire	-11.5973
▁Attorney	-11.5977
▁Mediterranean	-11.5977
▁Prophet	-11.5977
▁empathy	-11.5978
▁disabilities	-11.5978
▁exceptional	-11.598
ees	-11.5981
▁Dam	-11.5981
Just	-11.5982
cit	-11.5986
▁restored	-11.5986
▁Mobile	-11.5986
▁tablet	-11.5987
▁ensures	-11.5991
▁18.	-11.5992
▁Arabic	-11.5993
▁departments	-11.5996
▁fighter	-11.6
▁triple	-11.6001
met	-11.6004
▁1%	-11.6004
▁caffeine	-11.6004
▁fist	-11.6005
▁optional	-11.6006
normal	-11.6006
▁Room	-11.6008
▁networking	-11.6008
pu	-11.6008
▁Johnny	-11.6009
kg	-11.6012
▁FOR	-11.6013
icle	-11.6013
UD	-11.6014
...)	-11.6017
▁Ak	-11.6018
▁literal	-11.6021
▁decreases	-11.6025
▁institutional	-11.6028
▁Scientific	-11.6031
▁featuring	-11.6031
▁humidity	-11.6032
four	-11.6032
▁Jimmy	-11.6032
IF	-11.6033
▁symptom	-11.6035
▁cement	-11.6035
kel	-11.6037
▁Torah	-11.6037
▁Safe	-11.6037
▁nap	-11.6037
▁certified	-11.6039
▁Parents	-11.604
▁inherited	-11.6042
▁curse	-11.6043
▁Allow	-11.6045
▁publications	-11.6045
▁Answers	-11.6045
EST	-11.6047
mato	-11.6049
PI	-11.605
scribe	-11.6051
▁perfection	-11.6051
▁arrives	-11.6056
▁protagonist	-11.6058
▁vaccination	-11.6058
▁bark	-11.6059
▁Mental	-11.606
▁mankind	-11.606
bul	-11.6061
▁SD	-11.6061
▁boots	-11.6061
▁header	-11.6061
▁Meta	-11.6062
▁presumably	-11.6064
▁Tag	-11.6065
Read	-11.6065
▁workshop	-11.6065
▁overly	-11.6065
▁Bit	-11.6068
▁sto	-11.6071
▁IBM	-11.6075
▁Nigeria	-11.6076
▁households	-11.6076
▁ratings	-11.6077
▁5)	-11.6078
▁struggled	-11.6079
▁psycho	-11.608
▁sy	-11.6081
▁Hawk	-11.6084
▁irregular	-11.6085
▁Quality	-11.6085
▁Blogger	-11.6086
▁#3	-11.6089
mir	-11.6089
block	-11.6089
▁headache	-11.6089
eal	-11.6091
700	-11.6093
▁associations	-11.6097
▁nurses	-11.6099
▁Victoria	-11.6101
awa	-11.6104
tas	-11.6105
▁builds	-11.6107
Car	-11.6108
count	-11.6108
▁jokes	-11.6108
▁ram	-11.6108
▁keywords	-11.6111
▁22.	-11.6111
▁Houston	-11.6112
▁convincing	-11.6112
▁legislative	-11.6112
▁Kansas	-11.6112
▁Protestant	-11.6112
FF	-11.6113
▁highlighted	-11.6113
▁Award	-11.6114
▁infants	-11.6114
▁€	-11.6115
▁Origin	-11.6115
erson	-11.6117
nit	-11.6117
▁Castle	-11.6118
▁recommendation	-11.6122
▁Prof	-11.6125
▁lamp	-11.6126
posed	-11.6126
App	-11.6128
▁rhetoric	-11.6128
▁financially	-11.6129
▁RAM	-11.6133
▁dr	-11.6134
▁bush	-11.6134
▁developments	-11.6135
▁guided	-11.6137
▁Sco	-11.6137
▁desirable	-11.6139
▁hurricane	-11.6139
▁iPad	-11.6139
▁elbow	-11.6139
▁grandfather	-11.6139
▁acres	-11.6139
▁tra	-11.6139
▁searches	-11.6139
▁regain	-11.614
▁rigid	-11.614
▁conviction	-11.6142
▁2008,	-11.6142
pra	-11.6142
▁Typically	-11.6142
▁judgement	-11.6143
▁Virtual	-11.6144
▁develops	-11.6145
▁diagnose	-11.6147
▁Links	-11.6149
▁Bru	-11.6149
CL	-11.6152
▁midst	-11.6154
▁withdraw	-11.6157
▁0.1	-11.6159
BI	-11.6159
▁kicked	-11.6159
▁sketch	-11.6161
▁RA	-11.6162
▁bro	-11.6163
▁seasonal	-11.6163
▁databases	-11.6165
▁disposal	-11.6166
▁financing	-11.6166
▁Emily	-11.6166
▁helmet	-11.6166
aku	-11.6168
▁pl	-11.6168
guard	-11.6168
▁GP	-11.6169
▁aggression	-11.617
lect	-11.6172
tty	-11.6172
▁senses	-11.6173
▁Sadly	-11.6174
▁questioning	-11.6174
▁creator	-11.6175
▁Gro	-11.6178
▁slice	-11.6179
lb	-11.618
▁resting	-11.6181
▁wasted	-11.6183
has	-11.6186
▁incentives	-11.6187
▁wolf	-11.6189
▁router	-11.6191
mission	-11.6191
▁arrangements	-11.6192
▁pursuing	-11.6193
▁suspension	-11.6193
▁funeral	-11.6193
▁grat	-11.6193
▁teaspoon	-11.6193
▁altitude	-11.6193
▁terrain	-11.6193
▁suspicious	-11.6193
▁crude	-11.6193
▁Version	-11.6194
▁uncommon	-11.6194
proof	-11.6194
▁cleared	-11.6197
▁Method	-11.6198
▁cancel	-11.6198
▁Ultimately	-11.6198
▁developmental	-11.6198
Are	-11.6201
▁oppose	-11.6202
▁Clearly	-11.6202
▁distinguished	-11.6204
ule	-11.6205
▁slope	-11.6206
▁pub	-11.6207
▁Rain	-11.6207
▁modules	-11.6208
▁Py	-11.6208
▁Roy	-11.6209
fra	-11.621
suit	-11.6214
▁2010,	-11.6215
culture	-11.6216
▁CI	-11.6219
▁Spin	-11.6219
▁Symptoms	-11.622
▁cannabis	-11.622
friend	-11.622
▁Publisher	-11.622
▁Coll	-11.622
▁plural	-11.622
▁Website	-11.6221
▁Cer	-11.6222
bie	-11.6223
▁corners	-11.6223
▁deserves	-11.6224
▁wounds	-11.6224
▁indicator	-11.6225
▁elementary	-11.6225
▁niche	-11.6225
lac	-11.6225
ml	-11.6227
▁dev	-11.6227
▁lover	-11.623
bank	-11.6231
▁TH	-11.6231
▁conf	-11.6234
▁Shu	-11.6235
▁BO	-11.6238
▁startup	-11.6239
▁parks	-11.6241
▁Beck	-11.6241
ire	-11.6242
PD	-11.6242
▁learners	-11.6244
lk	-11.6246
une	-11.6246
▁Hamilton	-11.6247
▁Insurance	-11.6247
▁prevalence	-11.6247
▁irrelevant	-11.6247
▁railroad	-11.6247
▁bitcoin	-11.6248
▁depressed	-11.6249
▁NFL	-11.6249
▁Que	-11.625
▁Latest	-11.625
lav	-11.625
▁sch	-11.6251
▁systematic	-11.6252
pet	-11.6252
▁veteran	-11.6253
hn	-11.6253
▁cables	-11.6254
aba	-11.6256
Mi	-11.6256
▁Eight	-11.6257
▁machinery	-11.6257
chemical	-11.6258
▁Lost	-11.6259
:40	-11.6259
▁boards	-11.6259
CD	-11.6259
▁fri	-11.6261
▁Tro	-11.6263
▁rotate	-11.6265
▁Josh	-11.627
▁ranks	-11.6271
▁charts	-11.6274
▁sting	-11.6274
▁boats	-11.6274
▁clone	-11.6274
▁curiosity	-11.6275
▁Tesla	-11.6275
▁Austin	-11.6275
▁statute	-11.6275
▁Laboratory	-11.6275
▁Jefferson	-11.6275
▁arbitrary	-11.6275
▁pillow	-11.6275
▁conducting	-11.6276
BO	-11.6278
▁intra	-11.6279
▁undergo	-11.6279
▁Task	-11.628
▁gig	-11.6283
▁refined	-11.6285
▁Satan	-11.6287
udge	-11.6291
▁62	-11.6292
▁lightly	-11.6293
▁cigarette	-11.6293
▁Robin	-11.6297
▁mentions	-11.6299
▁teenage	-11.63
▁TA	-11.6301
▁Dick	-11.6301
▁shaft	-11.6303
▁reserves	-11.6303
▁Franklin	-11.6304
system	-11.6304
▁freezing	-11.6305
▁Matter	-11.6306
▁Round	-11.6308
▁oak	-11.6309
▁Cuba	-11.6309
▁scattered	-11.631
▁Certainly	-11.631
▁draws	-11.631
▁triggers	-11.6311
▁pathway	-11.6313
▁Break	-11.6313
▁rod	-11.6314
▁trucks	-11.6315
▁distinctive	-11.6315
▁carbohydrates	-11.6315
rag	-11.6317
uit	-11.6317
▁flourish	-11.6317
▁rip	-11.6319
then	-11.632
▁structured	-11.632
▁compatible	-11.6327
▁gasoline	-11.633
▁Course	-11.633
▁critique	-11.633
ML	-11.633
▁salmon	-11.633
▁Romans	-11.633
exp	-11.6333
science	-11.6334
▁borrow	-11.6334
sexual	-11.6335
▁announce	-11.6335
▁clan	-11.6336
▁defending	-11.6336
PT	-11.6337
▁iOS	-11.6337
click	-11.6346
▁determines	-11.6346
▁insisted	-11.6346
}}	-11.6348
▁Thu	-11.635
▁Gall	-11.6353
▁tastes	-11.6353
▁temper	-11.6354
▁20,	-11.6355
▁Mail	-11.6355
▁Beijing	-11.6357
▁frequencies	-11.6357
▁encryption	-11.6358
aci	-11.6358
▁Bring	-11.636
▁Nine	-11.636
▁Clear	-11.6361
mph	-11.6364
▁Info	-11.6366
▁myths	-11.6367
▁Near	-11.6368
▁practiced	-11.637
▁inject	-11.6372
fri	-11.6374
▁predictions	-11.6375
▁ankle	-11.6376
lea	-11.6377
▁investor	-11.6377
tine	-11.6378
▁mut	-11.6381
powered	-11.6382
cost	-11.6384
▁helicopter	-11.6385
▁presenting	-11.6386
hai	-11.6386
▁Easter	-11.6386
lli	-11.6387
▁reproduction	-11.6387
▁Industrial	-11.6388
▁Gil	-11.6388
▁alpha	-11.6389
▁rays	-11.6389
▁cylinder	-11.6391
nation	-11.6392
GE	-11.6394
▁surrender	-11.6394
income	-11.6395
▁whoever	-11.6395
▁hey	-11.6397
▁potent	-11.6398
▁flooding	-11.6398
▁pockets	-11.6398
Wi	-11.6398
▁receptors	-11.6398
:27	-11.6399
▁improves	-11.64
track	-11.6403
ssel	-11.6403
:28	-11.6405
▁teenagers	-11.6406
▁stretching	-11.6407
▁spam	-11.6408
▁Sil	-11.6408
▁rats	-11.6411
▁Swedish	-11.6413
▁adjacent	-11.6413
▁bizarre	-11.6413
▁prosecution	-11.6413
▁unwanted	-11.6413
▁whatsoever	-11.6413
▁Reagan	-11.6414
▁footprint	-11.6414
▁Scottish	-11.6415
John	-11.6418
▁halt	-11.642
DF	-11.6421
mate	-11.6421
▁Target	-11.6422
▁politician	-11.6423
▁simplest	-11.6429
UT	-11.6431
store	-11.6431
▁escaped	-11.6432
▁Associate	-11.6436
Fa	-11.6438
▁proves	-11.644
▁Pack	-11.6441
▁encourages	-11.6441
▁Written	-11.6441
▁obscure	-11.6441
▁sheer	-11.6441
▁67	-11.6441
▁Um	-11.6441
▁feast	-11.6442
▁rifle	-11.6443
enberg	-11.6444
▁activated	-11.6444
inal	-11.6444
TION	-11.6446
FS	-11.6448
▁Archives	-11.6451
centric	-11.6455
▁comply	-11.6455
▁Born	-11.6458
▁genuinely	-11.6458
▁envelope	-11.6459
▁pros	-11.646
sound	-11.6462
▁Pr	-11.6463
NE	-11.6466
▁prevalent	-11.6469
▁summit	-11.6469
▁rejection	-11.6472
▁Listen	-11.6472
▁metric	-11.6473
▁Subject	-11.6473
▁PubMed	-11.6474
:24	-11.6474
▁customs	-11.6475
▁null	-11.6478
▁portray	-11.6478
▁sn	-11.6479
▁Cle	-11.648
▁homeless	-11.6482
▁neat	-11.6486
ois	-11.6489
__	-11.6491
PR	-11.6492
▁Jet	-11.6492
▁Kind	-11.6495
▁Official	-11.6497
▁ignorant	-11.6497
▁Easy	-11.6497
▁Mega	-11.6497
▁proposition	-11.6498
▁sufficiently	-11.6499
▁flights	-11.6499
▁relates	-11.6501
▁relies	-11.6502
·	-11.6502
▁Met	-11.6503
lift	-11.6505
▁sealed	-11.6505
▁workforce	-11.6506
▁lenses	-11.6507
Mon	-11.6507
▁snack	-11.6508
▁resemble	-11.6508
▁prediction	-11.6511
▁2012.	-11.6513
iation	-11.6513
▁basin	-11.6513
▁sometime	-11.6515
▁substantially	-11.6518
▁completing	-11.6525
▁peculiar	-11.6525
▁remedy	-11.6525
▁denial	-11.6526
▁Wu	-11.6526
arg	-11.6526
▁Warren	-11.6528
▁Spec	-11.6528
▁zoo	-11.6528
gia	-11.6529
▁cents	-11.6529
tum	-11.6529
▁analogy	-11.6532
▁failures	-11.6533
▁imply	-11.6534
▁grants	-11.6534
▁Express	-11.6535
stream	-11.6536
▁Electric	-11.6536
▁Indiana	-11.6537
Cl	-11.6537
▁randomly	-11.6542
▁Sho	-11.6544
five	-11.6545
▁Cel	-11.655
▁basics	-11.6553
▁apologize	-11.6553
▁eliminating	-11.6553
▁yields	-11.6554
▁exotic	-11.6554
▁doll	-11.6558
▁DJ	-11.6559
iling	-11.6559
▁2011,	-11.6561
":	-11.6561
▁explanations	-11.6563
▁Mont	-11.6563
▁composer	-11.6564
▁rises	-11.6564
▁careers	-11.6571
▁athlete	-11.6572
▁Commons	-11.6573
▁rolls	-11.6575
ART	-11.6575
▁collar	-11.6577
▁TB	-11.6578
serv	-11.6581
▁expedition	-11.6581
▁Sweet	-11.6581
▁cre	-11.6581
▁straw	-11.6583
▁spotted	-11.6586
▁confirmation	-11.6586
▁obey	-11.6588
▁norms	-11.6589
▁dash	-11.6589
▁similarities	-11.659
wick	-11.659
ulu	-11.659
ech	-11.6592
▁punish	-11.6593
emi	-11.6593
east	-11.6593
▁notably	-11.6593
▁therapist	-11.6594
▁Shop	-11.6594
▁0.5	-11.6595
▁glow	-11.6595
▁interval	-11.6595
▁adjustment	-11.6597
▁'11	-11.6599
Ka	-11.6599
▁Gh	-11.6601
▁mall	-11.6608
▁vegetation	-11.661
▁grandmother	-11.661
▁Regular	-11.661
▁lid	-11.661
▁patrol	-11.6611
▁Bird	-11.6612
▁(15	-11.6612
▁Strong	-11.6614
▁Private	-11.6614
▁autonomous	-11.6614
▁Marvel	-11.6614
▁Mos	-11.6615
▁Pal	-11.6616
zone	-11.6617
▁Prize	-11.6618
▁Carbon	-11.6618
math	-11.6619
▁ports	-11.6619
dr	-11.662
▁threads	-11.6628
▁EPA	-11.6628
▁hips	-11.663
pop	-11.663
▁cho	-11.6632
writer	-11.6634
ologists	-11.6634
▁Available	-11.6638
▁ministry	-11.6638
▁hesitate	-11.6638
▁expectation	-11.6638
▁Description	-11.6639
illo	-11.6639
▁throne	-11.6639
▁sexy	-11.664
pie	-11.6641
:29	-11.6643
▁marking	-11.6643
▁Corps	-11.6644
▁Made	-11.6644
▁chef	-11.6644
▁masks	-11.6645
dio	-11.6645
▁travelling	-11.6647
▁allegedly	-11.6652
aged	-11.6653
▁schemes	-11.6655
tern	-11.6656
---	-11.6658
LO	-11.6658
DI	-11.6659
▁pasta	-11.6659
▁cheat	-11.6659
▁awards	-11.666
▁licensed	-11.666
yu	-11.6661
gard	-11.6662
▁cab	-11.6663
▁gel	-11.6664
▁Companies	-11.6666
▁Detroit	-11.6666
▁Sydney	-11.6666
▁incidence	-11.6666
▁utilizing	-11.6666
▁telescope	-11.6666
▁stakeholders	-11.6667
▁Adult	-11.6667
▁Oscar	-11.6667
▁Bla	-11.6667
:26	-11.6668
▁Baker	-11.6672
gli	-11.6673
▁pine	-11.6673
ssa	-11.6673
▁obligations	-11.6674
ATION	-11.6674
Per	-11.6677
▁Collection	-11.6678
hun	-11.6685
▁enjoyable	-11.6686
ingly	-11.6686
▁generates	-11.6687
▁theft	-11.6688
:34	-11.6691
▁receptor	-11.6693
▁Kai	-11.6694
▁Agriculture	-11.6695
▁transparency	-11.6695
▁intestine	-11.6695
▁Medicare	-11.6695
▁Aaron	-11.6695
▁accordance	-11.6695
fur	-11.6696
▁Depression	-11.6696
osa	-11.6697
▁commented	-11.6697
natural	-11.6698
tia	-11.6704
▁stove	-11.6704
▁suits	-11.6704
anda	-11.6705
▁sponsor	-11.6705
▁spoon	-11.6705
cam	-11.6705
▁activation	-11.6706
▁Helen	-11.6707
▁separately	-11.6708
osh	-11.6708
▁nearest	-11.6709
ista	-11.671
stage	-11.6712
uka	-11.6716
▁Hawaii	-11.6717
▁WA	-11.6718
▁Geo	-11.6722
sea	-11.6722
▁Alliance	-11.6724
▁combining	-11.6724
▁responding	-11.6724
▁fibre	-11.6724
▁Gary	-11.6724
▁Tags	-11.6725
▁Account	-11.6728
▁rally	-11.6729
kov	-11.6729
▁masters	-11.6729
▁thickness	-11.673
▁um	-11.673
▁Newton	-11.6732
▁lasted	-11.6733
▁Cape	-11.6734
Har	-11.6739
▁Issue	-11.674
▁1800	-11.6741
▁Move	-11.6742
▁coupled	-11.6744
offs	-11.6745
Net	-11.6745
bon	-11.6745
▁fade	-11.6745
▁thou	-11.6746
ital	-11.6747
vic	-11.675
▁mal	-11.675
IO	-11.6751
▁operates	-11.6752
▁collaborative	-11.6752
▁releasing	-11.6752
▁departure	-11.6753
▁intermediate	-11.6753
▁bride	-11.6753
▁agreements	-11.6753
▁Dev	-11.6754
▁Hum	-11.6756
rog	-11.6757
▁Impact	-11.6758
▁induced	-11.6758
story	-11.6758
▁goodness	-11.676
▁reforms	-11.6761
▁atom	-11.6763
▁+1	-11.6763
▁grim	-11.6765
▁selfish	-11.6767
hot	-11.6768
▁duct	-11.6774
lessly	-11.6774
▁SW	-11.6775
max	-11.6779
tier	-11.678
▁Festival	-11.6781
▁stimulation	-11.6781
▁Tokyo	-11.6781
▁hug	-11.6783
gor	-11.6784
xx	-11.6785
▁secretary	-11.6787
▁quicker	-11.6787
▁fictional	-11.6788
▁promotes	-11.6788
nor	-11.6791
▁glue	-11.6792
▁conquer	-11.6792
cum	-11.6797
door	-11.6797
VA	-11.6798
▁globally	-11.6798
▁Neo	-11.6802
risk	-11.6802
2013	-11.6803
▁---	-11.6804
▁;)	-11.6804
▁individually	-11.6805
▁tubes	-11.6806
▁Vote	-11.6807
▁RI	-11.6809
ager	-11.681
▁Missouri	-11.681
▁Executive	-11.681
▁speculation	-11.681
▁acne	-11.6811
▁infectious	-11.6811
▁Penn	-11.6812
▁clusters	-11.6812
▁1968	-11.6813
▁inappropriate	-11.6818
▁fighters	-11.6819
▁coral	-11.6819
▁sail	-11.6819
▁purchases	-11.6821
▁recognise	-11.6821
▁Build	-11.6821
▁protocols	-11.6822
▁Active	-11.6827
▁illustration	-11.6828
rou	-11.683
pack	-11.6832
▁Found	-11.6834
▁headaches	-11.6837
},	-11.6837
vas	-11.6839
▁Summary	-11.6839
▁coating	-11.6841
▁31,	-11.6841
▁mutation	-11.6842
nna	-11.6843
▁farmer	-11.6844
▁canvas	-11.6847
▁Ji	-11.6848
bridge	-11.6849
oul	-11.6855
▁upside	-11.6855
both	-11.6858
▁(4)	-11.6859
▁shout	-11.686
▁Wang	-11.6861
▁pathways	-11.6862
▁Glass	-11.6863
▁audiences	-11.6864
▁2013,	-11.6868
▁Kentucky	-11.6868
▁dignity	-11.6868
▁bicycle	-11.6868
▁Electronic	-11.6869
▁coronavirus	-11.6869
▁Likewise	-11.6869
▁batch	-11.687
▁DR	-11.687
▁GI	-11.6872
mbo	-11.6872
▁finishing	-11.6873
▁rust	-11.6875
▁reinforce	-11.6875
▁factories	-11.6876
▁blown	-11.6876
▁Whit	-11.6878
hir	-11.6878
dependent	-11.6878
fusion	-11.6879
Li	-11.6879
▁Ros	-11.6879
▁surveys	-11.6882
Vi	-11.6882
▁Cri	-11.6883
▁screens	-11.6884
▁flush	-11.6884
▁Au	-11.6887
▁immense	-11.6888
▁mus	-11.6888
▁statue	-11.6888
tta	-11.6889
▁intimate	-11.6889
come	-11.689
coming	-11.6891
▁Ul	-11.6892
DB	-11.6893
ridge	-11.6896
▁feminist	-11.6897
▁soccer	-11.6897
▁Performance	-11.6898
▁crust	-11.6898
▁rendered	-11.6898
▁weigh	-11.6899
▁publisher	-11.6901
▁Vice	-11.6905
too	-11.6907
▁beaten	-11.6907
▁catching	-11.6909
▁Mod	-11.6913
▁2011.	-11.6913
▁Consumer	-11.6914
Data	-11.6916
▁contacts	-11.6917
▁illustrated	-11.6919
▁Mun	-11.692
lle	-11.6922
▁forecast	-11.6924
▁tumors	-11.6924
▁Justin	-11.6926
think	-11.6926
fix	-11.6927
▁conjunction	-11.6927
▁hierarchy	-11.6927
▁toddler	-11.6927
▁Urban	-11.6927
▁boast	-11.6927
▁Bowl	-11.6928
▁volumes	-11.6928
▁Chemical	-11.6929
prop	-11.693
▁Production	-11.6932
▁1945	-11.6933
eller	-11.6934
rch	-11.6936
▁extends	-11.6937
▁intuitive	-11.694
▁desperately	-11.6941
▁surround	-11.6943
▁communist	-11.6944
▁switched	-11.6946
dent	-11.6947
▁performances	-11.6948
▁Rio	-11.6949
▁audit	-11.6949
▁likewise	-11.6949
▁Hunter	-11.695
▁darker	-11.6951
▁aliens	-11.6952
▁dial	-11.6952
eli	-11.6953
ito	-11.6955
usually	-11.6956
▁athletic	-11.6956
▁unaware	-11.6957
▁Sie	-11.6957
0.00	-11.696
▁AB	-11.6961
▁UI	-11.6962
▁utterly	-11.6964
▁($	-11.6965
LD	-11.6967
HI	-11.6967
CM	-11.6973
▁taxi	-11.6976
food	-11.6978
Ed	-11.6978
▁fusion	-11.6978
▁valued	-11.6979
wen	-11.6983
▁flavors	-11.6984
▁sticking	-11.6985
▁Caribbean	-11.6985
▁credibility	-11.6985
▁galaxy	-11.6985
▁examining	-11.6985
▁allergy	-11.6985
▁Graham	-11.6986
▁Records	-11.6986
aut	-11.6987
▁Marshall	-11.6987
▁foam	-11.6987
▁Against	-11.6989
▁differential	-11.699
▁propose	-11.699
▁Marc	-11.699
▁twisted	-11.699
SD	-11.6991
▁pioneer	-11.6991
▁100,000	-11.6993
por	-11.6993
▁Hold	-11.6994
▁retrieve	-11.6997
▁Whenever	-11.6998
IV	-11.6998
▁worrying	-11.7003
▁tomb	-11.7004
▁Malaysia	-11.7007
▁investigations	-11.7007
-09	-11.7007
▁musician	-11.7007
▁Original	-11.7009
▁Myth	-11.7011
▁Ry	-11.7012
▁remarks	-11.7015
▁happily	-11.7015
▁pyramid	-11.7015
▁Thailand	-11.7015
▁Jerry	-11.7016
▁1983	-11.7017
▁Mission	-11.7021
rap	-11.7021
▁ri	-11.7022
▁Roger	-11.7023
▁overlap	-11.7023
wn	-11.7024
▁assert	-11.7024
▁arises	-11.7025
wed	-11.7025
▁transcription	-11.7026
▁10-	-11.7026
▁commentary	-11.7026
▁enhancement	-11.7029
▁san	-11.703
hel	-11.7032
▁portions	-11.7032
▁[]	-11.7032
▁Writer	-11.7033
▁Cir	-11.7033
▁String	-11.7038
▁Period	-11.7043
▁reliability	-11.7044
▁worries	-11.7044
▁Attack	-11.7044
▁pencil	-11.7045
]]	-11.7045
▁newsletter	-11.7045
▁citizenship	-11.7045
▁AL	-11.7046
▁pharmaceutical	-11.7047
azi	-11.7048
▁Seriously	-11.7048
▁Double	-11.7051
▁extraction	-11.7052
▁geographical	-11.7052
▁$20	-11.7055
▁63	-11.7056
fect	-11.7056
▁Sc	-11.7057
▁Custom	-11.7057
wal	-11.7058
held	-11.7058
▁historians	-11.7059
▁stealing	-11.7061
▁transcript	-11.7063
hil	-11.7063
▁Andy	-11.7066
erman	-11.7067
smith	-11.7067
▁Skin	-11.7068
▁demonstration	-11.7068
figuring	-11.7068
▁**	-11.7073
▁Religion	-11.7074
▁martial	-11.7074
▁supermarket	-11.7075
▁1976	-11.7076
eur	-11.7077
hua	-11.7077
chin	-11.708
▁rig	-11.7082
example	-11.7082
▁maker	-11.7083
▁dictate	-11.7086
▁CP	-11.7087
▁tweet	-11.709
etc	-11.7091
▁bon	-11.7092
▁fragments	-11.7092
:31	-11.7095
▁HE	-11.7097
▁deleted	-11.7097
comp	-11.7098
▁Communication	-11.7099
▁(16	-11.7099
▁Notes	-11.7102
▁composite	-11.7104
▁sensible	-11.7104
▁Miami	-11.7104
▁prosperity	-11.7104
▁bombs	-11.7106
▁expressing	-11.7107
▁1975	-11.7107
▁GA	-11.7108
▁McG	-11.7109
aud	-11.7109
▁methodology	-11.711
▁contributes	-11.711
▁fer	-11.7112
▁portable	-11.7114
web	-11.7114
▁fastest	-11.7114
Good	-11.7116
▁merit	-11.7117
▁5%	-11.712
girl	-11.7121
▁unlock	-11.7123
▁wished	-11.7125
tian	-11.7126
▁Historical	-11.7126
▁upward	-11.7129
RNA	-11.7129
-22	-11.7132
▁mercy	-11.7134
▁tribal	-11.7134
sec	-11.7134
▁Nelson	-11.7134
▁queue	-11.7134
▁extinction	-11.7135
▁strains	-11.7138
vision	-11.7138
▁supportive	-11.7139
▁prolonged	-11.714
▁1/4	-11.7141
▁achievements	-11.7143
IE	-11.7145
▁Bin	-11.7145
▁Flag	-11.7145
▁ranking	-11.7149
aga	-11.7153
▁dismissed	-11.7155
▁Tools	-11.7157
▁ki	-11.7158
▁Stage	-11.716
▁Present	-11.7161
▁exercising	-11.7164
▁Russell	-11.7164
▁fridge	-11.7164
▁cooler	-11.7166
▁rushed	-11.7166
hoe	-11.7166
▁detective	-11.7166
▁relaxation	-11.7167
▁gates	-11.7168
oriented	-11.7172
▁ranked	-11.7173
worm	-11.7173
▁Increase	-11.7174
why	-11.7175
▁Register	-11.7175
▁distribute	-11.7176
▁Poll	-11.7178
▁overweight	-11.7178
▁Dia	-11.7179
▁$7	-11.7183
▁Vin	-11.7184
▁warmer	-11.7184
▁cum	-11.7186
▁CON	-11.7186
▁Kill	-11.7187
▁wiki	-11.7187
▁ES	-11.7187
▁WE	-11.7188
owned	-11.719
▁stared	-11.719
bag	-11.7192
▁profiles	-11.7192
mini	-11.7192
igo	-11.7193
▁spectacular	-11.7194
▁multiply	-11.7194
▁situated	-11.7194
▁Psychology	-11.7194
▁gorgeous	-11.7194
▁stalk	-11.7196
▁Orange	-11.7196
cycle	-11.7199
▁BA	-11.7201
▁toxins	-11.7204
nger	-11.7205
▁Abu	-11.7205
▁CF	-11.7205
▁dysfunction	-11.7207
▁auction	-11.7208
▁Dem	-11.721
tors	-11.7211
actic	-11.7213
:05	-11.7214
▁throws	-11.7214
▁polymer	-11.7217
▁stare	-11.7218
▁deploy	-11.7219
▁lane	-11.7221
▁lymph	-11.7224
▁pseudo	-11.7224
▁NATO	-11.7224
▁discern	-11.7224
▁anytime	-11.7227
▁dock	-11.7227
▁subscribe	-11.7229
▁Clinical	-11.7229
▁Sanders	-11.7229
▁foul	-11.723
▁endangered	-11.723
host	-11.7232
:35	-11.7234
▁Cop	-11.7236
▁spike	-11.7236
▁Zone	-11.7237
Get	-11.7237
lap	-11.7238
▁Multiple	-11.7238
/5	-11.7239
▁dining	-11.7239
▁magazines	-11.7239
▁vo	-11.724
▁Trail	-11.724
▁Starting	-11.724
cultural	-11.7241
▁roast	-11.7241
-03	-11.7241
sson	-11.7244
▁ham	-11.7245
El	-11.7247
▁anime	-11.7247
▁Friends	-11.7247
▁indicators	-11.7249
▁delight	-11.7249
▁potato	-11.725
▁Reviews	-11.7251
▁Gray	-11.7252
▁Benjamin	-11.7254
▁Craig	-11.7254
▁Roosevelt	-11.7254
▁optimization	-11.7254
▁unpleasant	-11.7254
▁Anything	-11.7254
▁Storm	-11.7254
▁coordination	-11.7254
▁limb	-11.7254
▁competent	-11.7255
▁capsule	-11.7255
▁fibers	-11.7255
▁burns	-11.7256
▁Eating	-11.7258
▁pork	-11.726
▁eco	-11.7261
LL	-11.7261
hro	-11.7265
▁variant	-11.7269
defined	-11.7269
dev	-11.7269
▁lining	-11.7272
▁Knowing	-11.7273
Your	-11.7275
▁secured	-11.7276
hara	-11.7277
VI	-11.7277
look	-11.7277
▁trainer	-11.7282
▁scored	-11.7284
▁Alabama	-11.7284
▁Consequently	-11.7284
▁glimpse	-11.7284
▁observing	-11.7284
▁vinegar	-11.7284
▁bladder	-11.7285
▁Stalin	-11.7285
▁lump	-11.7286
▁Oak	-11.7287
FO	-11.7288
▁contaminated	-11.7288
▁knocked	-11.7288
▁colleague	-11.729
cup	-11.7291
▁strangers	-11.7294
▁Merc	-11.7295
▁neglect	-11.7296
▁accelerate	-11.7296
▁dick	-11.7297
▁(17	-11.7299
ended	-11.7299
▁considerations	-11.7299
▁fled	-11.7301
▁dated	-11.7301
▁repeating	-11.7302
▁scream	-11.7302
▁Tel	-11.7304
▁Types	-11.7304
▁portal	-11.7306
MM	-11.7306
▁Lang	-11.7306
train	-11.7307
▁selecting	-11.7309
vil	-11.731
▁doc	-11.731
▁pigs	-11.7312
▁damp	-11.7313
dri	-11.7314
▁Kay	-11.7315
▁Exchange	-11.7315
▁Polish	-11.7317
▁Venus	-11.7318
▁stems	-11.7318
urge	-11.7318
inger	-11.7319
▁CE	-11.7319
▁beats	-11.7319
▁marker	-11.732
▁satisfying	-11.732
vant	-11.7321
▁Biden	-11.7321
▁Hyper	-11.7323
▁Jake	-11.7325
▁hosted	-11.7325
▁EV	-11.7326
▁prospects	-11.7328
▁proceedings	-11.7328
▁rev	-11.733
▁adjustments	-11.7332
▁Barr	-11.7333
▁TE	-11.7334
erg	-11.7338
▁Says	-11.7338
▁Track	-11.7344
▁wreck	-11.7344
▁Jupiter	-11.7345
▁Spider	-11.7346
▁waking	-11.7346
▁variants	-11.7347
▁Evil	-11.7348
writing	-11.735
▁Artist	-11.7351
▁closet	-11.7352
owner	-11.7354
▁rash	-11.7355
▁360	-11.7355
Yeah	-11.7355
▁Marx	-11.7355
▁stretched	-11.7357
▁pilots	-11.7358
bay	-11.7361
virus	-11.7366
stan	-11.7376
▁midnight	-11.7377
lp	-11.7377
edge	-11.7377
▁XML	-11.7377
▁viewer	-11.7377
▁1982	-11.7378
▁SU	-11.7378
▁Bee	-11.7379
▁disruption	-11.738
national	-11.7382
▁reef	-11.7382
eu	-11.7382
▁teachings	-11.7383
▁Reg	-11.7383
▁Application	-11.7384
▁insist	-11.7385
▁optimize	-11.7388
scape	-11.7393
▁impacted	-11.7395
▁shocking	-11.7395
▁ISIS	-11.7396
▁vendors	-11.7396
▁Stan	-11.7396
▁loses	-11.7396
▁clicking	-11.7397
▁sal	-11.7399
▁PRO	-11.74
▁proposals	-11.7403
except	-11.7404
▁Enterprise	-11.7406
▁inferior	-11.7406
▁retention	-11.7406
▁1972	-11.7409
▁Ghost	-11.7409
▁cows	-11.7411
▁Universal	-11.7412
▁melting	-11.7412
Fig	-11.7415
▁clo	-11.7415
▁cabin	-11.7416
sensitive	-11.7417
AND	-11.7419
▁bounce	-11.742
amo	-11.7422
▁Rec	-11.7423
rrh	-11.7423
:37	-11.7426
arch	-11.7428
uke	-11.7428
▁SI	-11.7429
▁onset	-11.743
▁Quote	-11.743
▁meantime	-11.7431
uce	-11.7431
▁Xi	-11.7432
uer	-11.7434
▁Genetic	-11.7436
Avg	-11.7436
rium	-11.7436
▁Lawrence	-11.7437
▁emperor	-11.7437
▁fertility	-11.7437
▁testosterone	-11.7437
▁sequel	-11.7437
▁skirt	-11.7438
AB	-11.7438
▁inclined	-11.7442
▁indoor	-11.7443
▁physiological	-11.7444
▁pupils	-11.7445
▁Rat	-11.7447
igh	-11.7448
▁spells	-11.7448
▁clearing	-11.7449
▁stressful	-11.745
▁Compare	-11.745
▁NI	-11.7451
▁coup	-11.7452
▁Kir	-11.7452
Na	-11.7454
rod	-11.7454
▁conditioning	-11.7456
▁swallow	-11.7457
▁VA	-11.7459
▁bothered	-11.7459
▁Feed	-11.7459
-08	-11.746
▁AIDS	-11.7462
▁pinch	-11.7463
▁Jam	-11.7466
▁duplicate	-11.7468
▁nausea	-11.7468
▁Prevention	-11.7469
▁Brit	-11.7469
▁Whole	-11.7471
▁livestock	-11.7471
WA	-11.7471
news	-11.7472
▁knot	-11.7473
ova	-11.7474
▁rendering	-11.7478
▁Interesting	-11.7479
Sp	-11.7479
▁shadows	-11.7485
▁Horn	-11.7485
duct	-11.7487
lyn	-11.7487
▁faithful	-11.7489
▁urgent	-11.749
▁travels	-11.749
▁Zu	-11.7492
▁Stra	-11.7492
lag	-11.7493
▁forgive	-11.7495
▁justification	-11.7495
(1	-11.7497
cil	-11.7497
▁Parker	-11.7499
▁Hispanic	-11.7499
▁Moving	-11.7499
▁sovereignty	-11.75
▁Cyber	-11.7501
bbing	-11.7501
▁Agent	-11.7501
▁spacecraft	-11.7502
▁metres	-11.7502
▁outlined	-11.7503
cel	-11.7505
present	-11.7507
fly	-11.7508
▁blink	-11.7508
▁sexuality	-11.7512
▁(#	-11.7512
▁Lead	-11.7513
▁val	-11.7515
▁ecosystems	-11.7516
▁2006,	-11.7517
▁treats	-11.7518
▁1-	-11.7519
▁metrics	-11.752
▁beds	-11.7521
▁88	-11.7523
make	-11.7525
▁Chat	-11.7526
▁Sony	-11.7529
▁priests	-11.7529
▁friction	-11.753
▁unlimited	-11.7531
▁digging	-11.7532
▁harness	-11.7532
▁railway	-11.7533
▁kings	-11.7533
equ	-11.7534
▁modification	-11.7535
▁equilibrium	-11.7537
▁shrink	-11.7538
▁Healthy	-11.7539
▁administered	-11.7541
AA	-11.7542
▁contraction	-11.7542
▁sentiment	-11.7542
▁proving	-11.7543
▁coaches	-11.7543
RL	-11.7544
▁sta	-11.7548
▁gi	-11.7548
▁CBD	-11.7549
▁dataset	-11.755
▁diplomatic	-11.7552
▁Few	-11.7552
▁Meaning	-11.7553
▁govern	-11.7554
▁Mai	-11.7557
May	-11.7559
▁Taiwan	-11.7561
▁accommodation	-11.7561
▁vicious	-11.7561
▁shaking	-11.7562
▁Creek	-11.7562
oth	-11.7563
▁1981	-11.7563
▁mit	-11.7565
▁spider	-11.7566
▁Hotel	-11.7568
AI	-11.7569
▁Carol	-11.7571
igan	-11.7571
going	-11.7571
▁$6	-11.7572
Min	-11.7572
something	-11.7573
gus	-11.7573
▁admire	-11.7574
▁exclude	-11.7574
▁reproduce	-11.7575
▁disrupt	-11.7577
Da	-11.7579
▁blessing	-11.7581
asi	-11.7581
▁Effects	-11.7581
▁voluntary	-11.7582
▁Facts	-11.7582
▁Sounds	-11.7583
▁spur	-11.7583
mond	-11.7584
UTC	-11.7586
wash	-11.7586
cott	-11.7587
▁hash	-11.7588
▁shi	-11.7591
▁Einstein	-11.7592
▁HTTP	-11.7592
▁fortunate	-11.7593
▁Enjoy	-11.7593
chem	-11.7593
▁integer	-11.7593
▁Reduce	-11.7594
pool	-11.7597
▁accountable	-11.7598
▁merchant	-11.7598
oxy	-11.7598
▁cheek	-11.7598
▁pigment	-11.7598
▁BR	-11.7603
▁plague	-11.7606
pdf	-11.7607
▁Independent	-11.7607
Fe	-11.7608
▁Karen	-11.7608
ashi	-11.761
▁negotiate	-11.7611
uation	-11.7611
▁lakes	-11.7611
▁cops	-11.7613
image	-11.7614
▁needing	-11.7615
▁Crown	-11.7616
▁CDC	-11.7616
▁Record	-11.7618
asa	-11.7621
▁24.	-11.7623
rink	-11.7624
▁geometry	-11.7624
▁wicked	-11.7624
▁Conservation	-11.7625
▁Norway	-11.7625
▁tiger	-11.7627
▁chin	-11.7627
▁Nancy	-11.7628
▁smoothly	-11.7629
These	-11.7629
▁Random	-11.763
fan	-11.763
-06	-11.763
▁Nobel	-11.7632
▁Rap	-11.7633
▁Mode	-11.7634
CU	-11.7634
▁worsen	-11.7634
▁compiler	-11.7635
▁2010.	-11.7636
▁compiled	-11.7637
LT	-11.7638
SON	-11.7638
▁Grey	-11.7641
▁Gla	-11.7643
▁constitute	-11.7643
Star	-11.7643
▁steroids	-11.7644
▁lion	-11.7647
▁Dry	-11.7648
call	-11.7648
ido	-11.7649
fic	-11.7654
▁voter	-11.7654
tance	-11.7654
▁nevertheless	-11.7655
▁antibodies	-11.7656
▁ML	-11.7656
▁filing	-11.7658
▁bowel	-11.7661
▁contamination	-11.7661
▁gameplay	-11.7661
:49	-11.7663
iah	-11.7664
▁Berg	-11.7665
▁(7	-11.7667
▁rated	-11.7667
quin	-11.7667
ICE	-11.7667
▁complaining	-11.7669
▁dressing	-11.7669
▁Operation	-11.7671
▁closure	-11.7672
▁invasive	-11.7673
▁Mario	-11.7678
▁Exp	-11.7684
▁warn	-11.7684
▁decreasing	-11.7687
▁despair	-11.7687
▁Nuclear	-11.7687
▁McCain	-11.7687
▁coaching	-11.7687
▁Swiss	-11.7688
▁pee	-11.7689
watt	-11.7691
▁servants	-11.7692
idi	-11.7692
los	-11.7693
Gra	-11.7694
▁bulb	-11.7695
▁2007,	-11.7695
▁***	-11.7696
▁analog	-11.7696
▁prostate	-11.7698
▁cookie	-11.7699
▁collections	-11.7699
▁inadequate	-11.7699
cas	-11.77
▁74	-11.77
▁bal	-11.77
cid	-11.7703
▁FL	-11.7703
4-	-11.7704
▁slim	-11.7706
▁77	-11.7707
▁stamp	-11.7708
psych	-11.771
rak	-11.7711
▁Wonder	-11.7714
ego	-11.7714
▁cargo	-11.7718
▁identities	-11.7718
▁suspicion	-11.7718
▁Industry	-11.7718
▁dialect	-11.7719
▁thoughtful	-11.772
▁spinning	-11.772
▁CV	-11.7721
▁exploitation	-11.7721
Pre	-11.7723
▁Doing	-11.7724
▁2009,	-11.7726
▁farther	-11.7726
▁combinations	-11.7727
▁Girls	-11.7727
▁mor	-11.7728
▁assembled	-11.773
▁peel	-11.7732
▁imagery	-11.7734
▁Kor	-11.7735
▁AN	-11.7737
▁prohibit	-11.7738
▁coordinate	-11.7741
▁amp	-11.7742
▁Sel	-11.7747
▁Tennessee	-11.775
▁imperative	-11.775
▁legislature	-11.775
▁clutch	-11.775
▁chopped	-11.7751
▁jazz	-11.7751
▁medal	-11.7751
▁Hat	-11.7751
▁revolve	-11.7751
▁Stress	-11.7753
▁Grace	-11.7754
▁discoveries	-11.7754
handed	-11.7756
▁overwhelmed	-11.7757
▁CL	-11.7757
▁5-	-11.776
▁Chen	-11.7761
▁Coach	-11.7763
ij	-11.7764
▁2008.	-11.7765
▁teenager	-11.7765
▁imported	-11.7771
▁portrayed	-11.7771
MT	-11.7772
▁weaker	-11.7772
(2)	-11.7774
▁Bag	-11.7776
▁token	-11.7777
)?	-11.7777
▁Egg	-11.7778
▁formats	-11.778
▁warmth	-11.778
▁hardest	-11.778
▁definitive	-11.7782
▁elevator	-11.7782
▁kilometers	-11.7782
▁vegetarian	-11.7782
▁warehouse	-11.7782
▁Luckily	-11.7782
▁unhealthy	-11.7783
lith	-11.7783
▁gluten	-11.7783
▁negatively	-11.7783
▁Sugar	-11.7784
▁offspring	-11.7784
▁sci	-11.7784
HE	-11.7786
▁0.2	-11.7786
▁inputs	-11.7789
▁haul	-11.7789
▁PE	-11.779
▁Swa	-11.7791
▁torn	-11.7792
holder	-11.7792
▁strap	-11.7794
▁2014.	-11.7795
break	-11.7797
:06	-11.7797
know	-11.7797
black	-11.7797
Some	-11.7798
▁Response	-11.78
zar	-11.7802
▁prayers	-11.7803
▁scripts	-11.7804
▁Patients	-11.7805
▁gland	-11.7805
▁drift	-11.7805
▁Than	-11.7805
rise	-11.7805
▁Nat	-11.7806
▁angels	-11.7807
▁positively	-11.7808
▁projected	-11.7809
▁||	-11.7811
▁emphasize	-11.7812
▁Atlanta	-11.7814
▁confined	-11.7814
:50	-11.7814
div	-11.7814
kind	-11.7814
▁Perfect	-11.7814
▁analytics	-11.7815
▁adhere	-11.7815
-04	-11.7816
▁Beat	-11.7816
▁NE	-11.7817
▁Bou	-11.7818
▁pulls	-11.782
▁Wright	-11.782
▁Maha	-11.7823
▁gotta	-11.7825
▁arrange	-11.7826
▁charter	-11.7827
▁entrepreneurs	-11.7827
anta	-11.7833
/11	-11.7837
▁Princess	-11.7837
mper	-11.7838
▁Mau	-11.784
ibly	-11.7842
▁dia	-11.7842
▁transmit	-11.7843
▁breasts	-11.7844
▁airline	-11.7845
▁accumulation	-11.7846
▁ambitious	-11.7846
▁communicating	-11.7846
▁elegant	-11.7846
▁evolving	-11.7846
▁territories	-11.7846
▁ideological	-11.7846
▁Syndrome	-11.7846
▁hollow	-11.7846
▁forehead	-11.7846
▁eleven	-11.7847
▁Yoga	-11.7848
Pi	-11.7849
elect	-11.7849
plus	-11.7852
▁intersection	-11.7852
▁contradiction	-11.7852
▁judicial	-11.7857
ugh	-11.7858
▁23.	-11.786
▁violate	-11.786
▁wool	-11.786
▁Sum	-11.7863
▁HO	-11.7868
nam	-11.7868
▁definite	-11.7869
therapy	-11.787
cking	-11.7871
▁discusses	-11.7873
II	-11.7875
▁chew	-11.7875
▁SM	-11.7875
▁siblings	-11.7876
▁energetic	-11.7878
▁jungle	-11.7878
▁penetrate	-11.7878
▁turkey	-11.7878
▁necklace	-11.7878
▁microwave	-11.7879
▁obtaining	-11.7879
▁Nathan	-11.7881
▁Gates	-11.7882
▁Jennifer	-11.7882
▁USD	-11.7884
▁interrupt	-11.7886
ids	-11.7886
File	-11.7888
▁mock	-11.7889
▁Effect	-11.7889
Type	-11.7892
▁Laura	-11.7892
▁squeeze	-11.7892
▁swap	-11.7892
ERS	-11.7893
▁fights	-11.7894
▁78	-11.7894
▁cleaned	-11.7896
▁Dance	-11.7896
▁25%	-11.7898
▁undermine	-11.7898
▁anticipated	-11.7899
▁Pic	-11.7901
▁Leo	-11.7901
▁dealer	-11.7901
▁lowering	-11.7903
▁agrees	-11.7904
pper	-11.7904
cf	-11.7906
▁empirical	-11.791
▁repetition	-11.791
▁skeleton	-11.791
qual	-11.7911
▁(8	-11.7912
▁Teachers	-11.7914
▁robotic	-11.7917
▁realised	-11.7917
▁predictable	-11.7918
▁intentionally	-11.7921
▁oceans	-11.7923
▁Imp	-11.7924
bla	-11.7925
▁86	-11.7925
gio	-11.7927
▁bolt	-11.793
aving	-11.7932
▁2013.	-11.7933
▁outdoors	-11.7934
▁plugin	-11.7936
▁contradict	-11.7937
▁exp	-11.7941
▁participated	-11.7942
▁memorable	-11.7943
▁Gospel	-11.7943
▁commodity	-11.7943
▁vivid	-11.7943
lumin	-11.7944
▁Address	-11.7944
▁Audio	-11.7948
▁mph	-11.7948
▁genetically	-11.7948
oids	-11.7952
▁bee	-11.7953
▁Hart	-11.7953
▁trait	-11.7953
rab	-11.7957
▁tolerate	-11.7957
immer	-11.796
ession	-11.7961
TL	-11.7965
rift	-11.7966
:32	-11.7967
▁Mini	-11.7968
▁Az	-11.7968
▁exert	-11.7968
ante	-11.7972
▁sovereign	-11.7974
MI	-11.7974
▁carriers	-11.7975
▁Statistics	-11.7975
▁wavelength	-11.7976
▁Pretty	-11.7976
▁disappointment	-11.7976
▁jewelry	-11.7976
▁foolish	-11.7977
▁Products	-11.7977
▁garment	-11.7979
▁Include	-11.798
eter	-11.798
▁extending	-11.798
▁rabbit	-11.7981
ometer	-11.7981
▁opera	-11.7982
onia	-11.7986
▁Million	-11.7987
▁idiot	-11.7988
▁retire	-11.7988
▁motivate	-11.799
▁approve	-11.799
▁recipient	-11.799
▁Aside	-11.7991
ska	-11.7991
FL	-11.7992
▁appropriately	-11.7993
▁noticeable	-11.7994
▁flags	-11.7994
▁wonders	-11.7996
▁wh	-11.7997
eq	-11.7999
▁buck	-11.8002
yne	-11.8002
▁inserted	-11.8003
▁Gay	-11.8004
lf	-11.8004
▁Loss	-11.8007
▁Alcohol	-11.8008
▁Switzerland	-11.8008
▁maneuver	-11.8008
▁potassium	-11.8008
▁coefficient	-11.8009
TOR	-11.8009
▁Agreement	-11.801
▁impairment	-11.801
▁outright	-11.801
▁compromised	-11.8011
▁rounds	-11.8011
▁betting	-11.8012
▁bridges	-11.8013
plant	-11.8013
▁hedge	-11.8013
▁sec	-11.8015
▁Tam	-11.8015
▁Eco	-11.8017
">	-11.8018
▁defects	-11.8018
pus	-11.8018
▁demons	-11.8019
parent	-11.802
▁Sad	-11.802
▁willingness	-11.8021
▁surroundings	-11.8022
loc	-11.8022
▁Ground	-11.8022
▁fundamentally	-11.8023
▁warrior	-11.8023
▁BS	-11.8023
asse	-11.8026
▁counterparts	-11.8026
▁cared	-11.8029
Ver	-11.803
generation	-11.8031
▁aligned	-11.8034
▁curl	-11.8035
cate	-11.8036
location	-11.8036
▁connects	-11.8037
▁2005,	-11.8038
▁sciences	-11.804
▁Yellow	-11.804
▁Treasury	-11.8041
▁cosmetic	-11.8041
▁mercury	-11.8041
▁Female	-11.8041
▁Dallas	-11.8041
▁Ultra	-11.8041
▁Faith	-11.8041
▁Wildlife	-11.8041
▁Jew	-11.8041
▁queries	-11.8041
▁blowing	-11.8041
▁FAQ	-11.8041
▁Suddenly	-11.8042
▁Mean	-11.8043
nov	-11.8043
▁fr	-11.8043
▁founding	-11.8044
tree	-11.8047
▁troll	-11.8049
▁Oliver	-11.805
xa	-11.8052
ESS	-11.8056
▁76	-11.8057
▁economically	-11.8059
2012	-11.8062
▁prompted	-11.8065
bug	-11.8066
▁clues	-11.8066
emia	-11.8069
▁Todd	-11.8072
▁elimination	-11.8073
▁rebellion	-11.8073
▁Isaac	-11.8073
awn	-11.8077
edu	-11.8077
▁Month	-11.8078
▁flock	-11.8078
hall	-11.8079
▁Might	-11.8082
▁Effective	-11.8082
▁BP	-11.8086
▁historian	-11.809
▁outlook	-11.809
▁cal	-11.8091
▁Secondly	-11.8091
▁instructor	-11.8093
▁69	-11.8094
usa	-11.8096
AF	-11.8096
▁Hur	-11.8099
▁kindness	-11.81
▁editors	-11.8102
▁injustice	-11.8102
▁ED	-11.8104
▁poisoning	-11.8104
▁gloves	-11.8105
▁Difference	-11.8106
▁celebrity	-11.8106
▁fragile	-11.8106
▁hilarious	-11.8106
▁undoubtedly	-11.8106
▁acoustic	-11.8106
▁Bishop	-11.8106
▁wives	-11.8107
▁meanings	-11.8108
▁verified	-11.8109
▁Lauren	-11.811
▁EP	-11.8113
▁Memory	-11.8114
▁preservation	-11.8117
▁quarters	-11.8119
▁wo	-11.812
brain	-11.812
▁twins	-11.8122
▁assessed	-11.8123
▁traders	-11.8124
▁seized	-11.8125
▁consisted	-11.8128
child	-11.8129
▁crushed	-11.813
_{	-11.8131
▁reporters	-11.8132
▁fluids	-11.8134
:47	-11.8134
▁Sales	-11.8134
:04	-11.8135
lining	-11.8137
iro	-11.8137
-05	-11.8139
▁atmospheric	-11.8139
▁inclusive	-11.8139
▁unprecedented	-11.8139
NN	-11.8139
▁bishop	-11.8139
▁CAS	-11.814
▁Legend	-11.814
oooo	-11.8141
▁$50	-11.8142
▁ruler	-11.8142
season	-11.8144
uous	-11.8146
▁ER	-11.8148
▁Mayor	-11.8148
erie	-11.8149
▁temporal	-11.815
▁nails	-11.8151
▁descent	-11.8154
▁downtown	-11.8154
▁gesture	-11.8157
▁saturated	-11.8159
▁heater	-11.816
▁sins	-11.816
▁const	-11.8161
▁wires	-11.8161
Hi	-11.8161
▁educators	-11.8162
▁gu	-11.8164
▁4-	-11.8165
▁comics	-11.8166
▁Pac	-11.8167
▁predators	-11.8167
▁photographer	-11.817
▁ji	-11.8172
:57	-11.8172
▁Baltimore	-11.8172
[...]
